{
  "version": "1.0",
  "truncation": {
    "direction": "Right",
    "max_length": 512,
    "strategy": "LongestFirst",
    "stride": 0
  },
  "padding": {
    "strategy": {
      "Fixed": 512
    },
    "direction": "Right",
    "pad_to_multiple_of": null,
    "pad_id": 0,
    "pad_type_id": 0,
    "pad_token": "[PAD]"
  },
  "added_tokens": [
    {
      "id": 0,
      "content": "[PAD]",
      "single_word": false,
      "lstrip": false,
      "rstrip": false,
      "normalized": false,
      "special": true
    },
    {
      "id": 1,
      "content": "[UNK]",
      "single_word": false,
      "lstrip": false,
      "rstrip": false,
      "normalized": false,
      "special": true
    },
    {
      "id": 2,
      "content": "[CLS]",
      "single_word": false,
      "lstrip": false,
      "rstrip": false,
      "normalized": false,
      "special": true
    },
    {
      "id": 3,
      "content": "[SEP]",
      "single_word": false,
      "lstrip": false,
      "rstrip": false,
      "normalized": false,
      "special": true
    },
    {
      "id": 4,
      "content": "[MASK]",
      "single_word": false,
      "lstrip": false,
      "rstrip": false,
      "normalized": false,
      "special": true
    }
  ],
  "normalizer": {
    "type": "BertNormalizer",
    "clean_text": true,
    "handle_chinese_chars": true,
    "strip_accents": null,
    "lowercase": true
  },
  "pre_tokenizer": {
    "type": "BertPreTokenizer"
  },
  "post_processor": {
    "type": "TemplateProcessing",
    "single": [
      {
        "SpecialToken": {
          "id": "[CLS]",
          "type_id": 0
        }
      },
      {
        "Sequence": {
          "id": "A",
          "type_id": 0
        }
      },
      {
        "SpecialToken": {
          "id": "[SEP]",
          "type_id": 0
        }
      }
    ],
    "pair": [
      {
        "SpecialToken": {
          "id": "[CLS]",
          "type_id": 0
        }
      },
      {
        "Sequence": {
          "id": "A",
          "type_id": 0
        }
      },
      {
        "SpecialToken": {
          "id": "[SEP]",
          "type_id": 0
        }
      },
      {
        "Sequence": {
          "id": "B",
          "type_id": 1
        }
      },
      {
        "SpecialToken": {
          "id": "[SEP]",
          "type_id": 1
        }
      }
    ],
    "special_tokens": {
      "[CLS]": {
        "id": "[CLS]",
        "ids": [
          2
        ],
        "tokens": [
          "[CLS]"
        ]
      },
      "[SEP]": {
        "id": "[SEP]",
        "ids": [
          3
        ],
        "tokens": [
          "[SEP]"
        ]
      }
    }
  },
  "decoder": {
    "type": "WordPiece",
    "prefix": "##",
    "cleanup": true
  },
  "model": {
    "type": "WordPiece",
    "unk_token": "[UNK]",
    "continuing_subword_prefix": "##",
    "max_input_chars_per_word": 100,
    "vocab": {
      "[PAD]": 0,
      "[UNK]": 1,
      "[CLS]": 2,
      "[SEP]": 3,
      "[MASK]": 4,
      "!": 5,
      "\"": 6,
      "#": 7,
      "$": 8,
      "%": 9,
      "&": 10,
      "'": 11,
      "(": 12,
      ")": 13,
      "*": 14,
      "+": 15,
      ",": 16,
      "-": 17,
      ".": 18,
      "/": 19,
      "0": 20,
      "1": 21,
      "2": 22,
      "3": 23,
      "4": 24,
      "5": 25,
      "6": 26,
      "7": 27,
      "8": 28,
      "9": 29,
      ":": 30,
      ";": 31,
      "<": 32,
      "=": 33,
      ">": 34,
      "?": 35,
      "@": 36,
      "[": 37,
      "\\": 38,
      "]": 39,
      "^": 40,
      "_": 41,
      "`": 42,
      "a": 43,
      "b": 44,
      "c": 45,
      "d": 46,
      "e": 47,
      "f": 48,
      "g": 49,
      "h": 50,
      "i": 51,
      "j": 52,
      "k": 53,
      "l": 54,
      "m": 55,
      "n": 56,
      "o": 57,
      "p": 58,
      "q": 59,
      "r": 60,
      "s": 61,
      "t": 62,
      "u": 63,
      "v": 64,
      "w": 65,
      "x": 66,
      "y": 67,
      "z": 68,
      "{": 69,
      "|": 70,
      "}": 71,
      "~": 72,
      "¡": 73,
      "£": 74,
      "¥": 75,
      "¦": 76,
      "§": 77,
      "©": 78,
      "«": 79,
      "¬": 80,
      "®": 81,
      "¯": 82,
      "°": 83,
      "±": 84,
      "²": 85,
      "³": 86,
      "´": 87,
      "µ": 88,
      "·": 89,
      "¹": 90,
      "»": 91,
      "¼": 92,
      "½": 93,
      "¾": 94,
      "¿": 95,
      "×": 96,
      "ß": 97,
      "æ": 98,
      "ð": 99,
      "÷": 100,
      "ø": 101,
      "þ": 102,
      "đ": 103,
      "ħ": 104,
      "ı": 105,
      "ł": 106,
      "ŋ": 107,
      "œ": 108,
      "ſ": 109,
      "ɐ": 110,
      "ɑ": 111,
      "ɔ": 112,
      "ɘ": 113,
      "ə": 114,
      "ɛ": 115,
      "ɥ": 116,
      "ɩ": 117,
      "ɪ": 118,
      "ɾ": 119,
      "ʁ": 120,
      "ʃ": 121,
      "ʊ": 122,
      "ʌ": 123,
      "ʒ": 124,
      "ʻ": 125,
      "ʼ": 126,
      "ʾ": 127,
      "ʿ": 128,
      "ˇ": 129,
      "ˈ": 130,
      "ː": 131,
      "΄": 132,
      "α": 133,
      "β": 134,
      "γ": 135,
      "δ": 136,
      "ε": 137,
      "ζ": 138,
      "η": 139,
      "θ": 140,
      "ι": 141,
      "κ": 142,
      "λ": 143,
      "μ": 144,
      "ν": 145,
      "ξ": 146,
      "ο": 147,
      "π": 148,
      "ρ": 149,
      "ς": 150,
      "σ": 151,
      "τ": 152,
      "υ": 153,
      "φ": 154,
      "χ": 155,
      "ψ": 156,
      "ω": 157,
      "ϑ": 158,
      "ϕ": 159,
      "ϛ": 160,
      "ϵ": 161,
      "а": 162,
      "б": 163,
      "в": 164,
      "г": 165,
      "д": 166,
      "е": 167,
      "ж": 168,
      "з": 169,
      "и": 170,
      "к": 171,
      "л": 172,
      "м": 173,
      "н": 174,
      "о": 175,
      "п": 176,
      "р": 177,
      "с": 178,
      "т": 179,
      "у": 180,
      "ф": 181,
      "х": 182,
      "ц": 183,
      "ч": 184,
      "ш": 185,
      "щ": 186,
      "ъ": 187,
      "ы": 188,
      "ь": 189,
      "э": 190,
      "ю": 191,
      "я": 192,
      "і": 193,
      "ң": 194,
      "ա": 195,
      "ե": 196,
      "թ": 197,
      "կ": 198,
      "մ": 199,
      "ո": 200,
      "ւ": 201,
      "־": 202,
      "א": 203,
      "ב": 204,
      "ג": 205,
      "ד": 206,
      "ה": 207,
      "ו": 208,
      "ז": 209,
      "ח": 210,
      "ט": 211,
      "י": 212,
      "ך": 213,
      "כ": 214,
      "ל": 215,
      "ם": 216,
      "מ": 217,
      "ן": 218,
      "נ": 219,
      "ס": 220,
      "ע": 221,
      "צ": 222,
      "ק": 223,
      "ר": 224,
      "ש": 225,
      "ת": 226,
      "،": 227,
      "؟": 228,
      "ا": 229,
      "ب": 230,
      "ة": 231,
      "ت": 232,
      "ج": 233,
      "ح": 234,
      "خ": 235,
      "د": 236,
      "ذ": 237,
      "ر": 238,
      "ز": 239,
      "س": 240,
      "ش": 241,
      "ص": 242,
      "ض": 243,
      "ط": 244,
      "ظ": 245,
      "ع": 246,
      "غ": 247,
      "ف": 248,
      "ق": 249,
      "ك": 250,
      "ل": 251,
      "م": 252,
      "ن": 253,
      "ه": 254,
      "و": 255,
      "ى": 256,
      "ي": 257,
      "پ": 258,
      "چ": 259,
      "ک": 260,
      "گ": 261,
      "ی": 262,
      "अ": 263,
      "आ": 264,
      "उ": 265,
      "ए": 266,
      "क": 267,
      "ग": 268,
      "ञ": 269,
      "ण": 270,
      "त": 271,
      "थ": 272,
      "द": 273,
      "ध": 274,
      "न": 275,
      "प": 276,
      "ब": 277,
      "भ": 278,
      "म": 279,
      "य": 280,
      "र": 281,
      "ल": 282,
      "व": 283,
      "श": 284,
      "ष": 285,
      "स": 286,
      "ह": 287,
      "ा": 288,
      "ि": 289,
      "ी": 290,
      "ो": 291,
      "ौ": 292,
      "।": 293,
      "আ": 294,
      "ই": 295,
      "ও": 296,
      "ক": 297,
      "জ": 298,
      "ত": 299,
      "দ": 300,
      "ন": 301,
      "ব": 302,
      "ম": 303,
      "র": 304,
      "শ": 305,
      "া": 306,
      "ি": 307,
      "ে": 308,
      "ం": 309,
      "ద": 310,
      "ം": 311,
      "ഉ": 312,
      "ക": 313,
      "ങ": 314,
      "ട": 315,
      "ണ": 316,
      "ത": 317,
      "ധ": 318,
      "ന": 319,
      "പ": 320,
      "മ": 321,
      "യ": 322,
      "ര": 323,
      "ല": 324,
      "ള": 325,
      "വ": 326,
      "ശ": 327,
      "ഷ": 328,
      "സ": 329,
      "ഹ": 330,
      "ാ": 331,
      "ി": 332,
      "െ": 333,
      "േ": 334,
      "ൽ": 335,
      "ก": 336,
      "ข": 337,
      "ค": 338,
      "ง": 339,
      "จ": 340,
      "ด": 341,
      "ต": 342,
      "ถ": 343,
      "ท": 344,
      "ธ": 345,
      "น": 346,
      "บ": 347,
      "ป": 348,
      "ม": 349,
      "ย": 350,
      "ร": 351,
      "ล": 352,
      "ว": 353,
      "ห": 354,
      "อ": 355,
      "า": 356,
      "ำ": 357,
      "เ": 358,
      "แ": 359,
      "ใ": 360,
      "ไ": 361,
      "ກ": 362,
      "ງ": 363,
      "ຈ": 364,
      "ຍ": 365,
      "ດ": 366,
      "ຖ": 367,
      "ທ": 368,
      "ນ": 369,
      "ບ": 370,
      "ປ": 371,
      "ລ": 372,
      "ສ": 373,
      "ຫ": 374,
      "ອ": 375,
      "ະ": 376,
      "າ": 377,
      "ເ": 378,
      "ແ": 379,
      "ໃ": 380,
      "ໄ": 381,
      "ໝ": 382,
      "་": 383,
      "ང": 384,
      "ᄀ": 385,
      "ᄂ": 386,
      "ᄃ": 387,
      "ᄄ": 388,
      "ᄅ": 389,
      "ᄆ": 390,
      "ᄇ": 391,
      "ᄉ": 392,
      "ᄋ": 393,
      "ᄌ": 394,
      "ᄎ": 395,
      "ᄏ": 396,
      "ᄐ": 397,
      "ᄑ": 398,
      "ᄒ": 399,
      "ᅡ": 400,
      "ᅢ": 401,
      "ᅣ": 402,
      "ᅥ": 403,
      "ᅦ": 404,
      "ᅧ": 405,
      "ᅨ": 406,
      "ᅩ": 407,
      "ᅪ": 408,
      "ᅬ": 409,
      "ᅭ": 410,
      "ᅮ": 411,
      "ᅯ": 412,
      "ᅲ": 413,
      "ᅳ": 414,
      "ᅵ": 415,
      "ᆨ": 416,
      "ᆩ": 417,
      "ᆫ": 418,
      "ᆯ": 419,
      "ᆷ": 420,
      "ᆸ": 421,
      "ᆺ": 422,
      "ᆻ": 423,
      "ᆼ": 424,
      "ᇂ": 425,
      "ᏼ": 426,
      "ក": 427,
      "ខ": 428,
      "គ": 429,
      "ង": 430,
      "ច": 431,
      "ឆ": 432,
      "ជ": 433,
      "ញ": 434,
      "ដ": 435,
      "ត": 436,
      "ថ": 437,
      "ទ": 438,
      "ធ": 439,
      "ន": 440,
      "ប": 441,
      "ផ": 442,
      "ព": 443,
      "ម": 444,
      "យ": 445,
      "រ": 446,
      "ល": 447,
      "វ": 448,
      "ស": 449,
      "ហ": 450,
      "អ": 451,
      "ា": 452,
      "ើ": 453,
      "េ": 454,
      "ែ": 455,
      "ោ": 456,
      "ៅ": 457,
      "ះ": 458,
      "ៈ": 459,
      "ᵏ": 460,
      "ᵢ": 461,
      "ᵣ": 462,
      "᾽": 463,
      "‐": 464,
      "–": 465,
      "—": 466,
      "‘": 467,
      "’": 468,
      "“": 469,
      "”": 470,
      "†": 471,
      "•": 472,
      "…": 473,
      "′": 474,
      "″": 475,
      "‿": 476,
      "⁎": 477,
      "⁰": 478,
      "⁴": 479,
      "⁺": 480,
      "⁻": 481,
      "₀": 482,
      "₁": 483,
      "₂": 484,
      "₃": 485,
      "₄": 486,
      "₅": 487,
      "₊": 488,
      "₋": 489,
      "ₖ": 490,
      "ₙ": 491,
      "€": 492,
      "₹": 493,
      "⃣": 494,
      "ℕ": 495,
      "ℝ": 496,
      "℠": 497,
      "™": 498,
      "ℤ": 499,
      "ℵ": 500,
      "⅓": 501,
      "⅔": 502,
      "⅛": 503,
      "⅝": 504,
      "→": 505,
      "↔": 506,
      "↗": 507,
      "↪": 508,
      "↫": 509,
      "∂": 510,
      "∆": 511,
      "∇": 512,
      "∈": 513,
      "∑": 514,
      "−": 515,
      "∙": 516,
      "√": 517,
      "∝": 518,
      "∞": 519,
      "∧": 520,
      "∨": 521,
      "∩": 522,
      "∪": 523,
      "∫": 524,
      "∬": 525,
      "∮": 526,
      "≃": 527,
      "≈": 528,
      "≡": 529,
      "≤": 530,
      "≥": 531,
      "⊂": 532,
      "⊆": 533,
      "⊕": 534,
      "⊖": 535,
      "⊥": 536,
      "⊲": 537,
      "⌈": 538,
      "⌉": 539,
      "⌊": 540,
      "⌋": 541,
      "⏰": 542,
      "⏱": 543,
      "⏳": 544,
      "①": 545,
      "②": 546,
      "ⓘ": 547,
      "─": 548,
      "│": 549,
      "┘": 550,
      "├": 551,
      "┤": 552,
      "┬": 553,
      "┴": 554,
      "┼": 555,
      "╭": 556,
      "╮": 557,
      "╯": 558,
      "╰": 559,
      "▔": 560,
      "□": 561,
      "◇": 562,
      "◉": 563,
      "●": 564,
      "◦": 565,
      "☀": 566,
      "☑": 567,
      "☔": 568,
      "☕": 569,
      "☹": 570,
      "☺": 571,
      "♀": 572,
      "♂": 573,
      "♠": 574,
      "♣": 575,
      "♥": 576,
      "♦": 577,
      "♭": 578,
      "♯": 579,
      "⚔": 580,
      "⚖": 581,
      "⚙": 582,
      "⚠": 583,
      "⚡": 584,
      "⚽": 585,
      "✏": 586,
      "✨": 587,
      "❌": 588,
      "❓": 589,
      "❤": 590,
      "⟩": 591,
      "、": 592,
      "。": 593,
      "》": 594,
      "「": 595,
      "あ": 596,
      "い": 597,
      "う": 598,
      "お": 599,
      "か": 600,
      "き": 601,
      "く": 602,
      "け": 603,
      "こ": 604,
      "し": 605,
      "す": 606,
      "そ": 607,
      "た": 608,
      "ち": 609,
      "っ": 610,
      "て": 611,
      "と": 612,
      "な": 613,
      "に": 614,
      "の": 615,
      "は": 616,
      "へ": 617,
      "ま": 618,
      "め": 619,
      "ら": 620,
      "り": 621,
      "る": 622,
      "れ": 623,
      "を": 624,
      "ん": 625,
      "ア": 626,
      "ィ": 627,
      "イ": 628,
      "キ": 629,
      "ク": 630,
      "コ": 631,
      "サ": 632,
      "シ": 633,
      "ス": 634,
      "ッ": 635,
      "テ": 636,
      "ト": 637,
      "ハ": 638,
      "フ": 639,
      "ヘ": 640,
      "ホ": 641,
      "ラ": 642,
      "リ": 643,
      "ル": 644,
      "レ": 645,
      "ロ": 646,
      "ン": 647,
      "・": 648,
      "ー": 649,
      "ㄱ": 650,
      "ㅗ": 651,
      "ㅜ": 652,
      "ㅠ": 653,
      "ㅣ": 654,
      "一": 655,
      "上": 656,
      "下": 657,
      "不": 658,
      "个": 659,
      "中": 660,
      "为": 661,
      "么": 662,
      "之": 663,
      "了": 664,
      "予": 665,
      "什": 666,
      "今": 667,
      "他": 668,
      "以": 669,
      "们": 670,
      "会": 671,
      "估": 672,
      "住": 673,
      "体": 674,
      "何": 675,
      "作": 676,
      "你": 677,
      "保": 678,
      "修": 679,
      "候": 680,
      "像": 681,
      "公": 682,
      "关": 683,
      "兴": 684,
      "写": 685,
      "军": 686,
      "准": 687,
      "分": 688,
      "利": 689,
      "别": 690,
      "到": 691,
      "制": 692,
      "割": 693,
      "动": 694,
      "化": 695,
      "南": 696,
      "厅": 697,
      "参": 698,
      "収": 699,
      "叫": 700,
      "可": 701,
      "台": 702,
      "吗": 703,
      "君": 704,
      "告": 705,
      "和": 706,
      "哪": 707,
      "善": 708,
      "喜": 709,
      "器": 710,
      "国": 711,
      "土": 712,
      "在": 713,
      "地": 714,
      "報": 715,
      "墙": 716,
      "士": 717,
      "备": 718,
      "多": 719,
      "大": 720,
      "天": 721,
      "太": 722,
      "夫": 723,
      "头": 724,
      "女": 725,
      "她": 726,
      "好": 727,
      "妖": 728,
      "子": 729,
      "存": 730,
      "孟": 731,
      "学": 732,
      "學": 733,
      "定": 734,
      "审": 735,
      "家": 736,
      "对": 737,
      "將": 738,
      "尚": 739,
      "山": 740,
      "岁": 741,
      "巅": 742,
      "常": 743,
      "年": 744,
      "庖": 745,
      "府": 746,
      "弱": 747,
      "強": 748,
      "强": 749,
      "役": 750,
      "彼": 751,
      "很": 752,
      "得": 753,
      "德": 754,
      "心": 755,
      "性": 756,
      "怪": 757,
      "您": 758,
      "意": 759,
      "成": 760,
      "我": 761,
      "战": 762,
      "扰": 763,
      "投": 764,
      "挙": 765,
      "据": 766,
      "控": 767,
      "損": 768,
      "敬": 769,
      "数": 770,
      "文": 771,
      "斯": 772,
      "新": 773,
      "方": 774,
      "於": 775,
      "明": 776,
      "是": 777,
      "智": 778,
      "最": 779,
      "有": 780,
      "木": 781,
      "权": 782,
      "来": 783,
      "树": 784,
      "校": 785,
      "格": 786,
      "椒": 787,
      "業": 788,
      "標": 789,
      "機": 790,
      "欢": 791,
      "止": 792,
      "正": 793,
      "此": 794,
      "比": 795,
      "民": 796,
      "气": 797,
      "水": 798,
      "決": 799,
      "淮": 800,
      "火": 801,
      "灵": 802,
      "炖": 803,
      "点": 804,
      "為": 805,
      "然": 806,
      "爱": 807,
      "片": 808,
      "物": 809,
      "率": 810,
      "王": 811,
      "画": 812,
      "発": 813,
      "的": 814,
      "盆": 815,
      "石": 816,
      "確": 817,
      "礼": 818,
      "私": 819,
      "立": 820,
      "第": 821,
      "算": 822,
      "精": 823,
      "糖": 824,
      "終": 825,
      "継": 826,
      "続": 827,
      "纯": 828,
      "美": 829,
      "耳": 830,
      "肉": 831,
      "胜": 832,
      "能": 833,
      "自": 834,
      "至": 835,
      "花": 836,
      "草": 837,
      "菜": 838,
      "螔": 839,
      "行": 840,
      "表": 841,
      "親": 842,
      "証": 843,
      "認": 844,
      "語": 845,
      "識": 846,
      "议": 847,
      "记": 848,
      "许": 849,
      "该": 850,
      "谢": 851,
      "起": 852,
      "跟": 853,
      "跳": 854,
      "踪": 855,
      "身": 856,
      "这": 857,
      "退": 858,
      "選": 859,
      "部": 860,
      "都": 861,
      "醋": 862,
      "里": 863,
      "金": 864,
      "错": 865,
      "長": 866,
      "際": 867,
      "雄": 868,
      "需": 869,
      "非": 870,
      "预": 871,
      "飛": 872,
      "高": 873,
      "鱼": 874,
      "ꮝ": 875,
      "ꮞ": 876,
      "ꮣ": 877,
      "ꮥ": 878,
      "ꮧ": 879,
      "ꮯ": 880,
      "ꮳ": 881,
      "ﬁ": 882,
      "ﷺ": 883,
      "！": 884,
      "（": 885,
      "）": 886,
      "，": 887,
      "？": 888,
      "｣": 889,
      "𒁲": 890,
      "𝒜": 891,
      "𝒫": 892,
      "𝔹": 893,
      "🇨": 894,
      "🇭": 895,
      "🇮": 896,
      "🇯": 897,
      "🇸": 898,
      "🌈": 899,
      "🌉": 900,
      "🌊": 901,
      "🌍": 902,
      "🌐": 903,
      "🌞": 904,
      "🌠": 905,
      "🌪": 906,
      "🌱": 907,
      "🌳": 908,
      "🌶": 909,
      "🌸": 910,
      "🌽": 911,
      "🌿": 912,
      "🍅": 913,
      "🍇": 914,
      "🍈": 915,
      "🍉": 916,
      "🍎": 917,
      "🍔": 918,
      "🍕": 919,
      "🍦": 920,
      "🍬": 921,
      "🍲": 922,
      "🍳": 923,
      "🍽": 924,
      "🎃": 925,
      "🎈": 926,
      "🎉": 927,
      "🎨": 928,
      "🎩": 929,
      "🎬": 930,
      "🎶": 931,
      "🎼": 932,
      "🏆": 933,
      "🏛": 934,
      "🏠": 935,
      "🏭": 936,
      "🏽": 937,
      "🐟": 938,
      "🐨": 939,
      "🐱": 940,
      "🐶": 941,
      "🐷": 942,
      "👀": 943,
      "👉": 944,
      "👋": 945,
      "👨": 946,
      "👩": 947,
      "💃": 948,
      "💋": 949,
      "💖": 950,
      "💡": 951,
      "💤": 952,
      "💥": 953,
      "💪": 954,
      "💫": 955,
      "💰": 956,
      "💻": 957,
      "📈": 958,
      "📕": 959,
      "📖": 960,
      "📚": 961,
      "📲": 962,
      "🔍": 963,
      "🔎": 964,
      "🔐": 965,
      "🔒": 966,
      "🔥": 967,
      "🕰": 968,
      "🕵": 969,
      "🕺": 970,
      "🗣": 971,
      "😂": 972,
      "😉": 973,
      "😊": 974,
      "😋": 975,
      "😍": 976,
      "😎": 977,
      "😔": 978,
      "😲": 979,
      "😴": 980,
      "🙌": 981,
      "🙏": 982,
      "🚀": 983,
      "🚗": 984,
      "🛋": 985,
      "🤔": 986,
      "🤕": 987,
      "🤝": 988,
      "🤩": 989,
      "🤯": 990,
      "🤷": 991,
      "🤸": 992,
      "🥄": 993,
      "🥗": 994,
      "🥘": 995,
      "🦁": 996,
      "🦳": 997,
      "🦸": 998,
      "🧘": 999,
      "🧠": 1000,
      "🧪": 1001,
      "🪄": 1002,
      "🪔": 1003,
      "🫐": 1004,
      "##o": 1005,
      "##u": 1006,
      "##r": 1007,
      "##g": 1008,
      "##e": 1009,
      "##n": 1010,
      "##d": 1011,
      "##l": 1012,
      "##i": 1013,
      "##c": 1014,
      "##s": 1015,
      "##a": 1016,
      "##h": 1017,
      "##k": 1018,
      "##z": 1019,
      "##f": 1020,
      "##t": 1021,
      "##y": 1022,
      "##b": 1023,
      "##q": 1024,
      "##w": 1025,
      "##p": 1026,
      "##テ": 1027,
      "##ッ": 1028,
      "##フ": 1029,
      "##4": 1030,
      "##m": 1031,
      "##5": 1032,
      "##6": 1033,
      "##j": 1034,
      "##2": 1035,
      "##x": 1036,
      "##v": 1037,
      "##∧": 1038,
      "##1": 1039,
      "##3": 1040,
      "##ر": 1041,
      "##د": 1042,
      "##ی": 1043,
      "##م": 1044,
      "##0": 1045,
      "##α": 1046,
      "##σ": 1047,
      "##τ": 1048,
      "##ο": 1049,
      "##ς": 1050,
      "##μ": 1051,
      "##8": 1052,
      "##ø": 1053,
      "##ز": 1054,
      "##→": 1055,
      "##9": 1056,
      "##7": 1057,
      "##°": 1058,
      "##ه": 1059,
      "##λ": 1060,
      "##ε": 1061,
      "##₁": 1062,
      "##ν": 1063,
      "##θ": 1064,
      "##ρ": 1065,
      "##ω": 1066,
      "##π": 1067,
      "##ι": 1068,
      "##υ": 1069,
      "##ɛ": 1070,
      "##о": 1071,
      "##м": 1072,
      "##ζ": 1073,
      "##η": 1074,
      "##œ": 1075,
      "##ɩ": 1076,
      "##↫": 1077,
      "##ı": 1078,
      "##æ": 1079,
      "##₂": 1080,
      "##♠": 1081,
      "##™": 1082,
      "##お": 1083,
      "##そ": 1084,
      "##ら": 1085,
      "##く": 1086,
      "##β": 1087,
      "##ð": 1088,
      "##п": 1089,
      "##а": 1090,
      "##с": 1091,
      "##и": 1092,
      "##б": 1093,
      "##و": 1094,
      "##ᅥ": 1095,
      "##ᆫ": 1096,
      "##ᄉ": 1097,
      "##ᅢ": 1098,
      "##ᆼ": 1099,
      "##ᄂ": 1100,
      "##ᅵ": 1101,
      "##ᆷ": 1102,
      "##ᄋ": 1103,
      "##ᅳ": 1104,
      "##φ": 1105,
      "##т": 1106,
      "##г": 1107,
      "##н": 1108,
      "##е": 1109,
      "##ß": 1110,
      "##त": 1111,
      "##ा": 1112,
      "##ʌ": 1113,
      "##δ": 1114,
      "##κ": 1115,
      "##ξ": 1116,
      "##र": 1117,
      "##ि": 1118,
      "##क": 1119,
      "##ष": 1120,
      "##ो": 1121,
      "##®": 1122,
      "##χ": 1123,
      "##×": 1124,
      "##²": 1125,
      "##ю": 1126,
      "##ψ": 1127,
      "##р": 1128,
      "##я": 1129,
      "##ن": 1130,
      "##ł": 1131,
      "##ʿ": 1132,
      "##י": 1133,
      "##💻": 1134,
      "##☕": 1135,
      "##श": 1136,
      "##व": 1137,
      "##स": 1138,
      "##サ": 1139,
      "##イ": 1140,
      "##ン": 1141,
      "##の": 1142,
      "##ϕ": 1143,
      "##ь": 1144,
      "##ו": 1145,
      "##ᅡ": 1146,
      "##ᆨ": 1147,
      "##ᄀ": 1148,
      "##ᅭ": 1149,
      "##ᅦ": 1150,
      "##γ": 1151,
      "##▔": 1152,
      "##₀": 1153,
      "##ང": 1154,
      "##ж": 1155,
      "##л": 1156,
      "##у": 1157,
      "##д": 1158,
      "##🌍": 1159,
      "##🇸": 1160,
      "##🇭": 1161,
      "##ق": 1162,
      "##ت": 1163,
      "##ص": 1164,
      "##ا": 1165,
      "##в": 1166,
      "##−": 1167,
      "##ᆸ": 1168,
      "##ᄌ": 1169,
      "##∇": 1170,
      "##ц": 1171,
      "##ט": 1172,
      "##ל": 1173,
      "##♀": 1174,
      "##∆": 1175,
      "##ч": 1176,
      "##к": 1177,
      "##ы": 1178,
      "##❤": 1179,
      "##ض": 1180,
      "##ع": 1181,
      "##ん": 1182,
      "##に": 1183,
      "##ち": 1184,
      "##は": 1185,
      "##₃": 1186,
      "##₄": 1187,
      "##س": 1188,
      "##گ": 1189,
      "##ذ": 1190,
      "##い": 1191,
      "##ل": 1192,
      "##х": 1193,
      "##ר": 1194,
      "##ק": 1195,
      "##©": 1196,
      "##´": 1197,
      "##∈": 1198,
      "##ℕ": 1199,
      "##¹": 1200,
      "##⁰": 1201,
      "##♦": 1202,
      "##🌿": 1203,
      "##♯": 1204,
      "##₅": 1205,
      "##ш": 1206,
      "##ᄃ": 1207,
      "##জ": 1208,
      "##ᄐ": 1209,
      "##½": 1210,
      "##ग": 1211,
      "##य": 1212,
      "##щ": 1213,
      "##♣": 1214,
      "##ᅬ": 1215,
      "##ᄎ": 1216,
      "##ᄅ": 1217,
      "##ᅣ": 1218,
      "##³": 1219,
      "##া": 1220,
      "##শ": 1221,
      "##म": 1222,
      "##ी": 1223,
      "##💡": 1224,
      "##ʾ": 1225,
      "##¼": 1226,
      "##ᅮ": 1227,
      "##ᄒ": 1228,
      "##き": 1229,
      "##る": 1230,
      "##з": 1231,
      "##⁴": 1232,
      "##ᄆ": 1233,
      "##─": 1234,
      "##┴": 1235,
      "##╯": 1236,
      "##🌐": 1237,
      "##ᆯ": 1238,
      "##ᅨ": 1239,
      "##🌽": 1240,
      "##🐟": 1241,
      "##🍬": 1242,
      "##ʁ": 1243,
      "##ط": 1244,
      "##េ": 1245,
      "##ស": 1246,
      "##ល": 1247,
      "##ম": 1248,
      "##な": 1249,
      "##て": 1250,
      "##し": 1251,
      "##う": 1252,
      "##🍽": 1253,
      "##┼": 1254,
      "##┤": 1255,
      "##🍳": 1256,
      "##ल": 1257,
      "##भ": 1258,
      "##ش": 1259,
      "##∞": 1260,
      "##✏": 1261,
      "##♥": 1262,
      "##א": 1263,
      "##מ": 1264,
      "##ת": 1265,
      "##ᅩ": 1266,
      "##⃣": 1267,
      "##ℝ": 1268,
      "##ϑ": 1269,
      "##ŋ": 1270,
      "##ᅯ": 1271,
      "##ᅧ": 1272,
      "##נ": 1273,
      "##כ": 1274,
      "##ה": 1275,
      "##ꮳ": 1276,
      "##ꮣ": 1277,
      "##ꮯ": 1278,
      "##ᏼ": 1279,
      "##ꮞ": 1280,
      "##ꮝ": 1281,
      "##ꮧ": 1282,
      "##ᵢ": 1283,
      "##₊": 1284,
      "##◉": 1285,
      "##ม": 1286,
      "##น": 1287,
      "##ใ": 1288,
      "##จ": 1289,
      "##ว": 1290,
      "##า": 1291,
      "##บ": 1292,
      "##ท": 1293,
      "##ห": 1294,
      "##ข": 1295,
      "##อ": 1296,
      "##ง": 1297,
      "##ᄇ": 1298,
      "##た": 1299,
      "##こ": 1300,
      "##と": 1301,
      "##を": 1302,
      "##ー": 1303,
      "##ル": 1304,
      "##𝔹": 1305,
      "##り": 1306,
      "##か": 1307,
      "##ब": 1308,
      "##ध": 1309,
      "##न": 1310,
      "##₋": 1311,
      "##і": 1312,
      "##ៈ": 1313,
      "##ព": 1314,
      "##ដ": 1315,
      "##ែ": 1316,
      "##វ": 1317,
      "##ា": 1318,
      "##ជ": 1319,
      "##ក": 1320,
      "##រ": 1321,
      "##ោ": 1322,
      "##ៅ": 1323,
      "##シ": 1324,
      "##ɑ": 1325,
      "##ɪ": 1326,
      "##ъ": 1327,
      "##ᄑ": 1328,
      "##ſ": 1329,
      "##ハ": 1330,
      "##ク": 1331,
      "##ₖ": 1332,
      "##ي": 1333,
      "##خ": 1334,
      "##ˈ": 1335,
      "##ʒ": 1336,
      "##っ": 1337,
      "##す": 1338,
      "##ב": 1339,
      "##ן": 1340,
      "##ɐ": 1341,
      "##┘": 1342,
      "##¾": 1343,
      "##📚": 1344,
      "##✨": 1345,
      "##☺": 1346,
      "##🥗": 1347,
      "##ة": 1348,
      "##♂": 1349,
      "##👩": 1350,
      "##🏽": 1351,
      "##🦳": 1352,
      "##ə": 1353,
      "##ɔ": 1354,
      "##ᵏ": 1355,
      "##پ": 1356,
      "##ى": 1357,
      "##❌": 1358,
      "##ː": 1359,
      "##ج": 1360,
      "##ʃ": 1361,
      "##ϛ": 1362,
      "##ʼ": 1363,
      "##ˇ": 1364,
      "##ᆻ": 1365,
      "##দ": 1366,
      "##ে": 1367,
      "##れ": 1368,
      "##ɾ": 1369,
      "##द": 1370,
      "##ト": 1371,
      "##ʻ": 1372,
      "##ד": 1373,
      "##ע": 1374,
      "##🍕": 1375,
      "##ើ": 1376,
      "##យ": 1377,
      "##ង": 1378,
      "##ច": 1379,
      "##ធ": 1380,
      "##ន": 1381,
      "##ះ": 1382,
      "##ត": 1383,
      "##ផ": 1384,
      "##អ": 1385,
      "##គ": 1386,
      "##ម": 1387,
      "##ប": 1388,
      "##ថ": 1389,
      "##≈": 1390,
      "##΄": 1391,
      "##ര": 1392,
      "##േ": 1393,
      "##ാ": 1394,
      "##ത": 1395,
      "##സ": 1396,
      "##ഹ": 1397,
      "##ന": 1398,
      "##മ": 1399,
      "##ള": 1400,
      "##¦": 1401,
      "##ញ": 1402,
      "##🚀": 1403,
      "##🌱": 1404,
      "##غ": 1405,
      "##🎉": 1406,
      "##đ": 1407,
      "##あ": 1408,
      "##ま": 1409,
      "##ک": 1410,
      "##ₙ": 1411,
      "##ك": 1412,
      "##🕺": 1413,
      "##√": 1414,
      "##ി": 1415,
      "##ശ": 1416,
      "##വ": 1417,
      "##ം": 1418,
      "##ই": 1419,
      "##ব": 1420,
      "##ন": 1421,
      "##র": 1422,
      "##ौ": 1423,
      "##キ": 1424,
      "##ィ": 1425,
      "##ホ": 1426,
      "##ф": 1427,
      "##ɘ": 1428,
      "##🍉": 1429,
      "##🍇": 1430,
      "##👀": 1431,
      "##ʊ": 1432,
      "##᾽": 1433,
      "##ラ": 1434,
      "##ไ": 1435,
      "##ด": 1436,
      "##ป": 1437,
      "##ล": 1438,
      "##ย": 1439,
      "##ค": 1440,
      "##ำ": 1441,
      "##แ": 1442,
      "##ถ": 1443,
      "##ก": 1444,
      "##ร": 1445,
      "##💖": 1446,
      "##⚠": 1447,
      "##ি": 1448,
      "##💃": 1449,
      "##£": 1450,
      "##ア": 1451,
      "##レ": 1452,
      "##ス": 1453,
      "##ف": 1454,
      "##ह": 1455,
      "##ए": 1456,
      "##प": 1457,
      "##ب": 1458,
      "##ח": 1459,
      "##ם": 1460,
      "##⅛": 1461,
      "##þ": 1462,
      "##ద": 1463,
      "##ז": 1464,
      "##ך": 1465,
      "##ទ": 1466,
      "##ហ": 1467,
      "##ഷ": 1468,
      "##യ": 1469,
      "##ం": 1470,
      "##ɥ": 1471,
      "##≥": 1472,
      "##ക": 1473,
      "##э": 1474,
      "##🤔": 1475,
      "##പ": 1476,
      "##🔐": 1477,
      "##ロ": 1478,
      "##⊆": 1479,
      "##µ": 1480,
      "##∙": 1481,
      "##ᄏ": 1482,
      "##ᅲ": 1483,
      "##↗": 1484,
      "##ങ": 1485,
      "##リ": 1486,
      "##🐱": 1487,
      "##📲": 1488,
      "##ᆩ": 1489,
      "##🔥": 1490,
      "##め": 1491,
      "##💰": 1492,
      "##ң": 1493,
      "##ש": 1494,
      "##☀": 1495,
      "##🫐": 1496,
      "##⁺": 1497,
      "##צ": 1498,
      "##ᆺ": 1499,
      "##ᵣ": 1500,
      "##ﬁ": 1501,
      "##ত": 1502,
      "##ক": 1503,
      "##ട": 1504,
      "##െ": 1505,
      "##ല": 1506,
      "##ണ": 1507,
      "##ൽ": 1508,
      "##ខ": 1509,
      "##ظ": 1510,
      "##💫": 1511,
      "##ħ": 1512,
      "##∂": 1513,
      "##ա": 1514,
      "##կ": 1515,
      "##ո": 1516,
      "##ւ": 1517,
      "##թ": 1518,
      "##⁻": 1519,
      "##थ": 1520,
      "##♭": 1521,
      "##ե": 1522,
      "##┬": 1523,
      "##🧪": 1524,
      "##🔍": 1525,
      "##⚡": 1526,
      "##ℤ": 1527,
      "##ധ": 1528,
      "##ס": 1529,
      "##₹": 1530,
      "##€": 1531,
      "##⚖": 1532,
      "##🎬": 1533,
      "##ण": 1534,
      "##ᅪ": 1535,
      "##❓": 1536,
      "##ञ": 1537,
      "##ឆ": 1538,
      "##╮": 1539,
      "##ح": 1540,
      "##ະ": 1541,
      "##ສ": 1542,
      "##ດ": 1543,
      "##ອ": 1544,
      "##ບ": 1545,
      "##ນ": 1546,
      "##ລ": 1547,
      "##າ": 1548,
      "##ແ": 1549,
      "##ຫ": 1550,
      "##ງ": 1551,
      "##ປ": 1552,
      "##ເ": 1553,
      "##ທ": 1554,
      "##ຍ": 1555,
      "##ໄ": 1556,
      "##ກ": 1557,
      "##ໃ": 1558,
      "##ຈ": 1559,
      "##ໝ": 1560,
      "##ຖ": 1561,
      "##↔": 1562,
      "##📕": 1563,
      "##℠": 1564,
      "##💪": 1565,
      "##เ": 1566,
      "##±": 1567,
      "##ธ": 1568,
      "##ต": 1569,
      "##💋": 1570,
      "##👨": 1571,
      "##¯": 1572,
      "##ᇂ": 1573,
      "th": 1574,
      "##er": 1575,
      "##in": 1576,
      "the": 1577,
      "##nd": 1578,
      "##at": 1579,
      "##ou": 1580,
      "##es": 1581,
      "##on": 1582,
      "##ing": 1583,
      "##en": 1584,
      "##or": 1585,
      "##ed": 1586,
      "and": 1587,
      "##it": 1588,
      "##an": 1589,
      "to": 1590,
      "##ar": 1591,
      "##al": 1592,
      "##is": 1593,
      "in": 1594,
      "of": 1595,
      "##ic": 1596,
      "you": 1597,
      "##om": 1598,
      "##re": 1599,
      "##ion": 1600,
      "##as": 1601,
      "##el": 1602,
      "wh": 1603,
      "##le": 1604,
      "##et": 1605,
      "##ow": 1606,
      "##ent": 1607,
      "##ot": 1608,
      "it": 1609,
      "##il": 1610,
      "##ut": 1611,
      "##st": 1612,
      "##ec": 1613,
      "on": 1614,
      "that": 1615,
      "##ac": 1616,
      "##ur": 1617,
      "##ad": 1618,
      "##id": 1619,
      "##ve": 1620,
      "##gh": 1621,
      "##ly": 1622,
      "##ay": 1623,
      "he": 1624,
      "st": 1625,
      "##se": 1626,
      "##ere": 1627,
      "##ir": 1628,
      "##ol": 1629,
      "re": 1630,
      "for": 1631,
      "##im": 1632,
      "be": 1633,
      "sh": 1634,
      "##ith": 1635,
      "##ver": 1636,
      "pr": 1637,
      "with": 1638,
      "##ter": 1639,
      "##am": 1640,
      "as": 1641,
      "is": 1642,
      "##ation": 1643,
      "ha": 1644,
      "al": 1645,
      "##ce": 1646,
      "an": 1647,
      "##ess": 1648,
      "##ul": 1649,
      "##oo": 1650,
      "##ch": 1651,
      "##th": 1652,
      "con": 1653,
      "##ght": 1654,
      "##ke": 1655,
      "li": 1656,
      "ch": 1657,
      "we": 1658,
      "##ld": 1659,
      "do": 1660,
      "ex": 1661,
      "##ers": 1662,
      "was": 1663,
      "com": 1664,
      "this": 1665,
      "##ain": 1666,
      "##ri": 1667,
      "##ag": 1668,
      "his": 1669,
      "su": 1670,
      "##em": 1671,
      "what": 1672,
      "##pp": 1673,
      "or": 1674,
      "at": 1675,
      "##ab": 1676,
      "they": 1677,
      "##ies": 1678,
      "##op": 1679,
      "##ill": 1680,
      "me": 1681,
      "##ect": 1682,
      "se": 1683,
      "so": 1684,
      "not": 1685,
      "##ant": 1686,
      "your": 1687,
      "##ct": 1688,
      "en": 1689,
      "##us": 1690,
      "##ig": 1691,
      "fr": 1692,
      "can": 1693,
      "##ore": 1694,
      "##ap": 1695,
      "##ight": 1696,
      "##all": 1697,
      "##ould": 1698,
      "##ell": 1699,
      "ne": 1700,
      "##est": 1701,
      "##and": 1702,
      "go": 1703,
      "##ate": 1704,
      "tr": 1705,
      "##os": 1706,
      "by": 1707,
      "but": 1708,
      "##um": 1709,
      "have": 1710,
      "there": 1711,
      "##un": 1712,
      "##if": 1713,
      "are": 1714,
      "her": 1715,
      "##ity": 1716,
      "##ome": 1717,
      "##her": 1718,
      "##iv": 1719,
      "all": 1720,
      "one": 1721,
      "sp": 1722,
      "##ust": 1723,
      "she": 1724,
      "##out": 1725,
      "##ist": 1726,
      "le": 1727,
      "de": 1728,
      "ab": 1729,
      "##rou": 1730,
      "##ive": 1731,
      "pl": 1732,
      "my": 1733,
      "up": 1734,
      "wor": 1735,
      "##ard": 1736,
      "int": 1737,
      "had": 1738,
      "##od": 1739,
      "##ook": 1740,
      "like": 1741,
      "sa": 1742,
      "##ous": 1743,
      "kn": 1744,
      "un": 1745,
      "im": 1746,
      "their": 1747,
      "##oc": 1748,
      "##ial": 1749,
      "##our": 1750,
      "no": 1751,
      "##ions": 1752,
      "##art": 1753,
      "from": 1754,
      "##pl": 1755,
      "##ak": 1756,
      "him": 1757,
      "##ort": 1758,
      "##ure": 1759,
      "##ment": 1760,
      "##qu": 1761,
      "them": 1762,
      "how": 1763,
      "##ich": 1764,
      "##ind": 1765,
      "##ine": 1766,
      "ad": 1767,
      "when": 1768,
      "us": 1769,
      "man": 1770,
      "##ong": 1771,
      "##nder": 1772,
      "these": 1773,
      "who": 1774,
      "##ood": 1775,
      "out": 1776,
      "##ast": 1777,
      "##ep": 1778,
      "##ical": 1779,
      "##act": 1780,
      "know": 1781,
      "ar": 1782,
      "about": 1783,
      "some": 1784,
      "##one": 1785,
      "##ack": 1786,
      "##og": 1787,
      "##ance": 1788,
      "##iz": 1789,
      "##ie": 1790,
      "##ud": 1791,
      "##ake": 1792,
      "##ge": 1793,
      "dis": 1794,
      "which": 1795,
      "##ations": 1796,
      "res": 1797,
      "if": 1798,
      "cl": 1799,
      "will": 1800,
      "br": 1801,
      "comp": 1802,
      "##reat": 1803,
      "##ach": 1804,
      "cont": 1805,
      "##ame": 1806,
      "now": 1807,
      "##ink": 1808,
      "into": 1809,
      "gr": 1810,
      "cr": 1811,
      "##ence": 1812,
      "##ov": 1813,
      "##able": 1814,
      "##au": 1815,
      "look": 1816,
      "##ip": 1817,
      "str": 1818,
      "##av": 1819,
      "##ff": 1820,
      "more": 1821,
      "tim": 1822,
      "am": 1823,
      "don": 1824,
      "##end": 1825,
      "##ual": 1826,
      "ev": 1827,
      "let": 1828,
      "##ide": 1829,
      "our": 1830,
      "did": 1831,
      "ever": 1832,
      "##ost": 1833,
      "ac": 1834,
      "##itt": 1835,
      "fe": 1836,
      "see": 1837,
      "##ice": 1838,
      "then": 1839,
      "##pt": 1840,
      "where": 1841,
      "em": 1842,
      "oth": 1843,
      "under": 1844,
      "were": 1845,
      "##ose": 1846,
      "##own": 1847,
      "##ile": 1848,
      "##ish": 1849,
      "app": 1850,
      "##ings": 1851,
      "##ult": 1852,
      "##ound": 1853,
      "said": 1854,
      "##ace": 1855,
      "##ue": 1856,
      "##age": 1857,
      "would": 1858,
      "##ely": 1859,
      "##ans": 1860,
      "##per": 1861,
      "ag": 1862,
      "##ci": 1863,
      "car": 1864,
      "over": 1865,
      "get": 1866,
      "any": 1867,
      "##elf": 1868,
      "imp": 1869,
      "##rough": 1870,
      "just": 1871,
      "through": 1872,
      "##ful": 1873,
      "here": 1874,
      "##ents": 1875,
      "##ary": 1876,
      "##uc": 1877,
      "##fer": 1878,
      "##ass": 1879,
      "##ry": 1880,
      "think": 1881,
      "bet": 1882,
      "tw": 1883,
      "##ib": 1884,
      "well": 1885,
      "time": 1886,
      "##ays": 1887,
      "pe": 1888,
      "qu": 1889,
      "##ces": 1890,
      "##ign": 1891,
      "bo": 1892,
      "bec": 1893,
      "##ick": 1894,
      "##oun": 1895,
      "##ors": 1896,
      "could": 1897,
      "##ating": 1898,
      "dr": 1899,
      "##ear": 1900,
      "##ite": 1901,
      "rem": 1902,
      "ind": 1903,
      "##ang": 1904,
      "##na": 1905,
      "inc": 1906,
      "##ious": 1907,
      "col": 1908,
      "per": 1909,
      "##hing": 1910,
      "hel": 1911,
      "xx": 1912,
      "put": 1913,
      "##other": 1914,
      "##orm": 1915,
      "its": 1916,
      "xxx": 1917,
      "ro": 1918,
      "pre": 1919,
      "other": 1920,
      "want": 1921,
      "inter": 1922,
      "##ning": 1923,
      "##ber": 1924,
      "thou": 1925,
      "##ery": 1926,
      "##ks": 1927,
      "comm": 1928,
      "co": 1929,
      "oh": 1930,
      "every": 1931,
      "down": 1932,
      "bl": 1933,
      "part": 1934,
      "##ove": 1935,
      "##ities": 1936,
      "##ens": 1937,
      "##ated": 1938,
      "such": 1939,
      "##ittle": 1940,
      "af": 1941,
      "little": 1942,
      "too": 1943,
      "##oss": 1944,
      "##ild": 1945,
      "has": 1946,
      "fl": 1947,
      "rec": 1948,
      "##ory": 1949,
      "des": 1950,
      "##ire": 1951,
      "##ft": 1952,
      "may": 1953,
      "than": 1954,
      "##omet": 1955,
      "good": 1956,
      "##ving": 1957,
      "##aw": 1958,
      "sc": 1959,
      "got": 1960,
      "back": 1961,
      "while": 1962,
      "expl": 1963,
      "been": 1964,
      "##round": 1965,
      "##ause": 1966,
      "rel": 1967,
      "##ally": 1968,
      "##ition": 1969,
      "##ater": 1970,
      "somet": 1971,
      "##oth": 1972,
      "cons": 1973,
      "pro": 1974,
      "ll": 1975,
      "two": 1976,
      "##fore": 1977,
      "underst": 1978,
      "##tain": 1979,
      "off": 1980,
      "##uct": 1981,
      "play": 1982,
      "##pr": 1983,
      "help": 1984,
      "##pect": 1985,
      "##ath": 1986,
      "##ict": 1987,
      "##les": 1988,
      "##urn": 1989,
      "act": 1990,
      "##ures": 1991,
      "mar": 1992,
      "po": 1993,
      "##we": 1994,
      "##ade": 1995,
      "work": 1996,
      "right": 1997,
      "hand": 1998,
      "##ree": 1999,
      "come": 2000,
      "understand": 2001,
      "##form": 2002,
      "fir": 2003,
      "sm": 2004,
      "##fe": 2005,
      "very": 2006,
      "acc": 2007,
      "again": 2008,
      "new": 2009,
      "##ves": 2010,
      "even": 2011,
      "##uring": 2012,
      "##old": 2013,
      "##oll": 2014,
      "##ons": 2015,
      "after": 2016,
      "inst": 2017,
      "does": 2018,
      "##aking": 2019,
      "##ys": 2020,
      "##ord": 2021,
      "te": 2022,
      "those": 2023,
      "##ise": 2024,
      "lear": 2025,
      "dif": 2026,
      "aw": 2027,
      "peop": 2028,
      "say": 2029,
      "fri": 2030,
      "might": 2031,
      "##wn": 2032,
      "before": 2033,
      "##get": 2034,
      "##ward": 2035,
      "##ting": 2036,
      "call": 2037,
      "disc": 2038,
      "##ail": 2039,
      "people": 2040,
      "##ific": 2041,
      "ke": 2042,
      "##vel": 2043,
      "read": 2044,
      "need": 2045,
      "ins": 2046,
      "first": 2047,
      "make": 2048,
      "##are": 2049,
      "##self": 2050,
      "going": 2051,
      "world": 2052,
      "##ech": 2053,
      "##xt": 2054,
      "##ount": 2055,
      "inv": 2056,
      "##igh": 2057,
      "##ness": 2058,
      "##ase": 2059,
      "way": 2060,
      "##ments": 2061,
      "id": 2062,
      "##air": 2063,
      "friend": 2064,
      "pers": 2065,
      "##ather": 2066,
      "ve": 2067,
      "ph": 2068,
      "##my": 2069,
      "##lect": 2070,
      "exam": 2071,
      "bu": 2072,
      "why": 2073,
      "should": 2074,
      "only": 2075,
      "wr": 2076,
      "day": 2077,
      "take": 2078,
      "ser": 2079,
      "##olog": 2080,
      "dec": 2081,
      "add": 2082,
      "##ro": 2083,
      "##ked": 2084,
      "##ics": 2085,
      "reg": 2086,
      "##iss": 2087,
      "##led": 2088,
      "##ily": 2089,
      "happ": 2090,
      "ob": 2091,
      "differ": 2092,
      "mu": 2093,
      "##ates": 2094,
      "gl": 2095,
      "sy": 2096,
      "##ah": 2097,
      "##rib": 2098,
      "##ple": 2099,
      "great": 2100,
      "many": 2101,
      "another": 2102,
      "##als": 2103,
      "##ond": 2104,
      "eng": 2105,
      "##ower": 2106,
      "life": 2107,
      "##eng": 2108,
      "long": 2109,
      "gu": 2110,
      "art": 2111,
      "##ia": 2112,
      "own": 2113,
      "exper": 2114,
      "spec": 2115,
      "##anc": 2116,
      "##ween": 2117,
      "between": 2118,
      "mom": 2119,
      "made": 2120,
      "##iver": 2121,
      "##ty": 2122,
      "eff": 2123,
      "ear": 2124,
      "stud": 2125,
      "##ential": 2126,
      "something": 2127,
      "##ms": 2128,
      "sim": 2129,
      "upon": 2130,
      "##day": 2131,
      "because": 2132,
      "##iqu": 2133,
      "tell": 2134,
      "##ved": 2135,
      "##ress": 2136,
      "op": 2137,
      "##over": 2138,
      "##ough": 2139,
      "pres": 2140,
      "bel": 2141,
      "imag": 2142,
      "find": 2143,
      "##ever": 2144,
      "##ian": 2145,
      "att": 2146,
      "##ied": 2147,
      "##king": 2148,
      "##atter": 2149,
      "each": 2150,
      "must": 2151,
      "prov": 2152,
      "##oy": 2153,
      "##ave": 2154,
      "##ular": 2155,
      "much": 2156,
      "commun": 2157,
      "##int": 2158,
      "val": 2159,
      "##ouse": 2160,
      "set": 2161,
      "gen": 2162,
      "within": 2163,
      "##arm": 2164,
      "es": 2165,
      "adv": 2166,
      "##ility": 2167,
      "##ection": 2168,
      "creat": 2169,
      "sch": 2170,
      "ass": 2171,
      "tech": 2172,
      "par": 2173,
      "old": 2174,
      "##ible": 2175,
      "##ling": 2176,
      "fun": 2177,
      "sur": 2178,
      "cour": 2179,
      "mr": 2180,
      "##ember": 2181,
      "thought": 2182,
      "##atch": 2183,
      "el": 2184,
      "sk": 2185,
      "var": 2186,
      "sign": 2187,
      "##so": 2188,
      "supp": 2189,
      "##ub": 2190,
      "tal": 2191,
      "##ices": 2192,
      "##gg": 2193,
      "hist": 2194,
      "during": 2195,
      "hum": 2196,
      "cre": 2197,
      "##ues": 2198,
      "del": 2199,
      "##ences": 2200,
      "feel": 2201,
      "##ows": 2202,
      "##its": 2203,
      "both": 2204,
      "techn": 2205,
      "sl": 2206,
      "##ject": 2207,
      "##ying": 2208,
      "cult": 2209,
      "##ange": 2210,
      "##ds": 2211,
      "##ative": 2212,
      "care": 2213,
      "also": 2214,
      "##hip": 2215,
      "big": 2216,
      "called": 2217,
      "##cc": 2218,
      "turn": 2219,
      "things": 2220,
      "gon": 2221,
      "##ently": 2222,
      "mod": 2223,
      "char": 2224,
      "##ne": 2225,
      "ey": 2226,
      "use": 2227,
      "found": 2228,
      "fin": 2229,
      "being": 2230,
      "##ural": 2231,
      "##cept": 2232,
      "pract": 2233,
      "gonna": 2234,
      "wan": 2235,
      "trans": 2236,
      "real": 2237,
      "better": 2238,
      "away": 2239,
      "##erm": 2240,
      "##alth": 2241,
      "fam": 2242,
      "incl": 2243,
      "##ool": 2244,
      "pol": 2245,
      "##enc": 2246,
      "high": 2247,
      "around": 2248,
      "toget": 2249,
      "together": 2250,
      "##owing": 2251,
      "never": 2252,
      "sec": 2253,
      "remember": 2254,
      "yes": 2255,
      "##ock": 2256,
      "min": 2257,
      "book": 2258,
      "dist": 2259,
      "##gan": 2260,
      "exc": 2261,
      "understanding": 2262,
      "jo": 2263,
      "learn": 2264,
      "##br": 2265,
      "##akes": 2266,
      "##ble": 2267,
      "conc": 2268,
      "cap": 2269,
      "mean": 2270,
      "met": 2271,
      "##ider": 2272,
      "##ern": 2273,
      "experi": 2274,
      "house": 2275,
      "ref": 2276,
      "shall": 2277,
      "different": 2278,
      "wanna": 2279,
      "##red": 2280,
      "keep": 2281,
      "came": 2282,
      "red": 2283,
      "##ven": 2284,
      "pass": 2285,
      "##ody": 2286,
      "bre": 2287,
      "open": 2288,
      "head": 2289,
      "comple": 2290,
      "end": 2291,
      "##ature": 2292,
      "count": 2293,
      "##thing": 2294,
      "##ives": 2295,
      "chap": 2296,
      "still": 2297,
      "import": 2298,
      "ed": 2299,
      "##gin": 2300,
      "bas": 2301,
      "##ivid": 2302,
      "##ten": 2303,
      "seem": 2304,
      "cur": 2305,
      "start": 2306,
      "went": 2307,
      "using": 2308,
      "year": 2309,
      "##ph": 2310,
      "most": 2311,
      "sub": 2312,
      "ye": 2313,
      "child": 2314,
      "##ize": 2315,
      "##ement": 2316,
      "cle": 2317,
      "##ps": 2318,
      "without": 2319,
      "beh": 2320,
      "form": 2321,
      "chall": 2322,
      "health": 2323,
      "give": 2324,
      "water": 2325,
      "conf": 2326,
      "##ead": 2327,
      "bab": 2328,
      "person": 2329,
      "once": 2330,
      "mon": 2331,
      "##ters": 2332,
      "vis": 2333,
      "foll": 2334,
      "home": 2335,
      "power": 2336,
      "##ism": 2337,
      "##be": 2338,
      "three": 2339,
      "##velop": 2340,
      "lead": 2341,
      "##ines": 2342,
      "med": 2343,
      "prom": 2344,
      "last": 2345,
      "##ix": 2346,
      "ok": 2347,
      "##ng": 2348,
      "num": 2349,
      "chapter": 2350,
      "imagine": 2351,
      "##ene": 2352,
      "##ories": 2353,
      "okay": 2354,
      "##ared": 2355,
      "consider": 2356,
      "##ric": 2357,
      "##ribut": 2358,
      "making": 2359,
      "inf": 2360,
      "sw": 2361,
      "however": 2362,
      "ret": 2363,
      "##lic": 2364,
      "##wards": 2365,
      "explor": 2366,
      "##ized": 2367,
      "conn": 2368,
      "develop": 2369,
      "among": 2370,
      "sol": 2371,
      "various": 2372,
      "##stem": 2373,
      "##te": 2374,
      "##ways": 2375,
      "contin": 2376,
      "##ner": 2377,
      "##iting": 2378,
      "prop": 2379,
      "##yp": 2380,
      "mind": 2381,
      "gre": 2382,
      "school": 2383,
      "pot": 2384,
      "includ": 2385,
      "##uck": 2386,
      "wom": 2387,
      "##ists": 2388,
      "proc": 2389,
      "##ried": 2390,
      "##ark": 2391,
      "today": 2392,
      "cor": 2393,
      "det": 2394,
      "individ": 2395,
      "yet": 2396,
      "individual": 2397,
      "deep": 2398,
      "step": 2399,
      "gir": 2400,
      "bus": 2401,
      "##ional": 2402,
      "##dy": 2403,
      "young": 2404,
      "##ened": 2405,
      "##ited": 2406,
      "##por": 2407,
      "build": 2408,
      "##ull": 2409,
      "##ts": 2410,
      "##uth": 2411,
      "um": 2412,
      "gener": 2413,
      "kind": 2414,
      "light": 2415,
      "dat": 2416,
      "didn": 2417,
      "##ier": 2418,
      "##ew": 2419,
      "##augh": 2420,
      "enc": 2421,
      "doing": 2422,
      "isn": 2423,
      "##uss": 2424,
      "##ages": 2425,
      "##ically": 2426,
      "##ra": 2427,
      "##less": 2428,
      "quest": 2429,
      "others": 2430,
      "mor": 2431,
      "##read": 2432,
      "##iness": 2433,
      "##ope": 2434,
      "##ually": 2435,
      "place": 2436,
      "spe": 2437,
      "pur": 2438,
      "love": 2439,
      "system": 2440,
      "##ands": 2441,
      "sit": 2442,
      "men": 2443,
      "always": 2444,
      "mum": 2445,
      "##ars": 2446,
      "##ety": 2447,
      "night": 2448,
      "partic": 2449,
      "##ogr": 2450,
      "rep": 2451,
      "soc": 2452,
      "ens": 2453,
      "girl": 2454,
      "wa": 2455,
      "##str": 2456,
      "ple": 2457,
      "less": 2458,
      "eyes": 2459,
      "though": 2460,
      "##erg": 2461,
      "often": 2462,
      "next": 2463,
      "##sel": 2464,
      "himself": 2465,
      "##ants": 2466,
      "yeah": 2467,
      "course": 2468,
      "##aph": 2469,
      "##ertain": 2470,
      "ide": 2471,
      "ext": 2472,
      "##ique": 2473,
      "dad": 2474,
      "friends": 2475,
      "room": 2476,
      "belie": 2477,
      "##ished": 2478,
      "##aring": 2479,
      "##ets": 2480,
      "##aut": 2481,
      "challeng": 2482,
      "mus": 2483,
      "example": 2484,
      "baby": 2485,
      "equ": 2486,
      "prot": 2487,
      "main": 2488,
      "face": 2489,
      "show": 2490,
      "eat": 2491,
      "##ology": 2492,
      "trad": 2493,
      "ele": 2494,
      "same": 2495,
      "##ances": 2496,
      "##til": 2497,
      "##az": 2498,
      "##ention": 2499,
      "heart": 2500,
      "invol": 2501,
      "poss": 2502,
      "loc": 2503,
      "signific": 2504,
      "##ered": 2505,
      "fact": 2506,
      "hold": 2507,
      "prof": 2508,
      "##ired": 2509,
      "tre": 2510,
      "opp": 2511,
      "design": 2512,
      "##ering": 2513,
      "small": 2514,
      "aff": 2515,
      "##iel": 2516,
      "##ational": 2517,
      "fur": 2518,
      "##itions": 2519,
      "learning": 2520,
      "prod": 2521,
      "prin": 2522,
      "process": 2523,
      "interest": 2524,
      "##ape": 2525,
      "##up": 2526,
      "story": 2527,
      "wal": 2528,
      "ma": 2529,
      "miss": 2530,
      "requ": 2531,
      "create": 2532,
      "ess": 2533,
      "saw": 2534,
      "##imes": 2535,
      "inform": 2536,
      "draw": 2537,
      "##ately": 2538,
      "thing": 2539,
      "soci": 2540,
      "having": 2541,
      "against": 2542,
      "hard": 2543,
      "stand": 2544,
      "dem": 2545,
      "ident": 2546,
      "##ots": 2547,
      "effect": 2548,
      "cond": 2549,
      "human": 2550,
      "fac": 2551,
      "contr": 2552,
      "wo": 2553,
      "##ret": 2554,
      "cent": 2555,
      "hu": 2556,
      "typ": 2557,
      "##els": 2558,
      "sound": 2559,
      "repr": 2560,
      "along": 2561,
      "food": 2562,
      "really": 2563,
      "explore": 2564,
      "##selves": 2565,
      "def": 2566,
      "##iec": 2567,
      "complex": 2568,
      "certain": 2569,
      "sil": 2570,
      "charac": 2571,
      "##ross": 2572,
      "connect": 2573,
      "##ush": 2574,
      "##aster": 2575,
      "else": 2576,
      "##ob": 2577,
      "pat": 2578,
      "discover": 2579,
      "leg": 2580,
      "##vers": 2581,
      "##ital": 2582,
      "law": 2583,
      "resp": 2584,
      "bro": 2585,
      "near": 2586,
      "##wor": 2587,
      "towards": 2588,
      "dep": 2589,
      "##press": 2590,
      "across": 2591,
      "rest": 2592,
      "sin": 2593,
      "##ining": 2594,
      "cause": 2595,
      "##row": 2596,
      "sou": 2597,
      "exp": 2598,
      "##pped": 2599,
      "left": 2600,
      "##den": 2601,
      "far": 2602,
      "##ained": 2603,
      "boy": 2604,
      "years": 2605,
      "sci": 2606,
      "##ww": 2607,
      "pos": 2608,
      "##ny": 2609,
      "done": 2610,
      "##ense": 2611,
      "ter": 2612,
      "move": 2613,
      "pop": 2614,
      "##ash": 2615,
      "bit": 2616,
      "##orts": 2617,
      "war": 2618,
      "funct": 2619,
      "used": 2620,
      "watch": 2621,
      "matter": 2622,
      "provid": 2623,
      "env": 2624,
      "took": 2625,
      "lad": 2626,
      "##izing": 2627,
      "sing": 2628,
      "sle": 2629,
      "##oved": 2630,
      "class": 2631,
      "##man": 2632,
      "sure": 2633,
      "fell": 2634,
      "sometimes": 2635,
      "wind": 2636,
      "name": 2637,
      "##ined": 2638,
      "mummy": 2639,
      "##ively": 2640,
      "ent": 2641,
      "anim": 2642,
      "crit": 2643,
      "##aging": 2644,
      "mem": 2645,
      "nothing": 2646,
      "beaut": 2647,
      "sat": 2648,
      "##sw": 2649,
      "social": 2650,
      "##ateg": 2651,
      "##ll": 2652,
      "##ert": 2653,
      "enough": 2654,
      "##earch": 2655,
      "research": 2656,
      "point": 2657,
      "door": 2658,
      "best": 2659,
      "anal": 2660,
      "bir": 2661,
      "##fully": 2662,
      "bed": 2663,
      "hands": 2664,
      "essential": 2665,
      "##ortun": 2666,
      "##ney": 2667,
      "jour": 2668,
      "hor": 2669,
      "laugh": 2670,
      "data": 2671,
      "heard": 2672,
      "##iew": 2673,
      "est": 2674,
      "piec": 2675,
      "throughout": 2676,
      "plan": 2677,
      "##oney": 2678,
      "grow": 2679,
      "furth": 2680,
      "##aps": 2681,
      "unique": 2682,
      "answ": 2683,
      "history": 2684,
      "##ains": 2685,
      "list": 2686,
      "##uction": 2687,
      "##gr": 2688,
      "doesn": 2689,
      "wonder": 2690,
      "run": 2691,
      "unit": 2692,
      "bar": 2693,
      "section": 2694,
      "impr": 2695,
      "nec": 2696,
      "god": 2697,
      "due": 2698,
      "daddy": 2699,
      "##ream": 2700,
      "top": 2701,
      "##iron": 2702,
      "diver": 2703,
      "become": 2704,
      "mot": 2705,
      "asked": 2706,
      "mag": 2707,
      "##ution": 2708,
      "##ples": 2709,
      "##ivity": 2710,
      "##wh": 2711,
      "##ills": 2712,
      "appro": 2713,
      "##ination": 2714,
      "environ": 2715,
      "##ren": 2716,
      "giv": 2717,
      "ah": 2718,
      "offer": 2719,
      "looked": 2720,
      "chr": 2721,
      "nor": 2722,
      "repres": 2723,
      "vo": 2724,
      "present": 2725,
      "discuss": 2726,
      "instead": 2727,
      "strong": 2728,
      "words": 2729,
      "based": 2730,
      "potential": 2731,
      "sever": 2732,
      "##usion": 2733,
      "##ute": 2734,
      "sn": 2735,
      "exploring": 2736,
      "express": 2737,
      "grou": 2738,
      "four": 2739,
      "lar": 2740,
      "organ": 2741,
      "##ns": 2742,
      "##ability": 2743,
      "side": 2744,
      "imm": 2745,
      "##iter": 2746,
      "##ights": 2747,
      "##side": 2748,
      "contribut": 2749,
      "try": 2750,
      "ord": 2751,
      "sir": 2752,
      "##ici": 2753,
      "fut": 2754,
      "fo": 2755,
      "foc": 2756,
      "##ether": 2757,
      "##asc": 2758,
      "##right": 2759,
      "##ted": 2760,
      "pret": 2761,
      "serv": 2762,
      "family": 2763,
      "fall": 2764,
      "mil": 2765,
      "##ither": 2766,
      "color": 2767,
      "means": 2768,
      "##ization": 2769,
      "ge": 2770,
      "##ili": 2771,
      "focus": 2772,
      "mother": 2773,
      "##ilar": 2774,
      "histor": 2775,
      "succ": 2776,
      "##ogn": 2777,
      "change": 2778,
      "##ank": 2779,
      "lang": 2780,
      "until": 2781,
      "air": 2782,
      "challenges": 2783,
      "##ale": 2784,
      "incre": 2785,
      "support": 2786,
      "##ger": 2787,
      "perform": 2788,
      "infl": 2789,
      "dri": 2790,
      "significant": 2791,
      "king": 2792,
      "makes": 2793,
      "di": 2794,
      "business": 2795,
      "special": 2796,
      "maybe": 2797,
      "father": 2798,
      "langu": 2799,
      "pub": 2800,
      "relations": 2801,
      "round": 2802,
      "##ources": 2803,
      "##con": 2804,
      "ste": 2805,
      "known": 2806,
      "stay": 2807,
      "pain": 2808,
      "iss": 2809,
      "yourself": 2810,
      "pict": 2811,
      "##fta": 2812,
      "##oon": 2813,
      "##aces": 2814,
      "prev": 2815,
      "##hod": 2816,
      "hafta": 2817,
      "concept": 2818,
      "important": 2819,
      "tri": 2820,
      "pap": 2821,
      "##ols": 2822,
      "anything": 2823,
      "cook": 2824,
      "few": 2825,
      "occ": 2826,
      "stories": 2827,
      "soon": 2828,
      "success": 2829,
      "educ": 2830,
      "looking": 2831,
      "chang": 2832,
      "return": 2833,
      "several": 2834,
      "comes": 2835,
      "##itional": 2836,
      "##eric": 2837,
      "la": 2838,
      "bring": 2839,
      "similar": 2840,
      "role": 2841,
      "##elt": 2842,
      "ill": 2843,
      "future": 2844,
      "##ote": 2845,
      "che": 2846,
      "self": 2847,
      "intr": 2848,
      "nat": 2849,
      "begin": 2850,
      "key": 2851,
      "since": 2852,
      "gover": 2853,
      "##ins": 2854,
      "eas": 2855,
      "inn": 2856,
      "##app": 2857,
      "bene": 2858,
      "##ength": 2859,
      "follow": 2860,
      "break": 2861,
      "behind": 2862,
      "quite": 2863,
      "method": 2864,
      "chi": 2865,
      "cal": 2866,
      "##irect": 2867,
      "strateg": 2868,
      "ball": 2869,
      "##ason": 2870,
      "##itch": 2871,
      "av": 2872,
      "##tle": 2873,
      "result": 2874,
      "body": 2875,
      "##ior": 2876,
      "mommy": 2877,
      "auth": 2878,
      "lay": 2879,
      "seen": 2880,
      "told": 2881,
      "##ental": 2882,
      "train": 2883,
      "approach": 2884,
      "reach": 2885,
      "everyone": 2886,
      "nature": 2887,
      "moment": 2888,
      "##par": 2889,
      "##avor": 2890,
      "dev": 2891,
      "talk": 2892,
      "appear": 2893,
      "hal": 2894,
      "##eth": 2895,
      "fire": 2896,
      "appre": 2897,
      "opt": 2898,
      "##lish": 2899,
      "americ": 2900,
      "past": 2901,
      "##amp": 2902,
      "goes": 2903,
      "##bers": 2904,
      "sleep": 2905,
      "heav": 2906,
      "gone": 2907,
      "spir": 2908,
      "##ield": 2909,
      "er": 2910,
      "hear": 2911,
      "compan": 2912,
      "##ats": 2913,
      "##illed": 2914,
      "someone": 2915,
      "##ency": 2916,
      "##tern": 2917,
      "won": 2918,
      "##land": 2919,
      "children": 2920,
      "individuals": 2921,
      "happy": 2922,
      "fost": 2923,
      "experiences": 2924,
      "looks": 2925,
      "whether": 2926,
      "mark": 2927,
      "##iques": 2928,
      "enter": 2929,
      "##ingly": 2930,
      "opportun": 2931,
      "respect": 2932,
      "maintain": 2933,
      "##ued": 2934,
      "box": 2935,
      "##by": 2936,
      "##acy": 2937,
      "everything": 2938,
      "##ries": 2939,
      "##ron": 2940,
      "rather": 2941,
      "aspect": 2942,
      "direct": 2943,
      "money": 2944,
      "##irc": 2945,
      "modern": 2946,
      "personal": 2947,
      "common": 2948,
      "##body": 2949,
      "uh": 2950,
      "table": 2951,
      "christ": 2952,
      "reflect": 2953,
      "##omes": 2954,
      "knew": 2955,
      "address": 2956,
      "students": 2957,
      "mult": 2958,
      "journey": 2959,
      "land": 2960,
      "collect": 2961,
      "##ump": 2962,
      "treat": 2963,
      "nice": 2964,
      "contem": 2965,
      "##ised": 2966,
      "cultural": 2967,
      "appreci": 2968,
      "##osed": 2969,
      "emp": 2970,
      "impact": 2971,
      "ways": 2972,
      "##agement": 2973,
      "communic": 2974,
      "particular": 2975,
      "influ": 2976,
      "began": 2977,
      "object": 2978,
      "share": 2979,
      "##ledge": 2980,
      "enj": 2981,
      "unc": 2982,
      "concl": 2983,
      "hur": 2984,
      "##itive": 2985,
      "##ta": 2986,
      "circ": 2987,
      "relationship": 2988,
      "##abor": 2989,
      "seemed": 2990,
      "themselves": 2991,
      "wee": 2992,
      "necess": 2993,
      "##come": 2994,
      "full": 2995,
      "green": 2996,
      "information": 2997,
      "black": 2998,
      "whole": 2999,
      "##ames": 3000,
      "ris": 3001,
      "emot": 3002,
      "woman": 3003,
      "##ung": 3004,
      "obs": 3005,
      "times": 3006,
      "including": 3007,
      "##inating": 3008,
      "techniques": 3009,
      "hour": 3010,
      "cut": 3011,
      "desp": 3012,
      "poor": 3013,
      "##iful": 3014,
      "##ening": 3015,
      "govern": 3016,
      "works": 3017,
      "increas": 3018,
      "##ides": 3019,
      "fre": 3020,
      "fair": 3021,
      "liter": 3022,
      "introd": 3023,
      "##uce": 3024,
      "ready": 3025,
      "fasc": 3026,
      "mater": 3027,
      "grand": 3028,
      "insp": 3029,
      "bi": 3030,
      "environment": 3031,
      "white": 3032,
      "represent": 3033,
      "regard": 3034,
      "dear": 3035,
      "tem": 3036,
      "case": 3037,
      "##aus": 3038,
      "tom": 3039,
      "felt": 3040,
      "word": 3041,
      "access": 3042,
      "polit": 3043,
      "enjoy": 3044,
      "##ev": 3045,
      "phys": 3046,
      "historical": 3047,
      "##oph": 3048,
      "##oud": 3049,
      "##atives": 3050,
      "##istic": 3051,
      "encour": 3052,
      "mer": 3053,
      "shap": 3054,
      "meet": 3055,
      "character": 3056,
      "morning": 3057,
      "sun": 3058,
      "rev": 3059,
      "valu": 3060,
      "coming": 3061,
      "country": 3062,
      "recogn": 3063,
      "respons": 3064,
      "bob": 3065,
      "##ouch": 3066,
      "repl": 3067,
      "##line": 3068,
      "##erv": 3069,
      "teach": 3070,
      "sho": 3071,
      "ones": 3072,
      "days": 3073,
      "##ime": 3074,
      "says": 3075,
      "sym": 3076,
      "five": 3077,
      "swe": 3078,
      "second": 3079,
      "half": 3080,
      "material": 3081,
      "quick": 3082,
      "public": 3083,
      "##ograph": 3084,
      "##arr": 3085,
      "skills": 3086,
      "dog": 3087,
      "true": 3088,
      "##ises": 3089,
      "##iction": 3090,
      "foot": 3091,
      "women": 3092,
      "ground": 3093,
      "specific": 3094,
      "comb": 3095,
      "rich": 3096,
      "rece": 3097,
      "elect": 3098,
      "pick": 3099,
      "thr": 3100,
      "mrs": 3101,
      "##ilities": 3102,
      "hon": 3103,
      "##ister": 3104,
      "valuable": 3105,
      "leave": 3106,
      "lim": 3107,
      "##rought": 3108,
      "lives": 3109,
      "##ee": 3110,
      "post": 3111,
      "coll": 3112,
      "knowledge": 3113,
      "##ably": 3114,
      "##ane": 3115,
      "systems": 3116,
      "##ife": 3117,
      "mid": 3118,
      "invest": 3119,
      "lady": 3120,
      "##anced": 3121,
      "bal": 3122,
      "wel": 3123,
      "##ision": 3124,
      "ori": 3125,
      "beautiful": 3126,
      "##ases": 3127,
      "voice": 3128,
      "##ton": 3129,
      "earth": 3130,
      "function": 3131,
      "##eness": 3132,
      "communities": 3133,
      "taking": 3134,
      "press": 3135,
      "##ards": 3136,
      "language": 3137,
      "turned": 3138,
      "master": 3139,
      "##porary": 3140,
      "experience": 3141,
      "issues": 3142,
      "profess": 3143,
      "##ont": 3144,
      "##aken": 3145,
      "##inary": 3146,
      "##most": 3147,
      "doct": 3148,
      "playing": 3149,
      "dig": 3150,
      "proper": 3151,
      "ask": 3152,
      "##uff": 3153,
      "question": 3154,
      "creating": 3155,
      "adm": 3156,
      "##nds": 3157,
      "sent": 3158,
      "bur": 3159,
      "##ug": 3160,
      "early": 3161,
      "further": 3162,
      "clear": 3163,
      "living": 3164,
      "choo": 3165,
      "##ured": 3166,
      "please": 3167,
      "mov": 3168,
      "practices": 3169,
      "##fic": 3170,
      "squ": 3171,
      "hair": 3172,
      "struct": 3173,
      "favor": 3174,
      "##orn": 3175,
      "19": 3176,
      "fig": 3177,
      "music": 3178,
      "##oub": 3179,
      "##haps": 3180,
      "nav": 3181,
      "gave": 3182,
      "##esh": 3183,
      "cruc": 3184,
      "##aught": 3185,
      "harm": 3186,
      "state": 3187,
      "relig": 3188,
      "mad": 3189,
      "##ided": 3190,
      "arr": 3191,
      "perhaps": 3192,
      "mess": 3193,
      "fascinating": 3194,
      "##mm": 3195,
      "pati": 3196,
      "thom": 3197,
      "bey": 3198,
      "paper": 3199,
      "spirit": 3200,
      "proble": 3201,
      "instance": 3202,
      "##ify": 3203,
      "##ially": 3204,
      "provide": 3205,
      "20": 3206,
      "ra": 3207,
      "beyond": 3208,
      "brought": 3209,
      "live": 3210,
      "thus": 3211,
      "##to": 3212,
      "cat": 3213,
      "##ugg": 3214,
      "allow": 3215,
      "polic": 3216,
      "sud": 3217,
      "##ustom": 3218,
      "given": 3219,
      "##ological": 3220,
      "community": 3221,
      "questions": 3222,
      "hope": 3223,
      "tur": 3224,
      "myself": 3225,
      "hers": 3226,
      "idea": 3227,
      "getting": 3228,
      "study": 3229,
      "##irt": 3230,
      "resources": 3231,
      "helps": 3232,
      "##airs": 3233,
      "##ploy": 3234,
      "blue": 3235,
      "qual": 3236,
      "##ext": 3237,
      "##ived": 3238,
      "super": 3239,
      "comput": 3240,
      "number": 3241,
      "noise": 3242,
      "crucial": 3243,
      "##ids": 3244,
      "speak": 3245,
      "context": 3246,
      "game": 3247,
      "##fort": 3248,
      "happened": 3249,
      "##ury": 3250,
      "##oke": 3251,
      "sudden": 3252,
      "conclusion": 3253,
      "applic": 3254,
      "development": 3255,
      "contemporary": 3256,
      "books": 3257,
      "local": 3258,
      "test": 3259,
      "building": 3260,
      "drink": 3261,
      "animals": 3262,
      "##io": 3263,
      "sal": 3264,
      "wait": 3265,
      "##lying": 3266,
      "##itting": 3267,
      "short": 3268,
      "practice": 3269,
      "outside": 3270,
      "perf": 3271,
      "diverse": 3272,
      "exist": 3273,
      "level": 3274,
      "##ones": 3275,
      "society": 3276,
      "working": 3277,
      "har": 3278,
      "project": 3279,
      "patter": 3280,
      "##aged": 3281,
      "##amm": 3282,
      "protect": 3283,
      "dark": 3284,
      "##iet": 3285,
      "following": 3286,
      "surround": 3287,
      "almost": 3288,
      "##egr": 3289,
      "oper": 3290,
      "##work": 3291,
      "fa": 3292,
      "arm": 3293,
      "flo": 3294,
      "innov": 3295,
      "whom": 3296,
      "inde": 3297,
      "accord": 3298,
      "##ract": 3299,
      "mis": 3300,
      "wanted": 3301,
      "expect": 3302,
      "##aim": 3303,
      "##amed": 3304,
      "##ready": 3305,
      "gent": 3306,
      "tools": 3307,
      "cann": 3308,
      "already": 3309,
      "init": 3310,
      "##sequ": 3311,
      "traditional": 3312,
      "##dle": 3313,
      "inside": 3314,
      "welcome": 3315,
      "critical": 3316,
      "##asure": 3317,
      "##ams": 3318,
      "strength": 3319,
      "##ending": 3320,
      "clos": 3321,
      "fu": 3322,
      "advent": 3323,
      "soft": 3324,
      "growth": 3325,
      "later": 3326,
      "##elling": 3327,
      "pet": 3328,
      "##ced": 3329,
      "view": 3330,
      "const": 3331,
      "piece": 3332,
      "ensure": 3333,
      "determ": 3334,
      "##oci": 3335,
      "picture": 3336,
      "div": 3337,
      "touch": 3338,
      "##yn": 3339,
      "thinking": 3340,
      "benef": 3341,
      "##pping": 3342,
      "##chie": 3343,
      "close": 3344,
      "ju": 3345,
      "##ken": 3346,
      "cop": 3347,
      "##ole": 3348,
      "enh": 3349,
      "##bs": 3350,
      "sens": 3351,
      "##rew": 3352,
      "bot": 3353,
      "##ike": 3354,
      "feet": 3355,
      "##ibility": 3356,
      "convers": 3357,
      "aren": 3358,
      "activ": 3359,
      "##utes": 3360,
      "strategies": 3361,
      "affect": 3362,
      "natural": 3363,
      "ang": 3364,
      "believe": 3365,
      "hot": 3366,
      "technology": 3367,
      "origin": 3368,
      "##arch": 3369,
      "##ster": 3370,
      "pay": 3371,
      "thomas": 3372,
      "##ony": 3373,
      "din": 3374,
      "ten": 3375,
      "pretty": 3376,
      "##ergy": 3377,
      "employ": 3378,
      "custom": 3379,
      "##aling": 3380,
      "estab": 3381,
      "##ax": 3382,
      "##outh": 3383,
      "associ": 3384,
      "line": 3385,
      "suff": 3386,
      "thir": 3387,
      "behav": 3388,
      "##ables": 3389,
      "clean": 3390,
      "##iding": 3391,
      "navig": 3392,
      "despite": 3393,
      "opportunities": 3394,
      "bad": 3395,
      "whose": 3396,
      "states": 3397,
      "##ode": 3398,
      "dive": 3399,
      "emb": 3400,
      "city": 3401,
      "brother": 3402,
      "herself": 3403,
      "started": 3404,
      "##bit": 3405,
      "town": 3406,
      "allows": 3407,
      "##idence": 3408,
      "exact": 3409,
      "bear": 3410,
      "sel": 3411,
      "emerg": 3412,
      "abs": 3413,
      "leav": 3414,
      "aim": 3415,
      "##owers": 3416,
      "py": 3417,
      "trying": 3418,
      "wood": 3419,
      "stri": 3420,
      "progr": 3421,
      "trav": 3422,
      "large": 3423,
      "events": 3424,
      "death": 3425,
      "##aries": 3426,
      "insights": 3427,
      "win": 3428,
      "##acing": 3429,
      "alice": 3430,
      "group": 3431,
      "either": 3432,
      "capt": 3433,
      "##ancing": 3434,
      "##atic": 3435,
      "became": 3436,
      "cover": 3437,
      "jud": 3438,
      "gard": 3439,
      "gentle": 3440,
      "caus": 3441,
      "meaning": 3442,
      "integr": 3443,
      "space": 3444,
      "dress": 3445,
      "needs": 3446,
      "feat": 3447,
      "rob": 3448,
      "text": 3449,
      "clim": 3450,
      "simple": 3451,
      "prep": 3452,
      "cross": 3453,
      "learned": 3454,
      "analy": 3455,
      "##erc": 3456,
      "ap": 3457,
      "pu": 3458,
      "##erous": 3459,
      "##aining": 3460,
      "horse": 3461,
      "addition": 3462,
      "age": 3463,
      "taken": 3464,
      "free": 3465,
      "##urs": 3466,
      "coun": 3467,
      "mouth": 3468,
      "perfect": 3469,
      "##ept": 3470,
      "wasn": 3471,
      "transform": 3472,
      "##fs": 3473,
      "importance": 3474,
      "safe": 3475,
      "breat": 3476,
      "lands": 3477,
      "possible": 3478,
      "stre": 3479,
      "culture": 3480,
      "wild": 3481,
      "alone": 3482,
      "cannot": 3483,
      "lost": 3484,
      "##unt": 3485,
      "cool": 3486,
      "##olution": 3487,
      "##sy": 3488,
      "net": 3489,
      "perspect": 3490,
      "##ising": 3491,
      "energy": 3492,
      "##lex": 3493,
      "scient": 3494,
      "##ios": 3495,
      "##apt": 3496,
      "tra": 3497,
      "##ident": 3498,
      "joh": 3499,
      "eye": 3500,
      "##ires": 3501,
      "embr": 3502,
      "##utions": 3503,
      "##rop": 3504,
      "farm": 3505,
      "vi": 3506,
      "narr": 3507,
      "non": 3508,
      "##light": 3509,
      "trust": 3510,
      "##enty": 3511,
      "##plic": 3512,
      "chair": 3513,
      "elements": 3514,
      "connections": 3515,
      "lov": 3516,
      "dom": 3517,
      "fit": 3518,
      "education": 3519,
      "##use": 3520,
      "unf": 3521,
      "able": 3522,
      "ant": 3523,
      "situ": 3524,
      "concern": 3525,
      "incor": 3526,
      "lo": 3527,
      "attention": 3528,
      "##inct": 3529,
      "stick": 3530,
      "gold": 3531,
      "##zz": 3532,
      "cost": 3533,
      "##ules": 3534,
      "warm": 3535,
      "mat": 3536,
      "interact": 3537,
      "##ians": 3538,
      "reason": 3539,
      "science": 3540,
      "factors": 3541,
      "write": 3542,
      "deeper": 3543,
      "order": 3544,
      "indeed": 3545,
      "stood": 3546,
      "dream": 3547,
      "finally": 3548,
      "stop": 3549,
      "sea": 3550,
      "saf": 3551,
      "popular": 3552,
      "cried": 3553,
      "son": 3554,
      "include": 3555,
      "##ru": 3556,
      "lot": 3557,
      "communication": 3558,
      "##ustr": 3559,
      "##oles": 3560,
      "diffic": 3561,
      "cold": 3562,
      "difficult": 3563,
      "account": 3564,
      "phil": 3565,
      "aspects": 3566,
      "fil": 3567,
      "stat": 3568,
      "methods": 3569,
      "saying": 3570,
      "necessary": 3571,
      "##eless": 3572,
      "online": 3573,
      "product": 3574,
      "intern": 3575,
      "##ulation": 3576,
      "desc": 3577,
      "##ended": 3578,
      "##unch": 3579,
      "fish": 3580,
      "eth": 3581,
      "fast": 3582,
      "##ude": 3583,
      "thy": 3584,
      "##ma": 3585,
      "##iple": 3586,
      "tree": 3587,
      "patterns": 3588,
      "filled": 3589,
      "engine": 3590,
      "arch": 3591,
      "relationships": 3592,
      "conv": 3593,
      "##ails": 3594,
      "feeling": 3595,
      "replied": 3596,
      "wall": 3597,
      "##where": 3598,
      "bound": 3599,
      "constr": 3600,
      "incorpor": 3601,
      "neg": 3602,
      "collabor": 3603,
      "thous": 3604,
      "favorite": 3605,
      "##onstr": 3606,
      "efforts": 3607,
      "sugg": 3608,
      "values": 3609,
      "fing": 3610,
      "suggest": 3611,
      "improve": 3612,
      "toys": 3613,
      "arg": 3614,
      "instr": 3615,
      "cel": 3616,
      "mach": 3617,
      "six": 3618,
      "summ": 3619,
      "steps": 3620,
      "sense": 3621,
      "econ": 3622,
      "##ciples": 3623,
      "##uced": 3624,
      "##ceed": 3625,
      "prob": 3626,
      "##me": 3627,
      "thank": 3628,
      "yell": 3629,
      "##ips": 3630,
      "aud": 3631,
      "port": 3632,
      "econom": 3633,
      "passed": 3634,
      "dead": 3635,
      "led": 3636,
      "##ison": 3637,
      "regular": 3638,
      "##ench": 3639,
      "##ously": 3640,
      "lik": 3641,
      "glob": 3642,
      "##edi": 3643,
      "types": 3644,
      "sor": 3645,
      "##let": 3646,
      "##aced": 3647,
      "##iring": 3648,
      "control": 3649,
      "moreover": 3650,
      "consequ": 3651,
      "field": 3652,
      "exactly": 3653,
      "wish": 3654,
      "shape": 3655,
      "##aft": 3656,
      "till": 3657,
      "shared": 3658,
      "esp": 3659,
      "promot": 3660,
      "guid": 3661,
      "management": 3662,
      "##www": 3663,
      "american": 3664,
      "pen": 3665,
      "reading": 3666,
      "broad": 3667,
      "##ality": 3668,
      "continue": 3669,
      "peri": 3670,
      "##cient": 3671,
      "doctor": 3672,
      "actually": 3673,
      "##ivers": 3674,
      "strugg": 3675,
      "letter": 3676,
      "fear": 3677,
      "value": 3678,
      "road": 3679,
      "leading": 3680,
      "powerful": 3681,
      "forg": 3682,
      "sweet": 3683,
      "principles": 3684,
      "lord": 3685,
      "##ators": 3686,
      "visit": 3687,
      "##ina": 3688,
      "vol": 3689,
      "comfort": 3690,
      "path": 3691,
      "##opped": 3692,
      "period": 3693,
      "physical": 3694,
      "haven": 3695,
      "lived": 3696,
      "sort": 3697,
      "answered": 3698,
      "##etic": 3699,
      "##ulations": 3700,
      "mine": 3701,
      "##dom": 3702,
      "sam": 3703,
      "sust": 3704,
      "surpr": 3705,
      "chec": 3706,
      "itself": 3707,
      "particip": 3708,
      "##sp": 3709,
      "continued": 3710,
      "materials": 3711,
      "analys": 3712,
      "##bo": 3713,
      "floor": 3714,
      "subject": 3715,
      "hund": 3716,
      "wife": 3717,
      "##ged": 3718,
      "thee": 3719,
      "hundred": 3720,
      "contribute": 3721,
      "que": 3722,
      "obser": 3723,
      "plat": 3724,
      "engaging": 3725,
      "spr": 3726,
      "achie": 3727,
      "author": 3728,
      "priv": 3729,
      "aut": 3730,
      "soul": 3731,
      "conditions": 3732,
      "hey": 3733,
      "doub": 3734,
      "gather": 3735,
      "fix": 3736,
      "##oring": 3737,
      "##go": 3738,
      "du": 3739,
      "##ese": 3740,
      "dyn": 3741,
      "prim": 3742,
      "##ley": 3743,
      "suddenly": 3744,
      "sharing": 3745,
      "slow": 3746,
      "visual": 3747,
      "compet": 3748,
      "alth": 3749,
      "tast": 3750,
      "term": 3751,
      "talking": 3752,
      "late": 3753,
      "ancient": 3754,
      "##iny": 3755,
      "although": 3756,
      "hat": 3757,
      "takes": 3758,
      "tit": 3759,
      "##lement": 3760,
      "overall": 3761,
      "decided": 3762,
      "ur": 3763,
      "john": 3764,
      "sty": 3765,
      "birth": 3766,
      "##oming": 3767,
      "cloth": 3768,
      "societ": 3769,
      "huh": 3770,
      "ul": 3771,
      "purp": 3772,
      "walk": 3773,
      "agre": 3774,
      "##ops": 3775,
      "low": 3776,
      "##umb": 3777,
      "month": 3778,
      "associated": 3779,
      "##ouble": 3780,
      "sounds": 3781,
      "ir": 3782,
      "##ges": 3783,
      "cast": 3784,
      "thoughts": 3785,
      "whis": 3786,
      "##ners": 3787,
      "window": 3788,
      "involves": 3789,
      "##ored": 3790,
      "roll": 3791,
      "##iously": 3792,
      "compon": 3793,
      "##igen": 3794,
      "couldn": 3795,
      "above": 3796,
      "smo": 3797,
      "forward": 3798,
      "##ef": 3799,
      "activities": 3800,
      "##athy": 3801,
      "indust": 3802,
      "jack": 3803,
      "##res": 3804,
      "interv": 3805,
      "cho": 3806,
      "blood": 3807,
      "minute": 3808,
      "##00": 3809,
      "carry": 3810,
      "careful": 3811,
      "##imately": 3812,
      "prog": 3813,
      "dam": 3814,
      "characters": 3815,
      "##cious": 3816,
      "yellow": 3817,
      "eating": 3818,
      "pyth": 3819,
      "cup": 3820,
      "dar": 3821,
      "global": 3822,
      "political": 3823,
      "pieces": 3824,
      "wrong": 3825,
      "possess": 3826,
      "arri": 3827,
      "delve": 3828,
      "##room": 3829,
      "mist": 3830,
      "##hood": 3831,
      "eur": 3832,
      "##rant": 3833,
      "neigh": 3834,
      "dang": 3835,
      "pred": 3836,
      "espec": 3837,
      "party": 3838,
      "event": 3839,
      "additionally": 3840,
      "##ocks": 3841,
      "identity": 3842,
      "rom": 3843,
      "digital": 3844,
      "##hm": 3845,
      "progress": 3846,
      "ann": 3847,
      "##itation": 3848,
      "breath": 3849,
      "ensuring": 3850,
      "pa": 3851,
      "##ply": 3852,
      "entire": 3853,
      "truth": 3854,
      "##ebr": 3855,
      "une": 3856,
      "##ption": 3857,
      "##uit": 3858,
      "##aint": 3859,
      "bes": 3860,
      "specif": 3861,
      "regarding": 3862,
      "held": 3863,
      "##way": 3864,
      "rights": 3865,
      "python": 3866,
      "curr": 3867,
      "##anch": 3868,
      "front": 3869,
      "fellow": 3870,
      "named": 3871,
      "analyz": 3872,
      "changes": 3873,
      "members": 3874,
      "dynam": 3875,
      "guess": 3876,
      "neighb": 3877,
      "demonstr": 3878,
      "##ror": 3879,
      "therefore": 3880,
      "type": 3881,
      "faith": 3882,
      "##ased": 3883,
      "##iled": 3884,
      "quiet": 3885,
      "##itten": 3886,
      "middle": 3887,
      "sar": 3888,
      "sad": 3889,
      "especially": 3890,
      "libr": 3891,
      "accom": 3892,
      "prevent": 3893,
      "##yc": 3894,
      "deb": 3895,
      "novel": 3896,
      "quickly": 3897,
      "##izations": 3898,
      "##ipp": 3899,
      "##ilt": 3900,
      "ideas": 3901,
      "vari": 3902,
      "groups": 3903,
      "ult": 3904,
      "et": 3905,
      "consist": 3906,
      "action": 3907,
      "sett": 3908,
      "boys": 3909,
      "civ": 3910,
      "##cape": 3911,
      "ec": 3912,
      "milk": 3913,
      "##key": 3914,
      "bow": 3915,
      "writing": 3916,
      "literature": 3917,
      "analysis": 3918,
      "drawing": 3919,
      "scr": 3920,
      "general": 3921,
      "phot": 3922,
      "quality": 3923,
      "glass": 3924,
      "delic": 3925,
      "require": 3926,
      "##ging": 3927,
      "##ned": 3928,
      "peace": 3929,
      "shar": 3930,
      "bag": 3931,
      "pal": 3932,
      "preser": 3933,
      "amaz": 3934,
      "fort": 3935,
      "gain": 3936,
      "mental": 3937,
      "model": 3938,
      "medic": 3939,
      "fostering": 3940,
      "##lict": 3941,
      "least": 3942,
      "terms": 3943,
      "justice": 3944,
      "feelings": 3945,
      "interp": 3946,
      "und": 3947,
      "##isions": 3948,
      "bat": 3949,
      "forms": 3950,
      "environmental": 3951,
      "##urch": 3952,
      "answer": 3953,
      "dest": 3954,
      "knows": 3955,
      "serve": 3956,
      "offers": 3957,
      "tas": 3958,
      "company": 3959,
      "##ems": 3960,
      "indigen": 3961,
      "implement": 3962,
      "18": 3963,
      "excl": 3964,
      "indigenous": 3965,
      "performance": 3966,
      "remain": 3967,
      "effici": 3968,
      "surrounding": 3969,
      "push": 3970,
      "distribut": 3971,
      "particularly": 3972,
      "##sych": 3973,
      "altern": 3974,
      "prefer": 3975,
      "providing": 3976,
      "##ground": 3977,
      "travel": 3978,
      "europe": 3979,
      "listen": 3980,
      "choose": 3981,
      "##aily": 3982,
      "fight": 3983,
      "appreciate": 3984,
      "exerc": 3985,
      "secret": 3986,
      "mic": 3987,
      "except": 3988,
      "multiple": 3989,
      "loved": 3990,
      "##ologies": 3991,
      "lessons": 3992,
      "garden": 3993,
      "wouldn": 3994,
      "according": 3995,
      "church": 3996,
      "record": 3997,
      "easy": 3998,
      "tar": 3999,
      "fresh": 4000,
      "concepts": 4001,
      "government": 4002,
      "sand": 4003,
      "##isf": 4004,
      "distinct": 4005,
      "mhm": 4006,
      "extra": 4007,
      "##iced": 4008,
      "doll": 4009,
      "##itted": 4010,
      "minutes": 4011,
      "##ils": 4012,
      "consum": 4013,
      "song": 4014,
      "worth": 4015,
      "optim": 4016,
      "tel": 4017,
      "##ument": 4018,
      "den": 4019,
      "needed": 4020,
      "##reh": 4021,
      "hol": 4022,
      "##enge": 4023,
      "##ator": 4024,
      "influence": 4025,
      "norm": 4026,
      "##une": 4027,
      "relev": 4028,
      "ther": 4029,
      "##der": 4030,
      "craft": 4031,
      "ing": 4032,
      "english": 4033,
      "hurt": 4034,
      "parts": 4035,
      "##iment": 4036,
      "##ium": 4037,
      "examining": 4038,
      "adapt": 4039,
      "sustain": 4040,
      "emph": 4041,
      "lots": 4042,
      "psych": 4043,
      "##kn": 4044,
      "plays": 4045,
      "hours": 4046,
      "cry": 4047,
      "stuff": 4048,
      "single": 4049,
      "dinner": 4050,
      "##ients": 4051,
      "##ified": 4052,
      "viol": 4053,
      "##oint": 4054,
      "anx": 4055,
      "laws": 4056,
      "ru": 4057,
      "ran": 4058,
      "##ucing": 4059,
      "shaping": 4060,
      "jump": 4061,
      "wis": 4062,
      "narratives": 4063,
      "sitting": 4064,
      "##for": 4065,
      "gotta": 4066,
      "##ites": 4067,
      "allowing": 4068,
      "daily": 4069,
      "princ": 4070,
      "wants": 4071,
      "##ral": 4072,
      "##ama": 4073,
      "##enced": 4074,
      "pray": 4075,
      "longer": 4076,
      "conflict": 4077,
      "gar": 4078,
      "minim": 4079,
      "celebr": 4080,
      "hung": 4081,
      "court": 4082,
      "cam": 4083,
      "united": 4084,
      "mill": 4085,
      "cow": 4086,
      "prec": 4087,
      "expression": 4088,
      "market": 4089,
      "##hes": 4090,
      "sister": 4091,
      "buy": 4092,
      "street": 4093,
      "areas": 4094,
      "ago": 4095,
      "pig": 4096,
      "mix": 4097,
      "hast": 4098,
      "hop": 4099,
      "perspectives": 4100,
      "##gu": 4101,
      "##ager": 4102,
      "eight": 4103,
      "##illing": 4104,
      "compreh": 4105,
      "temper": 4106,
      "##astic": 4107,
      "resili": 4108,
      "hy": 4109,
      "activity": 4110,
      "stra": 4111,
      "simply": 4112,
      "philos": 4113,
      "safety": 4114,
      "arms": 4115,
      "emphas": 4116,
      "introduction": 4117,
      "##ky": 4118,
      "ourselves": 4119,
      "##ift": 4120,
      "greater": 4121,
      "toward": 4122,
      "cultures": 4123,
      "max": 4124,
      "strange": 4125,
      "disp": 4126,
      "specifically": 4127,
      "lesson": 4128,
      "discovered": 4129,
      "features": 4130,
      "##ells": 4131,
      "##ration": 4132,
      "captain": 4133,
      "catch": 4134,
      "girls": 4135,
      "growing": 4136,
      "##oes": 4137,
      "forth": 4138,
      "tea": 4139,
      "kiss": 4140,
      "points": 4141,
      "ban": 4142,
      "problem": 4143,
      "##care": 4144,
      "belong": 4145,
      "carefully": 4146,
      "fiction": 4147,
      "##odies": 4148,
      "offic": 4149,
      "benefits": 4150,
      "##tered": 4151,
      "##ief": 4152,
      "joy": 4153,
      "suppose": 4154,
      "readers": 4155,
      "rules": 4156,
      "egg": 4157,
      "track": 4158,
      "##itable": 4159,
      "virt": 4160,
      "##antly": 4161,
      "applications": 4162,
      "establish": 4163,
      "south": 4164,
      "accept": 4165,
      "examples": 4166,
      "artists": 4167,
      "whe": 4168,
      "surf": 4169,
      "maj": 4170,
      "math": 4171,
      "##iliar": 4172,
      "nut": 4173,
      "encoun": 4174,
      "incred": 4175,
      "numerous": 4176,
      "select": 4177,
      "maintaining": 4178,
      "##ests": 4179,
      "religious": 4180,
      "##gar": 4181,
      "plant": 4182,
      "##ermore": 4183,
      "twenty": 4184,
      "satisf": 4185,
      "concerns": 4186,
      "platform": 4187,
      "followed": 4188,
      "scen": 4189,
      "behavior": 4190,
      "tail": 4191,
      "becomes": 4192,
      "furthermore": 4193,
      "wear": 4194,
      "places": 4195,
      "engage": 4196,
      "evening": 4197,
      "hors": 4198,
      "trees": 4199,
      "acqu": 4200,
      "added": 4201,
      "##olly": 4202,
      "##nding": 4203,
      "funny": 4204,
      "position": 4205,
      "tow": 4206,
      "waiting": 4207,
      "written": 4208,
      "##oof": 4209,
      "colon": 4210,
      "alright": 4211,
      "famil": 4212,
      "vers": 4213,
      "ver": 4214,
      "alex": 4215,
      "je": 4216,
      "remains": 4217,
      "##ource": 4218,
      "colors": 4219,
      "beauty": 4220,
      "daugh": 4221,
      "##asures": 4222,
      "spread": 4223,
      "rap": 4224,
      "fore": 4225,
      "##works": 4226,
      "services": 4227,
      "##men": 4228,
      "played": 4229,
      "camp": 4230,
      "avail": 4231,
      "effective": 4232,
      "symb": 4233,
      "##ountain": 4234,
      "##rel": 4235,
      "accur": 4236,
      "ut": 4237,
      "financ": 4238,
      "standing": 4239,
      "levels": 4240,
      "fine": 4241,
      "positive": 4242,
      "avo": 4243,
      "intric": 4244,
      "##acher": 4245,
      "bud": 4246,
      "##ann": 4247,
      "##asp": 4248,
      "##ulate": 4249,
      "seeing": 4250,
      "faced": 4251,
      "dim": 4252,
      "grad": 4253,
      "bird": 4254,
      "brown": 4255,
      "hid": 4256,
      "civil": 4257,
      "##rect": 4258,
      "conduct": 4259,
      "purs": 4260,
      "challenge": 4261,
      "cand": 4262,
      "healthcare": 4263,
      "##just": 4264,
      "connection": 4265,
      "##itude": 4266,
      "humans": 4267,
      "leaders": 4268,
      "##iling": 4269,
      "week": 4270,
      "fail": 4271,
      "addressing": 4272,
      "hus": 4273,
      "finding": 4274,
      "ho": 4275,
      "feed": 4276,
      "decision": 4277,
      "doubt": 4278,
      "significance": 4279,
      "##ease": 4280,
      "ble": 4281,
      "save": 4282,
      "##play": 4283,
      "century": 4284,
      "challenging": 4285,
      "##ming": 4286,
      "generations": 4287,
      "page": 4288,
      "bath": 4289,
      "straight": 4290,
      "hell": 4291,
      "bri": 4292,
      "tried": 4293,
      "kept": 4294,
      "team": 4295,
      "traditions": 4296,
      "cit": 4297,
      "components": 4298,
      "finished": 4299,
      "##miss": 4300,
      "fif": 4301,
      "doc": 4302,
      "sold": 4303,
      "frequ": 4304,
      "promoting": 4305,
      "illustr": 4306,
      "balance": 4307,
      "rad": 4308,
      "brid": 4309,
      "giving": 4310,
      "##ancy": 4311,
      "immedi": 4312,
      "media": 4313,
      "copy": 4314,
      "##ension": 4315,
      "successful": 4316,
      "nose": 4317,
      "##ught": 4318,
      "ice": 4319,
      "processes": 4320,
      "rose": 4321,
      "##put": 4322,
      "##iant": 4323,
      "running": 4324,
      "curios": 4325,
      "calc": 4326,
      "service": 4327,
      "10": 4328,
      "lab": 4329,
      "pack": 4330,
      "structures": 4331,
      "##af": 4332,
      "subst": 4333,
      "hall": 4334,
      "figure": 4335,
      "##ille": 4336,
      "river": 4337,
      "##uments": 4338,
      "evol": 4339,
      "games": 4340,
      "north": 4341,
      "mass": 4342,
      "ultimately": 4343,
      "reve": 4344,
      "identify": 4345,
      "movement": 4346,
      "ful": 4347,
      "themes": 4348,
      "exh": 4349,
      "mur": 4350,
      "unl": 4351,
      "remind": 4352,
      "returned": 4353,
      "studies": 4354,
      "forget": 4355,
      "##ding": 4356,
      "probably": 4357,
      "ded": 4358,
      "dial": 4359,
      "##istance": 4360,
      "gender": 4361,
      "kids": 4362,
      "seeking": 4363,
      "##ements": 4364,
      "happens": 4365,
      "singing": 4366,
      "bott": 4367,
      "curiosity": 4368,
      "darling": 4369,
      "passion": 4370,
      "mention": 4371,
      "policy": 4372,
      "vital": 4373,
      "healthy": 4374,
      "animal": 4375,
      "broken": 4376,
      "opin": 4377,
      "##bed": 4378,
      "rock": 4379,
      "examine": 4380,
      "##band": 4381,
      "seven": 4382,
      "sex": 4383,
      "refer": 4384,
      "divers": 4385,
      "gets": 4386,
      "title": 4387,
      "sight": 4388,
      "mel": 4389,
      "log": 4390,
      "##aff": 4391,
      "magn": 4392,
      "code": 4393,
      "fat": 4394,
      "clothes": 4395,
      "##pected": 4396,
      "search": 4397,
      "repe": 4398,
      "curious": 4399,
      "vict": 4400,
      "jew": 4401,
      "##ival": 4402,
      "financial": 4403,
      "clock": 4404,
      "higher": 4405,
      "current": 4406,
      "meant": 4407,
      "##aves": 4408,
      "usually": 4409,
      "##sh": 4410,
      "philosoph": 4411,
      "audi": 4412,
      "mut": 4413,
      "##echan": 4414,
      "sac": 4415,
      "util": 4416,
      "investig": 4417,
      "##lished": 4418,
      "plants": 4419,
      "medical": 4420,
      "christian": 4421,
      "##used": 4422,
      "##empt": 4423,
      "similarly": 4424,
      "emotions": 4425,
      "##ensive": 4426,
      "##rupt": 4427,
      "families": 4428,
      "##ched": 4429,
      "card": 4430,
      "bread": 4431,
      "chick": 4432,
      "thousand": 4433,
      "rapid": 4434,
      "amid": 4435,
      "##oses": 4436,
      "##ik": 4437,
      "received": 4438,
      "countries": 4439,
      "ep": 4440,
      "##hold": 4441,
      "loss": 4442,
      "leaving": 4443,
      "training": 4444,
      "##arily": 4445,
      "lines": 4446,
      "rain": 4447,
      "adventure": 4448,
      "keeping": 4449,
      "##ler": 4450,
      "vill": 4451,
      "job": 4452,
      "interesting": 4453,
      "fem": 4454,
      "heavy": 4455,
      "threat": 4456,
      "butter": 4457,
      "gri": 4458,
      "earl": 4459,
      "significantly": 4460,
      "none": 4461,
      "legal": 4462,
      "##eds": 4463,
      "wash": 4464,
      "risk": 4465,
      "bright": 4466,
      "describ": 4467,
      "worry": 4468,
      "##alu": 4469,
      "ben": 4470,
      "national": 4471,
      "##action": 4472,
      "knowing": 4473,
      "##ented": 4474,
      "provides": 4475,
      "sarah": 4476,
      "brain": 4477,
      "afric": 4478,
      "##urity": 4479,
      "resilience": 4480,
      "snow": 4481,
      "##ervation": 4482,
      "increased": 4483,
      "separ": 4484,
      "mechan": 4485,
      "mo": 4486,
      "##port": 4487,
      "shoes": 4488,
      "##ought": 4489,
      "##ields": 4490,
      "lie": 4491,
      "delight": 4492,
      "##oms": 4493,
      "adop": 4494,
      "promote": 4495,
      "studying": 4496,
      "incorporating": 4497,
      "store": 4498,
      "glad": 4499,
      "check": 4500,
      "involved": 4501,
      "pictures": 4502,
      "spoke": 4503,
      "throw": 4504,
      "evidence": 4505,
      "husband": 4506,
      "putting": 4507,
      "helping": 4508,
      "dut": 4509,
      "deliver": 4510,
      "effectively": 4511,
      "##cap": 4512,
      "pros": 4513,
      "seems": 4514,
      "purpose": 4515,
      "##riage": 4516,
      "boat": 4517,
      "mountain": 4518,
      "organizations": 4519,
      "occas": 4520,
      "citiz": 4521,
      "circum": 4522,
      "star": 4523,
      "tear": 4524,
      "scar": 4525,
      "refers": 4526,
      "responsible": 4527,
      "##inal": 4528,
      "businesses": 4529,
      "tiny": 4530,
      "##ifying": 4531,
      "##ores": 4532,
      "##icing": 4533,
      "embracing": 4534,
      "opened": 4535,
      "force": 4536,
      "dry": 4537,
      "foster": 4538,
      "advance": 4539,
      "##izes": 4540,
      "solutions": 4541,
      "tru": 4542,
      "daughter": 4543,
      "profession": 4544,
      "trouble": 4545,
      "prince": 4546,
      "letters": 4547,
      "disapp": 4548,
      "##co": 4549,
      "machine": 4550,
      "forgot": 4551,
      "pull": 4552,
      "van": 4553,
      "problems": 4554,
      "##ivating": 4555,
      "smooth": 4556,
      "walking": 4557,
      "##ropri": 4558,
      "##amb": 4559,
      "##ees": 4560,
      "appreciation": 4561,
      "##ellig": 4562,
      "requires": 4563,
      "##agon": 4564,
      "yours": 4565,
      "familiar": 4566,
      "informed": 4567,
      "silly": 4568,
      "sorry": 4569,
      "mir": 4570,
      "results": 4571,
      "emotional": 4572,
      "lower": 4573,
      "##ification": 4574,
      "flowers": 4575,
      "chance": 4576,
      "##ii": 4577,
      "toy": 4578,
      "setting": 4579,
      "ingred": 4580,
      "##ient": 4581,
      "incredible": 4582,
      "##going": 4583,
      "empathy": 4584,
      "created": 4585,
      "shad": 4586,
      "ath": 4587,
      "frame": 4588,
      "beliefs": 4589,
      "##ball": 4590,
      "germ": 4591,
      "onto": 4592,
      "##atory": 4593,
      "attempt": 4594,
      "da": 4595,
      "univers": 4596,
      "occur": 4597,
      "thanks": 4598,
      "french": 4599,
      "##fast": 4600,
      "puzz": 4601,
      "advoc": 4602,
      "cooking": 4603,
      "computer": 4604,
      "##aser": 4605,
      "background": 4606,
      "##ript": 4607,
      "designed": 4608,
      "strang": 4609,
      "unex": 4610,
      "vide": 4611,
      "der": 4612,
      "manner": 4613,
      "pan": 4614,
      "approaches": 4615,
      "youth": 4616,
      "park": 4617,
      "actions": 4618,
      "ought": 4619,
      "##ana": 4620,
      "trends": 4621,
      "demand": 4622,
      "spot": 4623,
      "researchers": 4624,
      "therap": 4625,
      "bodies": 4626,
      "achieve": 4627,
      "##uous": 4628,
      "##ipe": 4629,
      "amazing": 4630,
      "mal": 4631,
      "##oop": 4632,
      "juice": 4633,
      "appropri": 4634,
      "##anging": 4635,
      "anyone": 4636,
      "seek": 4637,
      "hidden": 4638,
      "##wise": 4639,
      "race": 4640,
      "dedic": 4641,
      "wit": 4642,
      "creative": 4643,
      "tap": 4644,
      "decisions": 4645,
      "outc": 4646,
      "decl": 4647,
      "instit": 4648,
      "theory": 4649,
      "ow": 4650,
      "area": 4651,
      "vast": 4652,
      "notice": 4653,
      "moving": 4654,
      "##ography": 4655,
      "sky": 4656,
      "famous": 4657,
      "##uits": 4658,
      "teacher": 4659,
      "easily": 4660,
      "##ware": 4661,
      "birthday": 4662,
      "schol": 4663,
      "whisper": 4664,
      "intellig": 4665,
      "hun": 4666,
      "##rit": 4667,
      "reached": 4668,
      "##ded": 4669,
      "##aimed": 4670,
      "happen": 4671,
      "##gn": 4672,
      "turning": 4673,
      "sources": 4674,
      "caught": 4675,
      "##ingu": 4676,
      "##osing": 4677,
      "constit": 4678,
      "guide": 4679,
      "foundation": 4680,
      "certainly": 4681,
      "numbers": 4682,
      "developing": 4683,
      "target": 4684,
      "heaven": 4685,
      "##gy": 4686,
      "fol": 4687,
      "##areness": 4688,
      "core": 4689,
      "compared": 4690,
      "neither": 4691,
      "involve": 4692,
      "pul": 4693,
      "corner": 4694,
      "##iration": 4695,
      "awareness": 4696,
      "exch": 4697,
      "##epend": 4698,
      "topics": 4699,
      "adult": 4700,
      "impress": 4701,
      "smart": 4702,
      "recent": 4703,
      "spiritual": 4704,
      "##bert": 4705,
      "nod": 4706,
      "remark": 4707,
      "lat": 4708,
      "evalu": 4709,
      "advanced": 4710,
      "ahead": 4711,
      "library": 4712,
      "parents": 4713,
      "rab": 4714,
      "spo": 4715,
      "months": 4716,
      "##ament": 4717,
      "nearly": 4718,
      "##iers": 4719,
      "circumst": 4720,
      "##osition": 4721,
      "memory": 4722,
      "societal": 4723,
      "apart": 4724,
      "smile": 4725,
      "slight": 4726,
      "fund": 4727,
      "rh": 4728,
      "conversation": 4729,
      "##asing": 4730,
      "guidel": 4731,
      "aunt": 4732,
      "##osp": 4733,
      "weak": 4734,
      "colle": 4735,
      "##ipped": 4736,
      "slowly": 4737,
      "quar": 4738,
      "native": 4739,
      "##uries": 4740,
      "advant": 4741,
      "##itary": 4742,
      "##entions": 4743,
      "news": 4744,
      "deal": 4745,
      "sick": 4746,
      "host": 4747,
      "original": 4748,
      "exploration": 4749,
      "provided": 4750,
      "friendly": 4751,
      "outcomes": 4752,
      "##itect": 4753,
      "lift": 4754,
      "length": 4755,
      "interests": 4756,
      "compl": 4757,
      "##back": 4758,
      "##ena": 4759,
      "orange": 4760,
      "architect": 4761,
      "objects": 4762,
      "board": 4763,
      "tired": 4764,
      "##gor": 4765,
      "cou": 4766,
      "climate": 4767,
      "note": 4768,
      "roles": 4769,
      "navigate": 4770,
      "truly": 4771,
      "stress": 4772,
      "image": 4773,
      "ongoing": 4774,
      "allowed": 4775,
      "##orrow": 4776,
      "send": 4777,
      "walked": 4778,
      "distance": 4779,
      "fant": 4780,
      "poet": 4781,
      "##agr": 4782,
      "diversity": 4783,
      "ability": 4784,
      "graph": 4785,
      "finish": 4786,
      "match": 4787,
      "##ume": 4788,
      "third": 4789,
      "size": 4790,
      "gently": 4791,
      "unexpected": 4792,
      "lies": 4793,
      "innovative": 4794,
      "vib": 4795,
      "##iff": 4796,
      "##ius": 4797,
      "heat": 4798,
      "drive": 4799,
      "speaking": 4800,
      "engagement": 4801,
      "wisdom": 4802,
      "##ring": 4803,
      "indic": 4804,
      "##mb": 4805,
      "available": 4806,
      "201": 4807,
      "taste": 4808,
      "hello": 4809,
      "eager": 4810,
      "hous": 4811,
      "programs": 4812,
      "solid": 4813,
      "##pper": 4814,
      "noticed": 4815,
      "planning": 4816,
      "pock": 4817,
      "broader": 4818,
      "dialog": 4819,
      "##py": 4820,
      "grew": 4821,
      "watching": 4822,
      "movements": 4823,
      "encourage": 4824,
      "uncle": 4825,
      "beginning": 4826,
      "grace": 4827,
      "skin": 4828,
      "becoming": 4829,
      "changing": 4830,
      "appeared": 4831,
      "##emat": 4832,
      "##isms": 4833,
      "##ban": 4834,
      "wondered": 4835,
      "inj": 4836,
      "assess": 4837,
      "independ": 4838,
      "interpret": 4839,
      "breakfast": 4840,
      "ya": 4841,
      "##asts": 4842,
      "dance": 4843,
      "crow": 4844,
      "america": 4845,
      "sev": 4846,
      "stream": 4847,
      "thor": 4848,
      "depart": 4849,
      "weight": 4850,
      "report": 4851,
      "tax": 4852,
      "construct": 4853,
      "rub": 4854,
      "intricate": 4855,
      "##ibly": 4856,
      "differences": 4857,
      "ring": 4858,
      "rout": 4859,
      "myster": 4860,
      "scientists": 4861,
      "policies": 4862,
      "lovely": 4863,
      "creativity": 4864,
      "##iance": 4865,
      "ship": 4866,
      "tall": 4867,
      "ensures": 4868,
      "offering": 4869,
      "adjust": 4870,
      "exciting": 4871,
      "##esty": 4872,
      "##book": 4873,
      "silence": 4874,
      "initi": 4875,
      "command": 4876,
      "landscape": 4877,
      "manage": 4878,
      "##agn": 4879,
      "matters": 4880,
      "office": 4881,
      "queen": 4882,
      "active": 4883,
      "economic": 4884,
      "inclus": 4885,
      "holding": 4886,
      "die": 4887,
      "span": 4888,
      "mary": 4889,
      "loud": 4890,
      "kitch": 4891,
      "earlier": 4892,
      "surface": 4893,
      "risks": 4894,
      "##encies": 4895,
      "fraser": 4896,
      "cream": 4897,
      "##ilit": 4898,
      "clever": 4899,
      "moon": 4900,
      "below": 4901,
      "born": 4902,
      "figures": 4903,
      "helped": 4904,
      "technologies": 4905,
      "hi": 4906,
      "dynamics": 4907,
      "apple": 4908,
      "##ixt": 4909,
      "predict": 4910,
      "relevant": 4911,
      "attract": 4912,
      "##rible": 4913,
      "magic": 4914,
      "measure": 4915,
      "excited": 4916,
      "treatment": 4917,
      "##iles": 4918,
      "##istics": 4919,
      "bottom": 4920,
      "choc": 4921,
      "showed": 4922,
      "##raid": 4923,
      "enhance": 4924,
      "effects": 4925,
      "speech": 4926,
      "international": 4927,
      "excell": 4928,
      "##mas": 4929,
      "fill": 4930,
      "teeth": 4931,
      "shut": 4932,
      "##ey": 4933,
      "exec": 4934,
      "##ibilities": 4935,
      "increasingly": 4936,
      "##wide": 4937,
      "proceed": 4938,
      "shout": 4939,
      "cake": 4940,
      "afraid": 4941,
      "apply": 4942,
      "pun": 4943,
      "weather": 4944,
      "england": 4945,
      "rid": 4946,
      "season": 4947,
      "inspired": 4948,
      "correct": 4949,
      "whatever": 4950,
      "leaves": 4951,
      "creatures": 4952,
      "built": 4953,
      "fields": 4954,
      "laughs": 4955,
      "##uh": 4956,
      "##cy": 4957,
      "shop": 4958,
      "opportunity": 4959,
      "##hips": 4960,
      "options": 4961,
      "amount": 4962,
      "expand": 4963,
      "authors": 4964,
      "##plications": 4965,
      "tick": 4966,
      "habit": 4967,
      "chem": 4968,
      "deeply": 4969,
      "##ushing": 4970,
      "plot": 4971,
      "realized": 4972,
      "finger": 4973,
      "wide": 4974,
      "##omp": 4975,
      "laid": 4976,
      "spaces": 4977,
      "gas": 4978,
      "listening": 4979,
      "##ha": 4980,
      "situations": 4981,
      "paint": 4982,
      "goals": 4983,
      "##olate": 4984,
      "effort": 4985,
      "lu": 4986,
      "remained": 4987,
      "hungry": 4988,
      "ride": 4989,
      "broke": 4990,
      "items": 4991,
      "turns": 4992,
      "somebody": 4993,
      "asking": 4994,
      "compass": 4995,
      "writ": 4996,
      "amidst": 4997,
      "ingredients": 4998,
      "plain": 4999,
      "sports": 5000,
      "shows": 5001,
      "moments": 5002,
      "discussions": 5003,
      "edge": 5004,
      "##iest": 5005,
      "collaboration": 5006,
      "veget": 5007,
      "highlight": 5008,
      "kitchen": 5009,
      "sav": 5010,
      "condition": 5011,
      "##oving": 5012,
      "aftern": 5013,
      "##fl": 5014,
      "##isc": 5015,
      "major": 5016,
      "platforms": 5017,
      "##bre": 5018,
      "schools": 5019,
      "functions": 5020,
      "mathemat": 5021,
      "##und": 5022,
      "##stairs": 5023,
      "situation": 5024,
      "equal": 5025,
      "horses": 5026,
      "##eal": 5027,
      "coff": 5028,
      "ted": 5029,
      "##ades": 5030,
      "##omm": 5031,
      "grass": 5032,
      "equip": 5033,
      "iron": 5034,
      "enth": 5035,
      "stone": 5036,
      "stopped": 5037,
      "environments": 5038,
      "pretend": 5039,
      "inher": 5040,
      "receive": 5041,
      "required": 5042,
      "carried": 5043,
      "desire": 5044,
      "display": 5045,
      "german": 5046,
      "mentioned": 5047,
      "legs": 5048,
      "worldwide": 5049,
      "trade": 5050,
      "madame": 5051,
      "franc": 5052,
      "closer": 5053,
      "literary": 5054,
      "silver": 5055,
      "scientific": 5056,
      "professional": 5057,
      "laughing": 5058,
      "monit": 5059,
      "appl": 5060,
      "complete": 5061,
      "difference": 5062,
      "medicine": 5063,
      "circumstances": 5064,
      "explained": 5065,
      "##gorith": 5066,
      "stage": 5067,
      "algorith": 5068,
      "##cer": 5069,
      "involving": 5070,
      "avoid": 5071,
      "chicken": 5072,
      "facilit": 5073,
      "navigating": 5074,
      "##aver": 5075,
      "projects": 5076,
      "cheese": 5077,
      "transport": 5078,
      "professionals": 5079,
      "swim": 5080,
      "detect": 5081,
      "security": 5082,
      "alike": 5083,
      "models": 5084,
      "surprise": 5085,
      "labor": 5086,
      "wise": 5087,
      "amb": 5088,
      "represents": 5089,
      "meeting": 5090,
      "property": 5091,
      "freed": 5092,
      "##he": 5093,
      "pour": 5094,
      "details": 5095,
      "sustainable": 5096,
      "everybody": 5097,
      "##ek": 5098,
      "fingers": 5099,
      "citizens": 5100,
      "mons": 5101,
      "##lig": 5102,
      "reality": 5103,
      "afternoon": 5104,
      "recover": 5105,
      "od": 5106,
      "recognize": 5107,
      "cred": 5108,
      "##icles": 5109,
      "bell": 5110,
      "##iety": 5111,
      "truck": 5112,
      "fle": 5113,
      "brit": 5114,
      "managing": 5115,
      "##while": 5116,
      "noises": 5117,
      "defin": 5118,
      "##know": 5119,
      "gained": 5120,
      "##mission": 5121,
      "##usi": 5122,
      "whenever": 5123,
      "contain": 5124,
      "##ocr": 5125,
      "alternative": 5126,
      "##rim": 5127,
      "summer": 5128,
      "speed": 5129,
      "intri": 5130,
      "##ches": 5131,
      "tool": 5132,
      "##ummy": 5133,
      "disord": 5134,
      "scene": 5135,
      "production": 5136,
      "serves": 5137,
      "religion": 5138,
      "susp": 5139,
      "##ieur": 5140,
      "lem": 5141,
      "structure": 5142,
      "wid": 5143,
      "acknow": 5144,
      "aimed": 5145,
      "##cipl": 5146,
      "tasks": 5147,
      "extre": 5148,
      "##omed": 5149,
      "tour": 5150,
      "discovery": 5151,
      "gentleman": 5152,
      "sharp": 5153,
      "##itty": 5154,
      "arrang": 5155,
      "enthusi": 5156,
      "minds": 5157,
      "##izz": 5158,
      "arrived": 5159,
      "##asons": 5160,
      "peter": 5161,
      "suc": 5162,
      "link": 5163,
      "occup": 5164,
      "hom": 5165,
      "##ork": 5166,
      "presence": 5167,
      "pressure": 5168,
      "instruct": 5169,
      "established": 5170,
      "hen": 5171,
      "##son": 5172,
      "pleasure": 5173,
      "birds": 5174,
      "stronger": 5175,
      "style": 5176,
      "cu": 5177,
      "additional": 5178,
      "guard": 5179,
      "##itage": 5180,
      "enab": 5181,
      "acad": 5182,
      "appropriate": 5183,
      "hit": 5184,
      "##asant": 5185,
      "monsieur": 5186,
      "private": 5187,
      "inqu": 5188,
      "join": 5189,
      "lunch": 5190,
      "claim": 5191,
      "##imate": 5192,
      "surv": 5193,
      "deg": 5194,
      "industry": 5195,
      "products": 5196,
      "entered": 5197,
      "texts": 5198,
      "mama": 5199,
      "forces": 5200,
      "mich": 5201,
      "bun": 5202,
      "lif": 5203,
      "obtain": 5204,
      "##emic": 5205,
      "ethical": 5206,
      "bank": 5207,
      "##eral": 5208,
      "west": 5209,
      "fash": 5210,
      "base": 5211,
      "##ket": 5212,
      "secure": 5213,
      "counter": 5214,
      "trick": 5215,
      "devices": 5216,
      "alongside": 5217,
      "yester": 5218,
      "delicious": 5219,
      "enem": 5220,
      "meanwhile": 5221,
      "##icians": 5222,
      "##val": 5223,
      "nine": 5224,
      "calm": 5225,
      "innovation": 5226,
      "ears": 5227,
      "capable": 5228,
      "initial": 5229,
      "bul": 5230,
      "##cing": 5231,
      "closely": 5232,
      "patient": 5233,
      "fly": 5234,
      "fool": 5235,
      "thorough": 5236,
      "forest": 5237,
      "fal": 5238,
      "moved": 5239,
      "content": 5240,
      "images": 5241,
      "guidelines": 5242,
      "practical": 5243,
      "primary": 5244,
      "##uing": 5245,
      "prison": 5246,
      "starting": 5247,
      "profound": 5248,
      "likely": 5249,
      "consequences": 5250,
      "burn": 5251,
      "boundaries": 5252,
      "##vey": 5253,
      "cars": 5254,
      "larger": 5255,
      "##iors": 5256,
      "install": 5257,
      "eleph": 5258,
      "neck": 5259,
      "electron": 5260,
      "heritage": 5261,
      "##encing": 5262,
      "species": 5263,
      "christmas": 5264,
      "roy": 5265,
      "confidence": 5266,
      "occasion": 5267,
      "realm": 5268,
      "patience": 5269,
      "users": 5270,
      "appearance": 5271,
      "immediately": 5272,
      "choices": 5273,
      "yesterday": 5274,
      "struck": 5275,
      "##pan": 5276,
      "languages": 5277,
      "##abilities": 5278,
      "considered": 5279,
      "changed": 5280,
      "nur": 5281,
      "companies": 5282,
      "measures": 5283,
      "lion": 5284,
      "##ott": 5285,
      "promise": 5286,
      "hosp": 5287,
      "##enom": 5288,
      "settings": 5289,
      "##bb": 5290,
      "uses": 5291,
      "worked": 5292,
      "wet": 5293,
      "##bits": 5294,
      "basic": 5295,
      "produce": 5296,
      "tig": 5297,
      "##onom": 5298,
      "foreign": 5299,
      "fashion": 5300,
      "spent": 5301,
      "bye": 5302,
      "exclaimed": 5303,
      "helen": 5304,
      "##oom": 5305,
      "param": 5306,
      "limited": 5307,
      "##equ": 5308,
      "thick": 5309,
      "experiment": 5310,
      "hole": 5311,
      "series": 5312,
      "placed": 5313,
      "exercise": 5314,
      "experienced": 5315,
      "drew": 5316,
      "##aming": 5317,
      "island": 5318,
      "honey": 5319,
      "conscious": 5320,
      "cases": 5321,
      "##cend": 5322,
      "storyt": 5323,
      "tales": 5324,
      "smaller": 5325,
      "branch": 5326,
      "##oted": 5327,
      "##under": 5328,
      "ital": 5329,
      "wonderful": 5330,
      "oce": 5331,
      "duck": 5332,
      "domin": 5333,
      "artistic": 5334,
      "frog": 5335,
      "musc": 5336,
      "pocket": 5337,
      "quant": 5338,
      "compassion": 5339,
      "capital": 5340,
      "bottle": 5341,
      "range": 5342,
      "##eter": 5343,
      "firm": 5344,
      "rise": 5345,
      "charge": 5346,
      "prepared": 5347,
      "intel": 5348,
      "##ette": 5349,
      "opinion": 5350,
      "##ensions": 5351,
      "##aur": 5352,
      "##ternal": 5353,
      "rule": 5354,
      "seat": 5355,
      "chocolate": 5356,
      "entertain": 5357,
      "excit": 5358,
      "pupp": 5359,
      "happiness": 5360,
      "shapes": 5361,
      "coffee": 5362,
      "explain": 5363,
      "adding": 5364,
      "beneath": 5365,
      "lips": 5366,
      "##rates": 5367,
      "video": 5368,
      "clar": 5369,
      "revolution": 5370,
      "russ": 5371,
      "extraord": 5372,
      "guidance": 5373,
      "driving": 5374,
      "voices": 5375,
      "neighbor": 5376,
      "ign": 5377,
      "telling": 5378,
      "vent": 5379,
      "beat": 5380,
      "brush": 5381,
      "politics": 5382,
      "improved": 5383,
      "attack": 5384,
      "raised": 5385,
      "##iveness": 5386,
      "mere": 5387,
      "paris": 5388,
      "military": 5389,
      "sus": 5390,
      "intelligence": 5391,
      "nu": 5392,
      "reduce": 5393,
      "resol": 5394,
      "analyze": 5395,
      "protection": 5396,
      "##fulness": 5397,
      "geor": 5398,
      "covered": 5399,
      "collective": 5400,
      "limit": 5401,
      "intellect": 5402,
      "excitement": 5403,
      "fruit": 5404,
      "caused": 5405,
      "##illy": 5406,
      "thri": 5407,
      "ate": 5408,
      "##ze": 5409,
      "imposs": 5410,
      "##board": 5411,
      "remarkable": 5412,
      "meaningful": 5413,
      "solving": 5414,
      "region": 5415,
      "##acles": 5416,
      "##arked": 5417,
      "related": 5418,
      "shif": 5419,
      "plate": 5420,
      "central": 5421,
      "##kes": 5422,
      "scholars": 5423,
      "waste": 5424,
      "paid": 5425,
      "sexual": 5426,
      "symbol": 5427,
      "cray": 5428,
      "via": 5429,
      "prompt": 5430,
      "unless": 5431,
      "desired": 5432,
      "emerging": 5433,
      "networks": 5434,
      "preserving": 5435,
      "believed": 5436,
      "battle": 5437,
      "##enth": 5438,
      "courage": 5439,
      "luck": 5440,
      "oil": 5441,
      "rac": 5442,
      "##onic": 5443,
      "##ends": 5444,
      "extract": 5445,
      "##ses": 5446,
      "extraordinary": 5447,
      "pink": 5448,
      "implications": 5449,
      "depth": 5450,
      "reducing": 5451,
      "dialogue": 5452,
      "##pty": 5453,
      "teaching": 5454,
      "final": 5455,
      "nin": 5456,
      "partners": 5457,
      "existing": 5458,
      "align": 5459,
      "##een": 5460,
      "vibrant": 5461,
      "contact": 5462,
      "fully": 5463,
      "lean": 5464,
      "magical": 5465,
      "rein": 5466,
      "creation": 5467,
      "circle": 5468,
      "motion": 5469,
      "hes": 5470,
      "opening": 5471,
      "numpy": 5472,
      "planet": 5473,
      "connected": 5474,
      "##ounds": 5475,
      "review": 5476,
      "frank": 5477,
      "bridge": 5478,
      "gaz": 5479,
      "proud": 5480,
      "enable": 5481,
      "ol": 5482,
      "blow": 5483,
      "reveal": 5484,
      "empower": 5485,
      "liber": 5486,
      "tears": 5487,
      "##inist": 5488,
      "analyzing": 5489,
      "respond": 5490,
      "transl": 5491,
      "practicing": 5492,
      "phenom": 5493,
      "closed": 5494,
      "typically": 5495,
      "absol": 5496,
      "weeks": 5497,
      "jes": 5498,
      "continues": 5499,
      "autom": 5500,
      "bill": 5501,
      "dust": 5502,
      "meat": 5503,
      "evil": 5504,
      "##time": 5505,
      "honor": 5506,
      "commit": 5507,
      "myst": 5508,
      "cy": 5509,
      "rig": 5510,
      "uns": 5511,
      "exhib": 5512,
      "##unk": 5513,
      "perce": 5514,
      "rat": 5515,
      "##iving": 5516,
      "attach": 5517,
      "mac": 5518,
      "winter": 5519,
      "stret": 5520,
      "smiled": 5521,
      "##osure": 5522,
      "agree": 5523,
      "##amental": 5524,
      "isl": 5525,
      "gall": 5526,
      "names": 5527,
      "loo": 5528,
      "lack": 5529,
      "phone": 5530,
      "micr": 5531,
      "coat": 5532,
      "##oh": 5533,
      "discussing": 5534,
      "witness": 5535,
      "hide": 5536,
      "wealth": 5537,
      "##ulated": 5538,
      "applying": 5539,
      "##ville": 5540,
      "cultiv": 5541,
      "##being": 5542,
      "wellbeing": 5543,
      "understood": 5544,
      "urban": 5545,
      "stuck": 5546,
      "nations": 5547,
      "##ads": 5548,
      "inters": 5549,
      "persist": 5550,
      "mas": 5551,
      "tradition": 5552,
      "rely": 5553,
      "nurs": 5554,
      "discussion": 5555,
      "dav": 5556,
      "obst": 5557,
      "drop": 5558,
      "agreement": 5559,
      "freedom": 5560,
      "storytelling": 5561,
      "artist": 5562,
      "entirely": 5563,
      "depending": 5564,
      "captivating": 5565,
      "encounter": 5566,
      "scenar": 5567,
      "input": 5568,
      "teddy": 5569,
      "##rict": 5570,
      "##urance": 5571,
      "tone": 5572,
      "operations": 5573,
      "tomorrow": 5574,
      "jwww": 5575,
      "conver": 5576,
      "representation": 5577,
      "expert": 5578,
      "recognizing": 5579,
      "ast": 5580,
      "network": 5581,
      "arts": 5582,
      "ell": 5583,
      "##hab": 5584,
      "besides": 5585,
      "jam": 5586,
      "rate": 5587,
      "doors": 5588,
      "cab": 5589,
      "##irm": 5590,
      "expected": 5591,
      "conversations": 5592,
      "bless": 5593,
      "cutting": 5594,
      "easier": 5595,
      "categ": 5596,
      "sugar": 5597,
      "tong": 5598,
      "abilities": 5599,
      "consequently": 5600,
      "anxiety": 5601,
      "##elled": 5602,
      "grab": 5603,
      "impossible": 5604,
      "older": 5605,
      "former": 5606,
      "suit": 5607,
      "kitty": 5608,
      "##onse": 5609,
      "attend": 5610,
      "##entional": 5611,
      "eventually": 5612,
      "hath": 5613,
      "otherwise": 5614,
      "equipment": 5615,
      "##ett": 5616,
      "chief": 5617,
      "corn": 5618,
      "conce": 5619,
      "excess": 5620,
      "patients": 5621,
      "barri": 5622,
      "maxim": 5623,
      "died": 5624,
      "parties": 5625,
      "advancements": 5626,
      "golden": 5627,
      "drawn": 5628,
      "royal": 5629,
      "##akers": 5630,
      "##icient": 5631,
      "dishes": 5632,
      "eld": 5633,
      "##owed": 5634,
      "dropped": 5635,
      "encouraging": 5636,
      "##iation": 5637,
      "response": 5638,
      "##bing": 5639,
      "##ected": 5640,
      "##antic": 5641,
      "lond": 5642,
      "interested": 5643,
      "signs": 5644,
      "police": 5645,
      "discour": 5646,
      "hang": 5647,
      "served": 5648,
      "benefit": 5649,
      "dogg": 5650,
      "france": 5651,
      "spring": 5652,
      "appar": 5653,
      "message": 5654,
      "student": 5655,
      "ce": 5656,
      "##acity": 5657,
      "##urally": 5658,
      "stir": 5659,
      "rabbit": 5660,
      "fright": 5661,
      "##uel": 5662,
      "band": 5663,
      "direction": 5664,
      "nobody": 5665,
      "beside": 5666,
      "crying": 5667,
      "london": 5668,
      "iv": 5669,
      "prepare": 5670,
      "##xic": 5671,
      "club": 5672,
      "evolution": 5673,
      "pair": 5674,
      "##orous": 5675,
      "user": 5676,
      "amy": 5677,
      "cul": 5678,
      "oblig": 5679,
      "pin": 5680,
      "busy": 5681,
      "consult": 5682,
      "assum": 5683,
      "goal": 5684,
      "fundamental": 5685,
      "examination": 5686,
      "thousands": 5687,
      "spect": 5688,
      "gun": 5689,
      "##yr": 5690,
      "inspire": 5691,
      "##avors": 5692,
      "laughed": 5693,
      "skill": 5694,
      "mart": 5695,
      "reb": 5696,
      "hardly": 5697,
      "##ocked": 5698,
      "##ael": 5699,
      "##osy": 5700,
      "bigger": 5701,
      "noble": 5702,
      "brave": 5703,
      "serious": 5704,
      "embark": 5705,
      "observed": 5706,
      "comfortable": 5707,
      "resistance": 5708,
      "##teen": 5709,
      "##more": 5710,
      "electric": 5711,
      "dw": 5712,
      "merely": 5713,
      "concer": 5714,
      "##others": 5715,
      "reflection": 5716,
      "##nal": 5717,
      "prepar": 5718,
      "##lessly": 5719,
      "station": 5720,
      "unto": 5721,
      "veh": 5722,
      "miles": 5723,
      "likes": 5724,
      "stead": 5725,
      "married": 5726,
      "print": 5727,
      "faces": 5728,
      "bowl": 5729,
      "disease": 5730,
      "scre": 5731,
      "offered": 5732,
      "focused": 5733,
      "nation": 5734,
      "earn": 5735,
      "notable": 5736,
      "##onal": 5737,
      "honour": 5738,
      "sect": 5739,
      "imper": 5740,
      "complet": 5741,
      "enables": 5742,
      "adventures": 5743,
      "application": 5744,
      "soil": 5745,
      "agreed": 5746,
      "houses": 5747,
      "cher": 5748,
      "boo": 5749,
      "vision": 5750,
      "struggle": 5751,
      "holds": 5752,
      "centuries": 5753,
      "gate": 5754,
      "existence": 5755,
      "##ulating": 5756,
      "asp": 5757,
      "##capes": 5758,
      "causing": 5759,
      "emerged": 5760,
      "lens": 5761,
      "spl": 5762,
      "eggs": 5763,
      "##ae": 5764,
      "alt": 5765,
      "resource": 5766,
      "grandma": 5767,
      "wine": 5768,
      "beg": 5769,
      "meal": 5770,
      "engaged": 5771,
      "rates": 5772,
      "enhancing": 5773,
      "rand": 5774,
      "assist": 5775,
      "encourages": 5776,
      "distribution": 5777,
      "gree": 5778,
      "lose": 5779,
      "##ray": 5780,
      "showc": 5781,
      "tale": 5782,
      "supporting": 5783,
      "aid": 5784,
      "charm": 5785,
      "cells": 5786,
      "fixed": 5787,
      "syn": 5788,
      "trib": 5789,
      "##icism": 5790,
      "feels": 5791,
      "harmony": 5792,
      "crack": 5793,
      "walls": 5794,
      "facing": 5795,
      "taught": 5796,
      "excellent": 5797,
      "gives": 5798,
      "wand": 5799,
      "##lo": 5800,
      "damage": 5801,
      "##ishment": 5802,
      "height": 5803,
      "indian": 5804,
      "enabling": 5805,
      "cogn": 5806,
      "dir": 5807,
      "gh": 5808,
      "square": 5809,
      "##ested": 5810,
      "##ushed": 5811,
      "knight": 5812,
      "technique": 5813,
      "##que": 5814,
      "requirements": 5815,
      "##aded": 5816,
      "grasp": 5817,
      "##gen": 5818,
      "fancy": 5819,
      "hearing": 5820,
      "thirty": 5821,
      "watched": 5822,
      "cater": 5823,
      "issue": 5824,
      "therapy": 5825,
      "##die": 5826,
      "cities": 5827,
      "expectations": 5828,
      "detail": 5829,
      "##gment": 5830,
      "plans": 5831,
      "##ashed": 5832,
      "##ule": 5833,
      "controll": 5834,
      "software": 5835,
      "determination": 5836,
      "somewhere": 5837,
      "straw": 5838,
      "european": 5839,
      "dressed": 5840,
      "terrible": 5841,
      "moral": 5842,
      "bord": 5843,
      "array": 5844,
      "powers": 5845,
      "hero": 5846,
      "princess": 5847,
      "##wood": 5848,
      "##isy": 5849,
      "dish": 5850,
      "societies": 5851,
      "wrote": 5852,
      "vac": 5853,
      "wes": 5854,
      "prior": 5855,
      "sympt": 5856,
      "##sing": 5857,
      "thin": 5858,
      "findings": 5859,
      "neur": 5860,
      "stars": 5861,
      "village": 5862,
      "resulting": 5863,
      "discipl": 5864,
      "laur": 5865,
      "roots": 5866,
      "authent": 5867,
      "passing": 5868,
      "##avour": 5869,
      "##osen": 5870,
      "handle": 5871,
      "frequently": 5872,
      "directly": 5873,
      "##atively": 5874,
      "ocean": 5875,
      "bite": 5876,
      "furn": 5877,
      "##idents": 5878,
      "wheel": 5879,
      "tip": 5880,
      "teachers": 5881,
      "institutions": 5882,
      "blocks": 5883,
      "educational": 5884,
      "costs": 5885,
      "##ym": 5886,
      "##ois": 5887,
      "enr": 5888,
      "interactions": 5889,
      "responsibility": 5890,
      "virtual": 5891,
      "##ression": 5892,
      "document": 5893,
      "college": 5894,
      "wed": 5895,
      "##pet": 5896,
      "monkey": 5897,
      "kid": 5898,
      "kindness": 5899,
      "danger": 5900,
      "flower": 5901,
      "flat": 5902,
      "designs": 5903,
      "decide": 5904,
      "tun": 5905,
      "tot": 5906,
      "##rom": 5907,
      "perfectly": 5908,
      "divine": 5909,
      "puts": 5910,
      "career": 5911,
      "kill": 5912,
      "recomm": 5913,
      "considering": 5914,
      "unfortun": 5915,
      "basket": 5916,
      "vir": 5917,
      "silent": 5918,
      "canad": 5919,
      "sought": 5920,
      "improving": 5921,
      "##force": 5922,
      "mort": 5923,
      "source": 5924,
      "exchange": 5925,
      "inspiration": 5926,
      "pec": 5927,
      "copyright": 5928,
      "players": 5929,
      "posit": 5930,
      "east": 5931,
      "contract": 5932,
      "succeed": 5933,
      "vul": 5934,
      "webs": 5935,
      "cyc": 5936,
      "regularly": 5937,
      "##uf": 5938,
      "hind": 5939,
      "reasons": 5940,
      "mutual": 5941,
      "populations": 5942,
      "sheep": 5943,
      "##ustling": 5944,
      "writers": 5945,
      "optimal": 5946,
      "lou": 5947,
      "sets": 5948,
      "processing": 5949,
      "##ishing": 5950,
      "tender": 5951,
      "jap": 5952,
      "technological": 5953,
      "sen": 5954,
      "##rif": 5955,
      "conflicts": 5956,
      "generally": 5957,
      "block": 5958,
      "##inate": 5959,
      "twel": 5960,
      "fed": 5961,
      "waves": 5962,
      "blank": 5963,
      "##icle": 5964,
      "emotion": 5965,
      "dan": 5966,
      "violence": 5967,
      "embrace": 5968,
      "cell": 5969,
      "shot": 5970,
      "afford": 5971,
      "ii": 5972,
      "chosen": 5973,
      "##uli": 5974,
      "behaviors": 5975,
      "stands": 5976,
      "alive": 5977,
      "maid": 5978,
      "twelve": 5979,
      "painting": 5980,
      "##vin": 5981,
      "cheer": 5982,
      "##ship": 5983,
      "sess": 5984,
      "camer": 5985,
      "flu": 5986,
      "grown": 5987,
      "nic": 5988,
      "engineering": 5989,
      "poetry": 5990,
      "usual": 5991,
      "dedicated": 5992,
      "##acies": 5993,
      "accompl": 5994,
      "staying": 5995,
      "african": 5996,
      "##iday": 5997,
      "##aked": 5998,
      "##ocking": 5999,
      "humanity": 6000,
      "sigh": 6001,
      "styles": 6002,
      "cart": 6003,
      "windows": 6004,
      "dread": 6005,
      "storm": 6006,
      "functional": 6007,
      "japan": 6008,
      "##wich": 6009,
      "lights": 6010,
      "##leep": 6011,
      "communicate": 6012,
      "spoon": 6013,
      "mission": 6014,
      "determined": 6015,
      "dreams": 6016,
      "upd": 6017,
      "secre": 6018,
      "collection": 6019,
      "elephant": 6020,
      "reduced": 6021,
      "preferences": 6022,
      "asleep": 6023,
      "socrates": 6024,
      "rapidly": 6025,
      "##house": 6026,
      "motiv": 6027,
      "repeated": 6028,
      "healing": 6029,
      "tor": 6030,
      "sides": 6031,
      "bought": 6032,
      "unw": 6033,
      "presented": 6034,
      "stranger": 6035,
      "rene": 6036,
      "concerning": 6037,
      "cris": 6038,
      "accordingly": 6039,
      "deser": 6040,
      "lying": 6041,
      "messages": 6042,
      "novels": 6043,
      "increasing": 6044,
      "perspective": 6045,
      "official": 6046,
      "fab": 6047,
      "hasn": 6048,
      "margin": 6049,
      "countless": 6050,
      "cere": 6051,
      "shed": 6052,
      "york": 6053,
      "duty": 6054,
      "excuse": 6055,
      "philosophy": 6056,
      "simult": 6057,
      "medium": 6058,
      "simultane": 6059,
      "empty": 6060,
      "timmy": 6061,
      "cod": 6062,
      "compar": 6063,
      "seemingly": 6064,
      "row": 6065,
      "poll": 6066,
      "##ales": 6067,
      "mob": 6068,
      "advice": 6069,
      "sword": 6070,
      "diss": 6071,
      "tight": 6072,
      "marriage": 6073,
      "fer": 6074,
      "##estic": 6075,
      "castle": 6076,
      "creature": 6077,
      "washing": 6078,
      "##otic": 6079,
      "##idently": 6080,
      "coach": 6081,
      "honest": 6082,
      "wat": 6083,
      "vary": 6084,
      "##icked": 6085,
      "implementing": 6086,
      "propert": 6087,
      "developed": 6088,
      "##dr": 6089,
      "breaking": 6090,
      "ham": 6091,
      "##mit": 6092,
      "program": 6093,
      "##nic": 6094,
      "brings": 6095,
      "cous": 6096,
      "juven": 6097,
      "##ai": 6098,
      "insight": 6099,
      "dirty": 6100,
      "increase": 6101,
      "precious": 6102,
      "evolving": 6103,
      "##asy": 6104,
      "luc": 6105,
      "initiatives": 6106,
      "##reg": 6107,
      "norms": 6108,
      "authentic": 6109,
      "properties": 6110,
      "myth": 6111,
      "happening": 6112,
      "intellectual": 6113,
      "center": 6114,
      "##inent": 6115,
      "facts": 6116,
      "identities": 6117,
      "showing": 6118,
      "falling": 6119,
      "subjects": 6120,
      "##mon": 6121,
      "discrim": 6122,
      "whispered": 6123,
      "##actions": 6124,
      "temperature": 6125,
      "##inations": 6126,
      "false": 6127,
      "sequ": 6128,
      "feature": 6129,
      "sail": 6130,
      "cloud": 6131,
      "properly": 6132,
      "atm": 6133,
      "##head": 6134,
      "shr": 6135,
      "flow": 6136,
      "regions": 6137,
      "ordinary": 6138,
      "percept": 6139,
      "thereby": 6140,
      "authority": 6141,
      "tape": 6142,
      "##rix": 6143,
      "sell": 6144,
      "fallen": 6145,
      "accompan": 6146,
      "mouse": 6147,
      "purch": 6148,
      "puzzle": 6149,
      "agric": 6150,
      "judge": 6151,
      "##iam": 6152,
      "adults": 6153,
      "brief": 6154,
      "reflecting": 6155,
      "heads": 6156,
      "formed": 6157,
      "cham": 6158,
      "err": 6159,
      "sund": 6160,
      "##resp": 6161,
      "female": 6162,
      "nap": 6163,
      "prove": 6164,
      "##arrow": 6165,
      "reson": 6166,
      "rough": 6167,
      "movie": 6168,
      "landscapes": 6169,
      "sum": 6170,
      "hill": 6171,
      "##ums": 6172,
      "sandwich": 6173,
      "audiences": 6174,
      "por": 6175,
      "naught": 6176,
      "divid": 6177,
      "tend": 6178,
      "worse": 6179,
      "primarily": 6180,
      "gradually": 6181,
      "fortune": 6182,
      "agricult": 6183,
      "##othing": 6184,
      "etc": 6185,
      "##of": 6186,
      "##iable": 6187,
      "computers": 6188,
      "fold": 6189,
      "tv": 6190,
      "##uces": 6191,
      "leads": 6192,
      "##ruct": 6193,
      "complexity": 6194,
      "fighting": 6195,
      "liked": 6196,
      "qualities": 6197,
      "san": 6198,
      "manip": 6199,
      "##ipping": 6200,
      "lin": 6201,
      "clearly": 6202,
      "sleeping": 6203,
      "meals": 6204,
      "shirt": 6205,
      "negative": 6206,
      "escape": 6207,
      "layers": 6208,
      "juvenile": 6209,
      "define": 6210,
      "marked": 6211,
      "##ato": 6212,
      "regional": 6213,
      "michael": 6214,
      "glance": 6215,
      "200": 6216,
      "threw": 6217,
      "plus": 6218,
      "ai": 6219,
      "goodness": 6220,
      "##inated": 6221,
      "mood": 6222,
      "needta": 6223,
      "flying": 6224,
      "tips": 6225,
      "acknowled": 6226,
      "regardless": 6227,
      "audience": 6228,
      "##eren": 6229,
      "##igr": 6230,
      "task": 6231,
      "##agraph": 6232,
      "territ": 6233,
      "british": 6234,
      "pand": 6235,
      "homes": 6236,
      "gods": 6237,
      "habits": 6238,
      "memories": 6239,
      "confess": 6240,
      "employed": 6241,
      "china": 6242,
      "paragraph": 6243,
      "millions": 6244,
      "cards": 6245,
      "flour": 6246,
      "robust": 6247,
      "buck": 6248,
      "grav": 6249,
      "delicate": 6250,
      "organization": 6251,
      "managed": 6252,
      "instant": 6253,
      "population": 6254,
      "button": 6255,
      "dogs": 6256,
      "tiger": 6257,
      "199": 6258,
      "constant": 6259,
      "anna": 6260,
      "wearing": 6261,
      "##illa": 6262,
      "possibilities": 6263,
      "17": 6264,
      "bon": 6265,
      "##asm": 6266,
      "crim": 6267,
      "##cel": 6268,
      "choice": 6269,
      "coast": 6270,
      "anymore": 6271,
      "produced": 6272,
      "hiding": 6273,
      "everyday": 6274,
      "absor": 6275,
      "##elle": 6276,
      "matrix": 6277,
      "innoc": 6278,
      "era": 6279,
      "grant": 6280,
      "affected": 6281,
      "diagn": 6282,
      "pressing": 6283,
      "relax": 6284,
      "ladies": 6285,
      "dangerous": 6286,
      "ain": 6287,
      "prote": 6288,
      "carl": 6289,
      "angry": 6290,
      "##ufact": 6291,
      "##ching": 6292,
      "previous": 6293,
      "yield": 6294,
      "david": 6295,
      "consideration": 6296,
      "chemical": 6297,
      "rail": 6298,
      "mit": 6299,
      "explored": 6300,
      "external": 6301,
      "appeal": 6302,
      "ash": 6303,
      "suppl": 6304,
      "symptoms": 6305,
      "tower": 6306,
      "poo": 6307,
      "asse": 6308,
      "drag": 6309,
      "##kin": 6310,
      "introduce": 6311,
      "impacts": 6312,
      "advers": 6313,
      "causes": 6314,
      "accurate": 6315,
      "hyp": 6316,
      "spoken": 6317,
      "actual": 6318,
      "characteristics": 6319,
      "manufact": 6320,
      "anc": 6321,
      "##osph": 6322,
      "##aving": 6323,
      "expressions": 6324,
      "lily": 6325,
      "##bl": 6326,
      "##bon": 6327,
      "##name": 6328,
      "standard": 6329,
      "completely": 6330,
      "weren": 6331,
      "pride": 6332,
      "web": 6333,
      "##iments": 6334,
      "diet": 6335,
      "couple": 6336,
      "wound": 6337,
      "aside": 6338,
      "tongue": 6339,
      "dick": 6340,
      "simultaneously": 6341,
      "##iber": 6342,
      "##aved": 6343,
      "convey": 6344,
      "clin": 6345,
      "##respond": 6346,
      "disappear": 6347,
      "flex": 6348,
      "pip": 6349,
      "correspond": 6350,
      "determine": 6351,
      "barriers": 6352,
      "##ula": 6353,
      "crime": 6354,
      "uncover": 6355,
      "decor": 6356,
      "destro": 6357,
      "##eases": 6358,
      "imagination": 6359,
      "nan": 6360,
      "connecting": 6361,
      "hearts": 6362,
      "inherent": 6363,
      "suggested": 6364,
      "recip": 6365,
      "wished": 6366,
      "##aign": 6367,
      "regulations": 6368,
      "henry": 6369,
      "democr": 6370,
      "debates": 6371,
      "renew": 6372,
      "trip": 6373,
      "rever": 6374,
      "##unning": 6375,
      "ups": 6376,
      "mc": 6377,
      "tiss": 6378,
      "spend": 6379,
      "programm": 6380,
      "george": 6381,
      "##unte": 6382,
      "strict": 6383,
      "latter": 6384,
      "ox": 6385,
      "##chant": 6386,
      "jesus": 6387,
      "underlying": 6388,
      "angel": 6389,
      "western": 6390,
      "##tering": 6391,
      "aware": 6392,
      "shaped": 6393,
      "volunte": 6394,
      "babies": 6395,
      "heavily": 6396,
      "dynamic": 6397,
      "shel": 6398,
      "talked": 6399,
      "customs": 6400,
      "hospital": 6401,
      "bol": 6402,
      "assign": 6403,
      "proced": 6404,
      "roman": 6405,
      "pill": 6406,
      "pale": 6407,
      "assistance": 6408,
      "cos": 6409,
      "integrating": 6410,
      "electronic": 6411,
      "##anor": 6412,
      "rul": 6413,
      "permission": 6414,
      "flor": 6415,
      "starts": 6416,
      "easter": 6417,
      "blind": 6418,
      "forced": 6419,
      "dispar": 6420,
      "contrast": 6421,
      "adopt": 6422,
      "##eted": 6423,
      "focusing": 6424,
      "bringing": 6425,
      "unity": 6426,
      "marry": 6427,
      "grat": 6428,
      "soldiers": 6429,
      "listened": 6430,
      "##arian": 6431,
      "burst": 6432,
      "musical": 6433,
      "exposure": 6434,
      "bunny": 6435,
      "ancest": 6436,
      "coo": 6437,
      "double": 6438,
      "secrets": 6439,
      "brand": 6440,
      "oppos": 6441,
      "purple": 6442,
      "##oves": 6443,
      "governments": 6444,
      "lastly": 6445,
      "##ker": 6446,
      "memor": 6447,
      "afterwards": 6448,
      "passage": 6449,
      "##alized": 6450,
      "##ox": 6451,
      "##aper": 6452,
      "goods": 6453,
      "contributions": 6454,
      "inhab": 6455,
      "naughty": 6456,
      "##ulous": 6457,
      "ber": 6458,
      "inclusive": 6459,
      "james": 6460,
      "slightly": 6461,
      "beach": 6462,
      "struggles": 6463,
      "##aker": 6464,
      "consistent": 6465,
      "lever": 6466,
      "tells": 6467,
      "##icks": 6468,
      "everywhere": 6469,
      "guy": 6470,
      "status": 6471,
      "belief": 6472,
      "performing": 6473,
      "bonds": 6474,
      "includes": 6475,
      "friendship": 6476,
      "twist": 6477,
      "nearby": 6478,
      "##cely": 6479,
      "holy": 6480,
      "crowd": 6481,
      "member": 6482,
      "kinds": 6483,
      "trium": 6484,
      "chann": 6485,
      "foods": 6486,
      "naturally": 6487,
      "preserve": 6488,
      "forgotten": 6489,
      "gathered": 6490,
      "##gypt": 6491,
      "credit": 6492,
      "##nected": 6493,
      "satisfaction": 6494,
      "unders": 6495,
      "unlike": 6496,
      "jim": 6497,
      "ali": 6498,
      "price": 6499,
      "folk": 6500,
      "mystery": 6501,
      "fifty": 6502,
      "vegetables": 6503,
      "marvel": 6504,
      "ende": 6505,
      "ay": 6506,
      "##ading": 6507,
      "##mer": 6508,
      "photograph": 6509,
      "morrow": 6510,
      "recognition": 6511,
      "16": 6512,
      "wow": 6513,
      "##stand": 6514,
      "spirits": 6515,
      "notes": 6516,
      "president": 6517,
      "carrying": 6518,
      "ca": 6519,
      "date": 6520,
      "##osystem": 6521,
      "voc": 6522,
      "ba": 6523,
      "triumph": 6524,
      "buildings": 6525,
      "ven": 6526,
      "##jo": 6527,
      "fault": 6528,
      "stake": 6529,
      "cookie": 6530,
      "exercises": 6531,
      "egypt": 6532,
      "stock": 6533,
      "anxious": 6534,
      "##udes": 6535,
      "##inese": 6536,
      "##water": 6537,
      "shadow": 6538,
      "hesit": 6539,
      "returns": 6540,
      "dor": 6541,
      "explan": 6542,
      "##icit": 6543,
      "##ference": 6544,
      "fantastic": 6545,
      "##ounced": 6546,
      "shook": 6547,
      "##umbled": 6548,
      "alle": 6549,
      "incorporate": 6550,
      "missing": 6551,
      "swift": 6552,
      "developments": 6553,
      "relevance": 6554,
      "##osc": 6555,
      "giant": 6556,
      "protecting": 6557,
      "soph": 6558,
      "greatest": 6559,
      "##esth": 6560,
      "complexities": 6561,
      "obstacles": 6562,
      "##isters": 6563,
      "anne": 6564,
      "keeps": 6565,
      "bang": 6566,
      "##bal": 6567,
      "15": 6568,
      "frag": 6569,
      "manif": 6570,
      "genu": 6571,
      "capacity": 6572,
      "academic": 6573,
      "##aints": 6574,
      "strategy": 6575,
      "##lin": 6576,
      "army": 6577,
      "carriage": 6578,
      "string": 6579,
      "##apping": 6580,
      "ecosystem": 6581,
      "harness": 6582,
      "distingu": 6583,
      "location": 6584,
      "transformation": 6585,
      "standards": 6586,
      "efficient": 6587,
      "enrich": 6588,
      "##do": 6589,
      "mechanisms": 6590,
      "advantage": 6591,
      "chinese": 6592,
      "mountains": 6593,
      "creates": 6594,
      "traum": 6595,
      "rhy": 6596,
      "pil": 6597,
      "##eping": 6598,
      "depend": 6599,
      "##ka": 6600,
      "construction": 6601,
      "##rid": 6602,
      "solve": 6603,
      "driven": 6604,
      "cultivate": 6605,
      "suffer": 6606,
      "tack": 6607,
      "##repr": 6608,
      "pizz": 6609,
      "stairs": 6610,
      "ger": 6611,
      "servant": 6612,
      "inner": 6613,
      "##ino": 6614,
      "adap": 6615,
      "scenes": 6616,
      "symbols": 6617,
      "commitment": 6618,
      "surprised": 6619,
      "pleasant": 6620,
      "000": 6621,
      "remembered": 6622,
      "pure": 6623,
      "persons": 6624,
      "illness": 6625,
      "mount": 6626,
      "affecting": 6627,
      "salt": 6628,
      "tailored": 6629,
      "##bur": 6630,
      "distur": 6631,
      "contributing": 6632,
      "graphic": 6633,
      "efficiency": 6634,
      "vig": 6635,
      "roof": 6636,
      "identifying": 6637,
      "peculi": 6638,
      "peculiar": 6639,
      "faster": 6640,
      "penc": 6641,
      "swimming": 6642,
      "##gl": 6643,
      "horiz": 6644,
      "accident": 6645,
      "##olf": 6646,
      "##etics": 6647,
      "shoulder": 6648,
      "observe": 6649,
      "plenty": 6650,
      "supply": 6651,
      "transportation": 6652,
      "dancing": 6653,
      "architecture": 6654,
      "troub": 6655,
      "paul": 6656,
      "dur": 6657,
      "metal": 6658,
      "brill": 6659,
      "doctors": 6660,
      "fate": 6661,
      "surely": 6662,
      "resist": 6663,
      "sacred": 6664,
      "shoulders": 6665,
      "beloved": 6666,
      "suspic": 6667,
      "fee": 6668,
      "streets": 6669,
      "combining": 6670,
      "potentially": 6671,
      "##igration": 6672,
      "neighborhood": 6673,
      "dolly": 6674,
      "scale": 6675,
      "dinos": 6676,
      "file": 6677,
      "breast": 6678,
      "advantages": 6679,
      "preparing": 6680,
      "poly": 6681,
      "equally": 6682,
      "designing": 6683,
      "vess": 6684,
      "anybody": 6685,
      "machines": 6686,
      "origins": 6687,
      "quietly": 6688,
      "jose": 6689,
      "##otyp": 6690,
      "script": 6691,
      "uncertain": 6692,
      "influences": 6693,
      "supposed": 6694,
      "##ibl": 6695,
      "##osphere": 6696,
      "pra": 6697,
      "ment": 6698,
      "grapp": 6699,
      "separate": 6700,
      "crown": 6701,
      "presents": 6702,
      "legacy": 6703,
      "flavor": 6704,
      "reform": 6705,
      "##rial": 6706,
      "fan": 6707,
      "##icip": 6708,
      "differently": 6709,
      "difficulty": 6710,
      "wave": 6711,
      "learners": 6712,
      "improvement": 6713,
      "contexts": 6714,
      "interview": 6715,
      "minimize": 6716,
      "##oned": 6717,
      "sole": 6718,
      "acts": 6719,
      "positively": 6720,
      "upstairs": 6721,
      "severe": 6722,
      "cas": 6723,
      "##atures": 6724,
      "serving": 6725,
      "##mn": 6726,
      "empire": 6727,
      "waters": 6728,
      "cognitive": 6729,
      "reput": 6730,
      "sake": 6731,
      "complic": 6732,
      "humor": 6733,
      "enemy": 6734,
      "##whel": 6735,
      "mixed": 6736,
      "##utely": 6737,
      "shake": 6738,
      "sings": 6739,
      "laughter": 6740,
      "intercon": 6741,
      "distress": 6742,
      "picked": 6743,
      "vulner": 6744,
      "inspiring": 6745,
      "administ": 6746,
      "##erable": 6747,
      "shoot": 6748,
      "bold": 6749,
      "mysterious": 6750,
      "##ara": 6751,
      "##ague": 6752,
      "instructions": 6753,
      "random": 6754,
      "counsel": 6755,
      "##ss": 6756,
      "income": 6757,
      "discovering": 6758,
      "beings": 6759,
      "lemon": 6760,
      "assemb": 6761,
      "introduced": 6762,
      "requiring": 6763,
      "threats": 6764,
      "seam": 6765,
      "solution": 6766,
      "##ls": 6767,
      "lit": 6768,
      "fellows": 6769,
      "loves": 6770,
      "awa": 6771,
      "lor": 6772,
      "rot": 6773,
      "bitter": 6774,
      "overwhel": 6775,
      "##ucks": 6776,
      "unkn": 6777,
      "##attered": 6778,
      "lid": 6779,
      "comprehensive": 6780,
      "ren": 6781,
      "shown": 6782,
      "diving": 6783,
      "featuring": 6784,
      "##nam": 6785,
      "jewish": 6786,
      "fruits": 6787,
      "goo": 6788,
      "depict": 6789,
      "thread": 6790,
      "bac": 6791,
      "##isl": 6792,
      "##ims": 6793,
      "songs": 6794,
      "thro": 6795,
      "observ": 6796,
      "suitable": 6797,
      "sched": 6798,
      "narrow": 6799,
      "darkness": 6800,
      "nest": 6801,
      "adver": 6802,
      "armed": 6803,
      "sne": 6804,
      "spark": 6805,
      "algorithms": 6806,
      "pow": 6807,
      "valid": 6808,
      "pleased": 6809,
      "liqu": 6810,
      "arise": 6811,
      "conservation": 6812,
      "promised": 6813,
      "ideal": 6814,
      "trail": 6815,
      "artific": 6816,
      "twice": 6817,
      "huge": 6818,
      "coord": 6819,
      "##nel": 6820,
      "swing": 6821,
      "leadership": 6822,
      "approached": 6823,
      "normal": 6824,
      "##sc": 6825,
      "##ription": 6826,
      "eleanor": 6827,
      "facilitate": 6828,
      "suns": 6829,
      "transfer": 6830,
      "##bt": 6831,
      "reaching": 6832,
      "caut": 6833,
      "sov": 6834,
      "applied": 6835,
      "opposite": 6836,
      "shame": 6837,
      "anth": 6838,
      "gray": 6839,
      "signal": 6840,
      "colonial": 6841,
      "athlet": 6842,
      "greek": 6843,
      "##arks": 6844,
      "useful": 6845,
      "stones": 6846,
      "delves": 6847,
      "cousin": 6848,
      "approx": 6849,
      "layer": 6850,
      "discrimination": 6851,
      "meas": 6852,
      "destroy": 6853,
      "##aud": 6854,
      "##omfort": 6855,
      "younger": 6856,
      "papers": 6857,
      "##med": 6858,
      "render": 6859,
      "scared": 6860,
      "practition": 6861,
      "follows": 6862,
      "corpor": 6863,
      "records": 6864,
      "goin": 6865,
      "unh": 6866,
      "india": 6867,
      "undersc": 6868,
      "ax": 6869,
      "wake": 6870,
      "customers": 6871,
      "located": 6872,
      "testing": 6873,
      "motor": 6874,
      "##ella": 6875,
      "declared": 6876,
      "astr": 6877,
      "gentlemen": 6878,
      "presently": 6879,
      "utter": 6880,
      "attribut": 6881,
      "##nie": 6882,
      "intrigu": 6883,
      "preparation": 6884,
      "fest": 6885,
      "killed": 6886,
      "instances": 6887,
      "spite": 6888,
      "appr": 6889,
      "participate": 6890,
      "suffering": 6891,
      "pages": 6892,
      "william": 6893,
      "interconnected": 6894,
      "pushing": 6895,
      "##pre": 6896,
      "monster": 6897,
      "##col": 6898,
      "flavors": 6899,
      "##zen": 6900,
      "queer": 6901,
      "##holders": 6902,
      "desert": 6903,
      "gran": 6904,
      "##how": 6905,
      "cooper": 6906,
      "##huh": 6907,
      "##rain": 6908,
      "reven": 6909,
      "march": 6910,
      "negot": 6911,
      "pizza": 6912,
      "depress": 6913,
      "fuel": 6914,
      "ic": 6915,
      "spin": 6916,
      "demonstrate": 6917,
      "kingdom": 6918,
      "ech": 6919,
      "calling": 6920,
      "wondering": 6921,
      "initially": 6922,
      "containing": 6923,
      "pitch": 6924,
      "clou": 6925,
      "purdie": 6926,
      "internal": 6927,
      "prospect": 6928,
      "forever": 6929,
      "muse": 6930,
      "immers": 6931,
      "guys": 6932,
      "##ford": 6933,
      "symp": 6934,
      "africa": 6935,
      "thrilling": 6936,
      "atmosphere": 6937,
      "overl": 6938,
      "rocks": 6939,
      "##ointed": 6940,
      "spanish": 6941,
      "hate": 6942,
      "resolution": 6943,
      "campaign": 6944,
      "map": 6945,
      "carr": 6946,
      "##ram": 6947,
      "formation": 6948,
      "shoe": 6949,
      "##iverse": 6950,
      "total": 6951,
      "gest": 6952,
      "knock": 6953,
      "sem": 6954,
      "weap": 6955,
      "anywhere": 6956,
      "drug": 6957,
      "fred": 6958,
      "workers": 6959,
      "periods": 6960,
      "gal": 6961,
      "ta": 6962,
      "bike": 6963,
      "capture": 6964,
      "rang": 6965,
      "aug": 6966,
      "##obe": 6967,
      "feedback": 6968,
      "execut": 6969,
      "wheels": 6970,
      "sustainability": 6971,
      "pulled": 6972,
      "concent": 6973,
      "smoke": 6974,
      "##ects": 6975,
      "touched": 6976,
      "rising": 6977,
      "critically": 6978,
      "unknown": 6979,
      "highly": 6980,
      "choosing": 6981,
      "legisl": 6982,
      "remove": 6983,
      "##ompass": 6984,
      "lic": 6985,
      "libraries": 6986,
      "aston": 6987,
      "##berry": 6988,
      "neverth": 6989,
      "illum": 6990,
      "greatly": 6991,
      "encompass": 6992,
      "reward": 6993,
      "##neys": 6994,
      "participants": 6995,
      "nerv": 6996,
      "##point": 6997,
      "generate": 6998,
      "##etch": 6999,
      "louis": 7000,
      "mole": 7001,
      "proved": 7002,
      "classes": 7003,
      "safely": 7004,
      "outl": 7005,
      "##acle": 7006,
      "smith": 7007,
      "##enses": 7008,
      "enjoying": 7009,
      "recently": 7010,
      "cookies": 7011,
      "demands": 7012,
      "degree": 7013,
      "device": 7014,
      "##uls": 7015,
      "knife": 7016,
      "islam": 7017,
      "dun": 7018,
      "##oe": 7019,
      "sunny": 7020,
      "ghost": 7021,
      "diseases": 7022,
      "smiling": 7023,
      "element": 7024,
      "supper": 7025,
      "traff": 7026,
      "lover": 7027,
      "flag": 7028,
      "##arts": 7029,
      "pointed": 7030,
      "argument": 7031,
      "purposes": 7032,
      "recall": 7033,
      "intersection": 7034,
      "heroes": 7035,
      "##place": 7036,
      "dollars": 7037,
      "describe": 7038,
      "specialized": 7039,
      "football": 7040,
      "alarm": 7041,
      "culinary": 7042,
      "nevertheless": 7043,
      "##what": 7044,
      "raise": 7045,
      "##athers": 7046,
      "genre": 7047,
      "drinking": 7048,
      "favour": 7049,
      "sentence": 7050,
      "screen": 7051,
      "cha": 7052,
      "intriguing": 7053,
      "##zy": 7054,
      "artificial": 7055,
      "chee": 7056,
      "ages": 7057,
      "donations": 7058,
      "extreme": 7059,
      "tract": 7060,
      "highlighting": 7061,
      "jer": 7062,
      "hurry": 7063,
      "considerations": 7064,
      "dare": 7065,
      "##rast": 7066,
      "##using": 7067,
      "universe": 7068,
      "dealing": 7069,
      "integration": 7070,
      "adher": 7071,
      "stability": 7072,
      "immediate": 7073,
      "fulf": 7074,
      "immense": 7075,
      "quarter": 7076,
      "cath": 7077,
      "##inting": 7078,
      "nodded": 7079,
      "charl": 7080,
      "uhhuh": 7081,
      "##pers": 7082,
      "worthy": 7083,
      "riding": 7084,
      "whereas": 7085,
      "driver": 7086,
      "efficiently": 7087,
      "moves": 7088,
      "##uses": 7089,
      "ended": 7090,
      "12": 7091,
      "chain": 7092,
      "sport": 7093,
      "brothers": 7094,
      "##0s": 7095,
      "unt": 7096,
      "joe": 7097,
      "##night": 7098,
      "willing": 7099,
      "equality": 7100,
      "rome": 7101,
      "union": 7102,
      "opinions": 7103,
      "##ector": 7104,
      "handling": 7105,
      "rooms": 7106,
      "harmful": 7107,
      "batter": 7108,
      "begg": 7109,
      "farmer": 7110,
      "camera": 7111,
      "celebrate": 7112,
      "cancer": 7113,
      "##ias": 7114,
      "monitoring": 7115,
      "recognized": 7116,
      "emily": 7117,
      "judgment": 7118,
      "datas": 7119,
      "nich": 7120,
      "somewhat": 7121,
      "parent": 7122,
      "##acement": 7123,
      "centered": 7124,
      "##ardon": 7125,
      "psychological": 7126,
      "##iture": 7127,
      "mitig": 7128,
      "wond": 7129,
      "neat": 7130,
      "selecting": 7131,
      "subsequ": 7132,
      "overcome": 7133,
      "joseph": 7134,
      "reply": 7135,
      "liv": 7136,
      "sixt": 7137,
      "somed": 7138,
      "##eph": 7139,
      "committed": 7140,
      "shouldn": 7141,
      "##view": 7142,
      "bedroom": 7143,
      "companion": 7144,
      "practitioners": 7145,
      "##och": 7146,
      "smell": 7147,
      "generation": 7148,
      "unus": 7149,
      "lege": 7150,
      "##awn": 7151,
      "sunday": 7152,
      "tang": 7153,
      "classic": 7154,
      "sple": 7155,
      "billy": 7156,
      "output": 7157,
      "domain": 7158,
      "calls": 7159,
      "clients": 7160,
      "palace": 7161,
      "affairs": 7162,
      "kick": 7163,
      "thoroughly": 7164,
      "##itudes": 7165,
      "strategic": 7166,
      "##well": 7167,
      "tapest": 7168,
      "distant": 7169,
      "remaining": 7170,
      "unfortunately": 7171,
      "forty": 7172,
      "sung": 7173,
      "invent": 7174,
      "waited": 7175,
      "knees": 7176,
      "someday": 7177,
      "prayer": 7178,
      "impl": 7179,
      "shopping": 7180,
      "proposed": 7181,
      "lake": 7182,
      "ton": 7183,
      "mastering": 7184,
      "expertise": 7185,
      "##cent": 7186,
      "argue": 7187,
      "eh": 7188,
      "multi": 7189,
      "boots": 7190,
      "lingu": 7191,
      "pit": 7192,
      "comprom": 7193,
      "journal": 7194,
      "restrict": 7195,
      "fortun": 7196,
      "jac": 7197,
      "competition": 7198,
      "tact": 7199,
      "intended": 7200,
      "household": 7201,
      "simpl": 7202,
      "aesth": 7203,
      "electr": 7204,
      "phr": 7205,
      "transpar": 7206,
      "male": 7207,
      "jamie": 7208,
      "##umn": 7209,
      "settled": 7210,
      "elev": 7211,
      "comics": 7212,
      "calculate": 7213,
      "stor": 7214,
      "unn": 7215,
      "arth": 7216,
      "conqu": 7217,
      "##mod": 7218,
      "##atoes": 7219,
      "recon": 7220,
      "player": 7221,
      "lasting": 7222,
      "mysteries": 7223,
      "##uity": 7224,
      "companions": 7225,
      "##rous": 7226,
      "##plot": 7227,
      "contributes": 7228,
      "sensitive": 7229,
      "confron": 7230,
      "limitations": 7231,
      "answers": 7232,
      "murm": 7233,
      "worlds": 7234,
      "settle": 7235,
      "butt": 7236,
      "university": 7237,
      "directions": 7238,
      "##ogen": 7239,
      "focuses": 7240,
      "tid": 7241,
      "parall": 7242,
      "bustling": 7243,
      "adam": 7244,
      "clothing": 7245,
      "insurance": 7246,
      "intervention": 7247,
      "hob": 7248,
      "balloon": 7249,
      "mathematical": 7250,
      "persu": 7251,
      "compelling": 7252,
      "##fall": 7253,
      "orders": 7254,
      "scenarios": 7255,
      "dign": 7256,
      "paying": 7257,
      "teams": 7258,
      "begins": 7259,
      "mont": 7260,
      "breathing": 7261,
      "relief": 7262,
      "pity": 7263,
      "perse": 7264,
      "warrant": 7265,
      "pad": 7266,
      "saved": 7267,
      "splend": 7268,
      "##ex": 7269,
      "##orial": 7270,
      "dece": 7271,
      "##eration": 7272,
      "joined": 7273,
      "abuse": 7274,
      "##ints": 7275,
      "grave": 7276,
      "engineers": 7277,
      "##uge": 7278,
      "bond": 7279,
      "backgrounds": 7280,
      "pover": 7281,
      "scarcely": 7282,
      "aver": 7283,
      "jane": 7284,
      "seeds": 7285,
      "falls": 7286,
      "anticip": 7287,
      "privacy": 7288,
      "dil": 7289,
      "icon": 7290,
      "visiting": 7291,
      "terror": 7292,
      "snake": 7293,
      "tough": 7294,
      "slide": 7295,
      "interaction": 7296,
      "clouds": 7297,
      "##road": 7298,
      "solely": 7299,
      "disag": 7300,
      "classroom": 7301,
      "glasses": 7302,
      "##coming": 7303,
      "lod": 7304,
      "saint": 7305,
      "crayon": 7306,
      "absolutely": 7307,
      "programming": 7308,
      "##oyal": 7309,
      "chamber": 7310,
      "##ructure": 7311,
      "schem": 7312,
      "affection": 7313,
      "owners": 7314,
      "discoveries": 7315,
      "disorders": 7316,
      "barb": 7317,
      "treasure": 7318,
      "ordered": 7319,
      "poverty": 7320,
      "creations": 7321,
      "sorrow": 7322,
      "difficulties": 7323,
      "commerc": 7324,
      "elder": 7325,
      "bid": 7326,
      "colorful": 7327,
      "##lights": 7328,
      "experts": 7329,
      "##osis": 7330,
      "educators": 7331,
      "##ensity": 7332,
      "satisfied": 7333,
      "cuis": 7334,
      "##iform": 7335,
      "knee": 7336,
      "teachings": 7337,
      "pie": 7338,
      "##nes": 7339,
      "lawy": 7340,
      "responses": 7341,
      "anyway": 7342,
      "hence": 7343,
      "phenomena": 7344,
      "mm": 7345,
      "hamm": 7346,
      "##ashing": 7347,
      "grief": 7348,
      "representing": 7349,
      "ped": 7350,
      "##elly": 7351,
      "forming": 7352,
      "americans": 7353,
      "duke": 7354,
      "softly": 7355,
      "##gress": 7356,
      "frameworks": 7357,
      "accounts": 7358,
      "perceived": 7359,
      "minor": 7360,
      "##iot": 7361,
      "gif": 7362,
      "infrast": 7363,
      "##olic": 7364,
      "emphasizing": 7365,
      "cord": 7366,
      "consciousness": 7367,
      "views": 7368,
      "##ancho": 7369,
      "perpet": 7370,
      "filler": 7371,
      "raw": 7372,
      "brilliant": 7373,
      "##unct": 7374,
      "inhabit": 7375,
      "utilize": 7376,
      "murder": 7377,
      "charles": 7378,
      "inequ": 7379,
      "##da": 7380,
      "leader": 7381,
      "bones": 7382,
      "fabric": 7383,
      "occurred": 7384,
      "christianity": 7385,
      "fox": 7386,
      "##etical": 7387,
      "##ogether": 7388,
      "##ission": 7389,
      "##avery": 7390,
      "altogether": 7391,
      "smoothly": 7392,
      "continuous": 7393,
      "##owned": 7394,
      "infrastructure": 7395,
      "##hand": 7396,
      "entr": 7397,
      "crafting": 7398,
      "label": 7399,
      "##vi": 7400,
      "discourse": 7401,
      "vain": 7402,
      "##ologists": 7403,
      "##igs": 7404,
      "linear": 7405,
      "conventional": 7406,
      "ga": 7407,
      "walks": 7408,
      "fosters": 7409,
      "nurse": 7410,
      "narrative": 7411,
      "mighty": 7412,
      "million": 7413,
      "sessions": 7414,
      "cruel": 7415,
      "comprehension": 7416,
      "bits": 7417,
      "appears": 7418,
      "rib": 7419,
      "##ounce": 7420,
      "characterized": 7421,
      "independent": 7422,
      "loyal": 7423,
      "arguments": 7424,
      "release": 7425,
      "remarked": 7426,
      "pool": 7427,
      "shift": 7428,
      "advances": 7429,
      "##ifications": 7430,
      "pic": 7431,
      "##here": 7432,
      "yummy": 7433,
      "##ortion": 7434,
      "nutr": 7435,
      "substant": 7436,
      "##field": 7437,
      "stere": 7438,
      "ling": 7439,
      "##aled": 7440,
      "interrupt": 7441,
      "striking": 7442,
      "rice": 7443,
      "shore": 7444,
      "mexic": 7445,
      "##atically": 7446,
      "partner": 7447,
      "revol": 7448,
      "picks": 7449,
      "observing": 7450,
      "##umes": 7451,
      "convin": 7452,
      "selection": 7453,
      "weakness": 7454,
      "professor": 7455,
      "explo": 7456,
      "cov": 7457,
      "satur": 7458,
      "tapestry": 7459,
      "ease": 7460,
      "mud": 7461,
      "uniform": 7462,
      "fairly": 7463,
      "##enn": 7464,
      "##oops": 7465,
      "escap": 7466,
      "error": 7467,
      "markets": 7468,
      "extrem": 7469,
      "mistress": 7470,
      "folks": 7471,
      "stakeholders": 7472,
      "commercial": 7473,
      "##tles": 7474,
      "plastic": 7475,
      "worship": 7476,
      "equipped": 7477,
      "anger": 7478,
      "woods": 7479,
      "disorder": 7480,
      "bout": 7481,
      "14": 7482,
      "peas": 7483,
      "documents": 7484,
      "genuine": 7485,
      "evaluate": 7486,
      "##life": 7487,
      "##met": 7488,
      "strive": 7489,
      "##aws": 7490,
      "pump": 7491,
      "downstairs": 7492,
      "latin": 7493,
      "##esis": 7494,
      "delightful": 7495,
      "np": 7496,
      "nutri": 7497,
      "newsp": 7498,
      "sufficient": 7499,
      "##ycle": 7500,
      "italian": 7501,
      "theor": 7502,
      "universal": 7503,
      "dram": 7504,
      "magnific": 7505,
      "wings": 7506,
      "hadn": 7507,
      "accuracy": 7508,
      "sorts": 7509,
      "domestic": 7510,
      "##oul": 7511,
      "bee": 7512,
      "component": 7513,
      "complicated": 7514,
      "compare": 7515,
      "canada": 7516,
      "remote": 7517,
      "peoples": 7518,
      "internet": 7519,
      "alexand": 7520,
      "movies": 7521,
      "algorithm": 7522,
      "parl": 7523,
      "site": 7524,
      "gathering": 7525,
      "paths": 7526,
      "enhanced": 7527,
      "gle": 7528,
      "ships": 7529,
      "compos": 7530,
      "blend": 7531,
      "marginalized": 7532,
      "abstr": 7533,
      "formal": 7534,
      "##ographical": 7535,
      "scratch": 7536,
      "owl": 7537,
      "rhyth": 7538,
      "##urning": 7539,
      "superior": 7540,
      "industries": 7541,
      "assert": 7542,
      "##gs": 7543,
      "mindfulness": 7544,
      "realize": 7545,
      "customer": 7546,
      "usage": 7547,
      "instantly": 7548,
      "hills": 7549,
      "film": 7550,
      "flew": 7551,
      "flash": 7552,
      "branches": 7553,
      "interf": 7554,
      "zoo": 7555,
      "colonel": 7556,
      "gay": 7557,
      "fond": 7558,
      "##istry": 7559,
      "successfully": 7560,
      "desk": 7561,
      "colour": 7562,
      "analyt": 7563,
      "nurt": 7564,
      "faint": 7565,
      "##idity": 7566,
      "##aks": 7567,
      "accepted": 7568,
      "##worth": 7569,
      "psychology": 7570,
      "trauma": 7571,
      "wore": 7572,
      "treatments": 7573,
      "hotel": 7574,
      "subtle": 7575,
      "il": 7576,
      "bears": 7577,
      "enjoyed": 7578,
      "innovations": 7579,
      "##aust": 7580,
      "summary": 7581,
      "theat": 7582,
      "consumption": 7583,
      "##ifies": 7584,
      "despair": 7585,
      "isol": 7586,
      "##ham": 7587,
      "fier": 7588,
      "sees": 7589,
      "runs": 7590,
      "hunting": 7591,
      "ere": 7592,
      "cultivating": 7593,
      "richard": 7594,
      "chim": 7595,
      "consent": 7596,
      "described": 7597,
      "economy": 7598,
      "##opping": 7599,
      "pattern": 7600,
      "exists": 7601,
      "enduring": 7602,
      "##off": 7603,
      "helpful": 7604,
      "grey": 7605,
      "ner": 7606,
      "endless": 7607,
      "##gest": 7608,
      "##kins": 7609,
      "request": 7610,
      "expressed": 7611,
      "emper": 7612,
      "inclusivity": 7613,
      "nuanced": 7614,
      "proof": 7615,
      "leaf": 7616,
      "##can": 7617,
      "missed": 7618,
      "duh": 7619,
      "racial": 7620,
      "rit": 7621,
      "wooden": 7622,
      "tremb": 7623,
      "recovery": 7624,
      "bent": 7625,
      "tub": 7626,
      "harmon": 7627,
      "visitors": 7628,
      "intrig": 7629,
      "theories": 7630,
      "unusual": 7631,
      "apples": 7632,
      "mainten": 7633,
      "investigation": 7634,
      "toast": 7635,
      "farmers": 7636,
      "##yl": 7637,
      "clay": 7638,
      "illustrate": 7639,
      "freely": 7640,
      "combined": 7641,
      "stereotyp": 7642,
      "lg": 7643,
      "minimizing": 7644,
      "opens": 7645,
      "amongst": 7646,
      "providers": 7647,
      "surrounded": 7648,
      "##inity": 7649,
      "maintenance": 7650,
      "sant": 7651,
      "##acks": 7652,
      "eleven": 7653,
      "industrial": 7654,
      "bay": 7655,
      "##eem": 7656,
      "aven": 7657,
      "refuge": 7658,
      "micro": 7659,
      "##osta": 7660,
      "geomet": 7661,
      "raising": 7662,
      "repeat": 7663,
      "guests": 7664,
      "ignor": 7665,
      "recipes": 7666,
      "considerable": 7667,
      "servants": 7668,
      "tut": 7669,
      "aloud": 7670,
      "actively": 7671,
      "cats": 7672,
      "entertainment": 7673,
      "monitor": 7674,
      "grate": 7675,
      "soldier": 7676,
      "##ache": 7677,
      "rare": 7678,
      "basics": 7679,
      "##eman": 7680,
      "devil": 7681,
      "independence": 7682,
      "##bles": 7683,
      "reck": 7684,
      "principle": 7685,
      "lgbt": 7686,
      "lon": 7687,
      "pier": 7688,
      "meditation": 7689,
      "counc": 7690,
      "sposta": 7691,
      "combine": 7692,
      "variables": 7693,
      "shakes": 7694,
      "arab": 7695,
      "##iece": 7696,
      "recommend": 7697,
      "##uded": 7698,
      "##eenth": 7699,
      "chest": 7700,
      "coc": 7701,
      "##lers": 7702,
      "proph": 7703,
      "pencil": 7704,
      "tension": 7705,
      "benny": 7706,
      "possibly": 7707,
      "strike": 7708,
      "earnest": 7709,
      "storage": 7710,
      "##opher": 7711,
      "varying": 7712,
      "lux": 7713,
      "staff": 7714,
      "mirror": 7715,
      "evidently": 7716,
      "##cl": 7717,
      "molec": 7718,
      "prosper": 7719,
      "achieving": 7720,
      "tissue": 7721,
      "procedures": 7722,
      "muscles": 7723,
      "belonging": 7724,
      "francs": 7725,
      "##alt": 7726,
      "repub": 7727,
      "fifteen": 7728,
      "root": 7729,
      "reprod": 7730,
      "decre": 7731,
      "minister": 7732,
      "budd": 7733,
      "obliged": 7734,
      "explanation": 7735,
      "returning": 7736,
      "holiday": 7737,
      "necessit": 7738,
      "organized": 7739,
      "surg": 7740,
      "##oons": 7741,
      "sink": 7742,
      "##ghter": 7743,
      "adversity": 7744,
      "dedication": 7745,
      "awful": 7746,
      "mail": 7747,
      "tummy": 7748,
      "##ero": 7749,
      "prominent": 7750,
      "superher": 7751,
      "failed": 7752,
      "whist": 7753,
      "bubb": 7754,
      "losing": 7755,
      "confusion": 7756,
      "wonders": 7757,
      "##edy": 7758,
      "bin": 7759,
      "essence": 7760,
      "oct": 7761,
      "##bye": 7762,
      "strengthen": 7763,
      "highlights": 7764,
      "signals": 7765,
      "ly": 7766,
      "conven": 7767,
      "defining": 7768,
      "interventions": 7769,
      "climb": 7770,
      "steam": 7771,
      "constantly": 7772,
      "bone": 7773,
      "errors": 7774,
      "budget": 7775,
      "ink": 7776,
      "liberty": 7777,
      "##eters": 7778,
      "craw": 7779,
      "sales": 7780,
      "utilizing": 7781,
      "hook": 7782,
      "##jud": 7783,
      "teleph": 7784,
      "soup": 7785,
      "expans": 7786,
      "surroundings": 7787,
      "mistake": 7788,
      "gasps": 7789,
      "##mitted": 7790,
      "descend": 7791,
      "##box": 7792,
      "##tha": 7793,
      "topic": 7794,
      "##usive": 7795,
      "##quis": 7796,
      "operation": 7797,
      "resc": 7798,
      "##crib": 7799,
      "manifest": 7800,
      "yo": 7801,
      "##umble": 7802,
      "capabilities": 7803,
      "instruments": 7804,
      "addressed": 7805,
      "admir": 7806,
      "tests": 7807,
      "bump": 7808,
      "innocent": 7809,
      "virtue": 7810,
      "lgbtq": 7811,
      "##aid": 7812,
      "strengths": 7813,
      "rush": 7814,
      "compliance": 7815,
      "levin": 7816,
      "accessible": 7817,
      "wars": 7818,
      "derived": 7819,
      "assessment": 7820,
      "traffic": 7821,
      "##sters": 7822,
      "##appy": 7823,
      "##idential": 7824,
      "confirm": 7825,
      "paus": 7826,
      "evolved": 7827,
      "ranging": 7828,
      "cuisine": 7829,
      "tie": 7830,
      "trial": 7831,
      "demonstrated": 7832,
      "substance": 7833,
      "upper": 7834,
      "alloc": 7835,
      "reader": 7836,
      "fairy": 7837,
      "bor": 7838,
      "drove": 7839,
      "##ault": 7840,
      "scream": 7841,
      "lis": 7842,
      "flight": 7843,
      "carol": 7844,
      "thunder": 7845,
      "parad": 7846,
      "articles": 7847,
      "accommod": 7848,
      "comic": 7849,
      "jul": 7850,
      "thrown": 7851,
      "eagerly": 7852,
      "combat": 7853,
      "jan": 7854,
      "##gie": 7855,
      "approximately": 7856,
      "boxes": 7857,
      "federal": 7858,
      "burning": 7859,
      "tooth": 7860,
      "##erge": 7861,
      "balls": 7862,
      "ebook": 7863,
      "governance": 7864,
      "##reprene": 7865,
      "lock": 7866,
      "##stone": 7867,
      "entreprene": 7868,
      "balancing": 7869,
      "globe": 7870,
      "intense": 7871,
      "discussed": 7872,
      "diam": 7873,
      "cub": 7874,
      "gor": 7875,
      "chose": 7876,
      "rooted": 7877,
      "wret": 7878,
      "##outs": 7879,
      "harry": 7880,
      "gratitude": 7881,
      "##guard": 7882,
      "witch": 7883,
      "sunlight": 7884,
      "marketing": 7885,
      "persever": 7886,
      "cot": 7887,
      "lam": 7888,
      "relative": 7889,
      "switch": 7890,
      "equitable": 7891,
      "##fly": 7892,
      "##found": 7893,
      "inspect": 7894,
      "##eding": 7895,
      "mixt": 7896,
      "##azy": 7897,
      "estim": 7898,
      "investment": 7899,
      "##acious": 7900,
      "resem": 7901,
      "officer": 7902,
      "arthur": 7903,
      "ruth": 7904,
      "##rael": 7905,
      "criminal": 7906,
      "horror": 7907,
      "sacrif": 7908,
      "lap": 7909,
      "disrupt": 7910,
      "eric": 7911,
      "thinks": 7912,
      "princip": 7913,
      "nursery": 7914,
      "collaborative": 7915,
      "##chief": 7916,
      "employees": 7917,
      "##otes": 7918,
      "intention": 7919,
      "acting": 7920,
      "websites": 7921,
      "objectives": 7922,
      "version": 7923,
      "##raft": 7924,
      "locations": 7925,
      "represented": 7926,
      "candid": 7927,
      "colored": 7928,
      "rolling": 7929,
      "pardon": 7930,
      "scul": 7931,
      "##arn": 7932,
      "bisc": 7933,
      "frightened": 7934,
      "photography": 7935,
      "ends": 7936,
      "cash": 7937,
      "##erson": 7938,
      "seated": 7939,
      "sites": 7940,
      "##lets": 7941,
      "contrary": 7942,
      "apr": 7943,
      "knights": 7944,
      "files": 7945,
      "agriculture": 7946,
      "integrity": 7947,
      "haz": 7948,
      "champ": 7949,
      "ethics": 7950,
      "claims": 7951,
      "##ovitch": 7952,
      "rele": 7953,
      "childhood": 7954,
      "stages": 7955,
      "israel": 7956,
      "stumbled": 7957,
      "framework": 7958,
      "aer": 7959,
      "thrive": 7960,
      "tort": 7961,
      "selling": 7962,
      "##ther": 7963,
      "germany": 7964,
      "moist": 7965,
      "histories": 7966,
      "jumped": 7967,
      "enthusiasm": 7968,
      "rode": 7969,
      "plane": 7970,
      "##mates": 7971,
      "##uary": 7972,
      "fought": 7973,
      "included": 7974,
      "hanging": 7975,
      "experiencing": 7976,
      "bull": 7977,
      "clust": 7978,
      "neighbors": 7979,
      "newfound": 7980,
      "texture": 7981,
      "nervous": 7982,
      "##ounting": 7983,
      "sculpt": 7984,
      "positions": 7985,
      "stepped": 7986,
      "establishing": 7987,
      "republic": 7988,
      "##apped": 7989,
      "cabin": 7990,
      "##isher": 7991,
      "keys": 7992,
      "subsequent": 7993,
      "stup": 7994,
      "airpl": 7995,
      "jumping": 7996,
      "horsie": 7997,
      "explaining": 7998,
      "reser": 7999,
      "mathematics": 8000,
      "##ald": 8001,
      "composition": 8002,
      "particles": 8003,
      "neglect": 8004,
      "telev": 8005,
      "spending": 8006,
      "loving": 8007,
      "vel": 8008,
      "##rate": 8009,
      "defined": 8010,
      "estate": 8011,
      "haha": 8012,
      "##umps": 8013,
      "mumm": 8014,
      "displ": 8015,
      "overview": 8016,
      "shifts": 8017,
      "furniture": 8018,
      "keen": 8019,
      "ecosystems": 8020,
      "bare": 8021,
      "##agers": 8022,
      "affects": 8023,
      "dragon": 8024,
      "##arsh": 8025,
      "detective": 8026,
      "romantic": 8027,
      "struggling": 8028,
      "solemn": 8029,
      "oven": 8030,
      "accurately": 8031,
      "rejo": 8032,
      "throwing": 8033,
      "valley": 8034,
      "##aly": 8035,
      "laura": 8036,
      "##oning": 8037,
      "finds": 8038,
      "interpretation": 8039,
      "pron": 8040,
      "clown": 8041,
      "saving": 8042,
      "forb": 8043,
      "cad": 8044,
      "##enance": 8045,
      "representations": 8046,
      "reaches": 8047,
      "glim": 8048,
      "mercy": 8049,
      "stim": 8050,
      "artwork": 8051,
      "sons": 8052,
      "##mother": 8053,
      "governing": 8054,
      "limits": 8055,
      "chat": 8056,
      "promising": 8057,
      "emperor": 8058,
      "treated": 8059,
      "possession": 8060,
      "vr": 8061,
      "##urd": 8062,
      "magnificent": 8063,
      "cleaning": 8064,
      "wildlife": 8065,
      "impression": 8066,
      "adequ": 8067,
      "chronic": 8068,
      "linguistic": 8069,
      "vivid": 8070,
      "haw": 8071,
      "dere": 8072,
      "spain": 8073,
      "aims": 8074,
      "##rics": 8075,
      "##cience": 8076,
      "excessive": 8077,
      "lorry": 8078,
      "pants": 8079,
      "insist": 8080,
      "attitudes": 8081,
      "doin": 8082,
      "genetic": 8083,
      "neural": 8084,
      "kindly": 8085,
      "hundreds": 8086,
      "##erb": 8087,
      "eastern": 8088,
      "rod": 8089,
      "org": 8090,
      "stereotypes": 8091,
      "vehicles": 8092,
      "throat": 8093,
      "tonight": 8094,
      "flood": 8095,
      "lifted": 8096,
      "wicked": 8097,
      "published": 8098,
      "loose": 8099,
      "##itor": 8100,
      "preventing": 8101,
      "acquaint": 8102,
      "silk": 8103,
      "##gle": 8104,
      "jean": 8105,
      "comprehend": 8106,
      "##bow": 8107,
      "theme": 8108,
      "scary": 8109,
      "acceptance": 8110,
      "fears": 8111,
      "contributed": 8112,
      "traits": 8113,
      "sauce": 8114,
      "##asting": 8115,
      "kinda": 8116,
      "##sm": 8117,
      "computing": 8118,
      "negoti": 8119,
      "##pill": 8120,
      "##orted": 8121,
      "acknowledging": 8122,
      "depression": 8123,
      "##ustral": 8124,
      "cups": 8125,
      "japanese": 8126,
      "aband": 8127,
      "leap": 8128,
      "hier": 8129,
      "mini": 8130,
      "attached": 8131,
      "spider": 8132,
      "austral": 8133,
      "hurried": 8134,
      "demonstrating": 8135,
      "necessity": 8136,
      "##alous": 8137,
      "survival": 8138,
      "sisters": 8139,
      "prices": 8140,
      "imagined": 8141,
      "variations": 8142,
      "dimensions": 8143,
      "##ird": 8144,
      "chairs": 8145,
      "emerge": 8146,
      "worn": 8147,
      "volume": 8148,
      "unable": 8149,
      "holes": 8150,
      "pushed": 8151,
      "tis": 8152,
      "##nings": 8153,
      "holl": 8154,
      "participation": 8155,
      "discl": 8156,
      "regul": 8157,
      "transformed": 8158,
      "ot": 8159,
      "collecting": 8160,
      "puppet": 8161,
      "seized": 8162,
      "treating": 8163,
      "shouted": 8164,
      "eleg": 8165,
      "##umber": 8166,
      "amounts": 8167,
      "expanding": 8168,
      "appe": 8169,
      "##ca": 8170,
      "kings": 8171,
      "curtain": 8172,
      "influential": 8173,
      "cock": 8174,
      "implementation": 8175,
      "chances": 8176,
      "harsh": 8177,
      "delving": 8178,
      "nay": 8179,
      "kar": 8180,
      "dism": 8181,
      "score": 8182,
      "statement": 8183,
      "marks": 8184,
      "butterfly": 8185,
      "substantial": 8186,
      "contains": 8187,
      "possessed": 8188,
      "ros": 8189,
      "13": 8190,
      "previously": 8191,
      "bible": 8192,
      "##kind": 8193,
      "spots": 8194,
      "##bor": 8195,
      "caterpill": 8196,
      "##erie": 8197,
      "notion": 8198,
      "enemies": 8199,
      "deepen": 8200,
      "##onomy": 8201,
      "glory": 8202,
      "steady": 8203,
      "shining": 8204,
      "suffered": 8205,
      "italy": 8206,
      "rigorous": 8207,
      "sizes": 8208,
      "carbon": 8209,
      "##rees": 8210,
      "attending": 8211,
      "dinosaur": 8212,
      "##eta": 8213,
      "hoped": 8214,
      "treasures": 8215,
      "echo": 8216,
      "personality": 8217,
      "stom": 8218,
      "##usions": 8219,
      "eliz": 8220,
      "criticism": 8221,
      "arranged": 8222,
      "##omb": 8223,
      "contempl": 8224,
      "inhabitants": 8225,
      "dying": 8226,
      "stunning": 8227,
      "knocked": 8228,
      "load": 8229,
      "injury": 8230,
      "trem": 8231,
      "expressing": 8232,
      "visible": 8233,
      "lifesty": 8234,
      "##hin": 8235,
      "arrival": 8236,
      "##ereign": 8237,
      "instinct": 8238,
      "commonly": 8239,
      "influenced": 8240,
      "sovereign": 8241,
      "aspiring": 8242,
      "tied": 8243,
      "mamm": 8244,
      "suggests": 8245,
      "##itely": 8246,
      "dignity": 8247,
      "pointing": 8248,
      "charming": 8249,
      "socio": 8250,
      "saus": 8251,
      "encountered": 8252,
      "##uted": 8253,
      "##azz": 8254,
      "alternatives": 8255,
      "11": 8256,
      "intim": 8257,
      "##ecess": 8258,
      "##itors": 8259,
      "##ares": 8260,
      "gloom": 8261,
      "thoughtful": 8262,
      "tackle": 8263,
      "##utional": 8264,
      "comment": 8265,
      "phenomen": 8266,
      "worksh": 8267,
      "cosm": 8268,
      "categories": 8269,
      "hay": 8270,
      "extended": 8271,
      "pepper": 8272,
      "technical": 8273,
      "balanced": 8274,
      "##ience": 8275,
      "stem": 8276,
      "execution": 8277,
      "tempt": 8278,
      "romance": 8279,
      "format": 8280,
      "trigg": 8281,
      "preservation": 8282,
      "mistakes": 8283,
      "yard": 8284,
      "##ptions": 8285,
      "behold": 8286,
      "##gers": 8287,
      "steven": 8288,
      "cryst": 8289,
      "officers": 8290,
      "flexibility": 8291,
      "na": 8292,
      "healthier": 8293,
      "demanded": 8294,
      "blanket": 8295,
      "##makers": 8296,
      "provin": 8297,
      "performances": 8298,
      "cooked": 8299,
      "consumers": 8300,
      "entities": 8301,
      "bore": 8302,
      "removed": 8303,
      "equity": 8304,
      "definition": 8305,
      "observation": 8306,
      "piv": 8307,
      "##uals": 8308,
      "peers": 8309,
      "intricacies": 8310,
      "##eries": 8311,
      "toler": 8312,
      "harv": 8313,
      "##pe": 8314,
      "upset": 8315,
      "tractor": 8316,
      "asia": 8317,
      "cler": 8318,
      "massive": 8319,
      "fare": 8320,
      "wipe": 8321,
      "owner": 8322,
      "precise": 8323,
      "pean": 8324,
      "enchant": 8325,
      "##anna": 8326,
      "##udd": 8327,
      "fourth": 8328,
      "##eling": 8329,
      "electricity": 8330,
      "contro": 8331,
      "skilled": 8332,
      "musicians": 8333,
      "obey": 8334,
      "##ographic": 8335,
      "portion": 8336,
      "abstract": 8337,
      "inquir": 8338,
      "handsome": 8339,
      "revealed": 8340,
      "niche": 8341,
      "baking": 8342,
      "voy": 8343,
      "jobs": 8344,
      "squee": 8345,
      "wire": 8346,
      "##mond": 8347,
      "gift": 8348,
      "weigh": 8349,
      "preced": 8350,
      "towel": 8351,
      "##uts": 8352,
      "russian": 8353,
      "afterward": 8354,
      "firstly": 8355,
      "pir": 8356,
      "frustr": 8357,
      "mister": 8358,
      "telephone": 8359,
      "ram": 8360,
      "##abeth": 8361,
      "objective": 8362,
      "rag": 8363,
      "tensions": 8364,
      "versat": 8365,
      "mixture": 8366,
      "linked": 8367,
      "begun": 8368,
      "##gi": 8369,
      "bibl": 8370,
      "dining": 8371,
      "infer": 8372,
      "restaur": 8373,
      "vic": 8374,
      "##pa": 8375,
      "confident": 8376,
      "fro": 8377,
      "buying": 8378,
      "eaten": 8379,
      "controvers": 8380,
      "worst": 8381,
      "highest": 8382,
      "stomach": 8383,
      "pivot": 8384,
      "encounters": 8385,
      "adaptation": 8386,
      "fel": 8387,
      "partnerships": 8388,
      "kay": 8389,
      "##rav": 8390,
      "pear": 8391,
      "mia": 8392,
      "##aham": 8393,
      "traveling": 8394,
      "brains": 8395,
      "##ointment": 8396,
      "##isely": 8397,
      "##ophone": 8398,
      "whispers": 8399,
      "supplies": 8400,
      "dipl": 8401,
      "indians": 8402,
      "gardens": 8403,
      "victor": 8404,
      "##lim": 8405,
      "violent": 8406,
      "beast": 8407,
      "priest": 8408,
      "transition": 8409,
      "avoiding": 8410,
      "achievements": 8411,
      "accompanied": 8412,
      "failure": 8413,
      "triang": 8414,
      "channels": 8415,
      "##anges": 8416,
      "radio": 8417,
      "##erate": 8418,
      "clinical": 8419,
      "factor": 8420,
      "esteem": 8421,
      "revel": 8422,
      "beans": 8423,
      "christians": 8424,
      "introducing": 8425,
      "saturday": 8426,
      "television": 8427,
      "profit": 8428,
      "passionate": 8429,
      "designers": 8430,
      "advocate": 8431,
      "spat": 8432,
      "roads": 8433,
      "trusted": 8434,
      "concerned": 8435,
      "undert": 8436,
      "cooperation": 8437,
      "##lib": 8438,
      "click": 8439,
      "##att": 8440,
      "##atherine": 8441,
      "odd": 8442,
      "##hib": 8443,
      "adopting": 8444,
      "pounds": 8445,
      "affair": 8446,
      "russia": 8447,
      "encouraged": 8448,
      "consistency": 8449,
      "bags": 8450,
      "ivan": 8451,
      "30": 8452,
      "reconc": 8453,
      "stores": 8454,
      "deliber": 8455,
      "chew": 8456,
      "##opes": 8457,
      "variety": 8458,
      "vit": 8459,
      "##lines": 8460,
      "merry": 8461,
      "jur": 8462,
      "les": 8463,
      "illustration": 8464,
      "##atural": 8465,
      "prol": 8466,
      "emphasize": 8467,
      "exhaust": 8468,
      "tin": 8469,
      "expenses": 8470,
      "divide": 8471,
      "fitness": 8472,
      "article": 8473,
      "shares": 8474,
      "nearer": 8475,
      "stayed": 8476,
      "participating": 8477,
      "##ady": 8478,
      "forests": 8479,
      "##berries": 8480,
      "doctr": 8481,
      "thirst": 8482,
      "emphasis": 8483,
      "scot": 8484,
      "ethnic": 8485,
      "lighting": 8486,
      "protest": 8487,
      "pursuing": 8488,
      "targeted": 8489,
      "oo": 8490,
      "##donal": 8491,
      "arrangements": 8492,
      "athletes": 8493,
      "regulation": 8494,
      "giraff": 8495,
      "##father": 8496,
      "courts": 8497,
      "journeys": 8498,
      "esc": 8499,
      "reinfor": 8500,
      "wedding": 8501,
      "ray": 8502,
      "reliable": 8503,
      "yum": 8504,
      "advocating": 8505,
      "doggie": 8506,
      "##apeut": 8507,
      "privile": 8508,
      "apparently": 8509,
      "solar": 8510,
      "souls": 8511,
      "##ician": 8512,
      "##rec": 8513,
      "poison": 8514,
      "##cr": 8515,
      "##yy": 8516,
      "operating": 8517,
      "##riet": 8518,
      "emma": 8519,
      "postman": 8520,
      "demonstrates": 8521,
      "defend": 8522,
      "popularity": 8523,
      "revealing": 8524,
      "bacter": 8525,
      "temperatures": 8526,
      "disappeared": 8527,
      "buttons": 8528,
      "diplom": 8529,
      "dough": 8530,
      "exceed": 8531,
      "observations": 8532,
      "tire": 8533,
      "inequality": 8534,
      "email": 8535,
      "victory": 8536,
      "santa": 8537,
      "##breaking": 8538,
      "repair": 8539,
      "breaks": 8540,
      "francis": 8541,
      "reputation": 8542,
      "cough": 8543,
      "stable": 8544,
      "pac": 8545,
      "routine": 8546,
      "bench": 8547,
      "robert": 8548,
      "selected": 8549,
      "receiving": 8550,
      "disparities": 8551,
      "safer": 8552,
      "evident": 8553,
      "delay": 8554,
      "interpretations": 8555,
      "authorities": 8556,
      "producing": 8557,
      "genres": 8558,
      "splendid": 8559,
      "perseverance": 8560,
      "circles": 8561,
      "hopes": 8562,
      "##plotlib": 8563,
      "august": 8564,
      "whale": 8565,
      "betray": 8566,
      "##anes": 8567,
      "soap": 8568,
      "matplotlib": 8569,
      "refused": 8570,
      "photos": 8571,
      "surve": 8572,
      "tries": 8573,
      "investigate": 8574,
      "prejud": 8575,
      "accessibility": 8576,
      "occurs": 8577,
      "icec": 8578,
      "fence": 8579,
      "actors": 8580,
      "ach": 8581,
      "rope": 8582,
      "ske": 8583,
      "barn": 8584,
      "##rie": 8585,
      "##ione": 8586,
      "##abel": 8587,
      "dull": 8588,
      "uncons": 8589,
      "socks": 8590,
      "banks": 8591,
      "##achel": 8592,
      "leveraging": 8593,
      "trains": 8594,
      "passions": 8595,
      "dy": 8596,
      "reactions": 8597,
      "improvements": 8598,
      "precision": 8599,
      "sophistic": 8600,
      "##jection": 8601,
      "rolled": 8602,
      "outdo": 8603,
      "trained": 8604,
      "safeguard": 8605,
      "borders": 8606,
      "flesh": 8607,
      "announced": 8608,
      "##brid": 8609,
      "unfold": 8610,
      "sour": 8611,
      "harder": 8612,
      "cig": 8613,
      "academ": 8614,
      "responsibilities": 8615,
      "pressed": 8616,
      "exped": 8617,
      "bathroom": 8618,
      "reminded": 8619,
      "cert": 8620,
      "agency": 8621,
      "##ethe": 8622,
      "sang": 8623,
      "alas": 8624,
      "sew": 8625,
      "labour": 8626,
      "punishment": 8627,
      "##hol": 8628,
      "referred": 8629,
      "divided": 8630,
      "cott": 8631,
      "##with": 8632,
      "##eria": 8633,
      "jealous": 8634,
      "##ruption": 8635,
      "gifts": 8636,
      "gro": 8637,
      "rushed": 8638,
      "sheet": 8639,
      "iconic": 8640,
      "hm": 8641,
      "enterpr": 8642,
      "exhibit": 8643,
      "icecream": 8644,
      "explicit": 8645,
      "fishing": 8646,
      "absence": 8647,
      "buried": 8648,
      "crisis": 8649,
      "sally": 8650,
      "##ficial": 8651,
      "##oiselle": 8652,
      "employment": 8653,
      "ross": 8654,
      "daisy": 8655,
      "##ihood": 8656,
      "admitted": 8657,
      "advancing": 8658,
      "lucy": 8659,
      "publish": 8660,
      "crossed": 8661,
      "desires": 8662,
      "firmly": 8663,
      "mand": 8664,
      "mike": 8665,
      "swall": 8666,
      "rum": 8667,
      "maria": 8668,
      "scenario": 8669,
      "desper": 8670,
      "museum": 8671,
      "council": 8672,
      "##ilet": 8673,
      "protagon": 8674,
      "fits": 8675,
      "pooh": 8676,
      "principal": 8677,
      "cin": 8678,
      "rural": 8679,
      "tum": 8680,
      "handed": 8681,
      "sore": 8682,
      "absolute": 8683,
      "discipline": 8684,
      "##abet": 8685,
      "bos": 8686,
      "pulling": 8687,
      "##uten": 8688,
      "##arted": 8689,
      "edges": 8690,
      "competitive": 8691,
      "parameters": 8692,
      "socc": 8693,
      "prem": 8694,
      "injuries": 8695,
      "peaceful": 8696,
      "correctly": 8697,
      "aqu": 8698,
      "surfaces": 8699,
      "jun": 8700,
      "prevail": 8701,
      "magaz": 8702,
      "distract": 8703,
      "memorable": 8704,
      "liquid": 8705,
      "hierarch": 8706,
      "sections": 8707,
      "jigs": 8708,
      "peek": 8709,
      "resonate": 8710,
      "hipp": 8711,
      "toes": 8712,
      "trous": 8713,
      "regret": 8714,
      "turtle": 8715,
      "tables": 8716,
      "seed": 8717,
      "teen": 8718,
      "entering": 8719,
      "precisely": 8720,
      "occasionally": 8721,
      "doggy": 8722,
      "##agues": 8723,
      "dreadful": 8724,
      "soccer": 8725,
      "lamb": 8726,
      "centers": 8727,
      "powder": 8728,
      "##aine": 8729,
      "assumptions": 8730,
      "drum": 8731,
      "jen": 8732,
      "screw": 8733,
      "writer": 8734,
      "wolf": 8735,
      "##fare": 8736,
      "forgive": 8737,
      "theoretical": 8738,
      "bish": 8739,
      "rav": 8740,
      "sna": 8741,
      "conducted": 8742,
      "therapeut": 8743,
      "unhappy": 8744,
      "phenomenon": 8745,
      "##bury": 8746,
      "metaph": 8747,
      "ninet": 8748,
      "substances": 8749,
      "prisoner": 8750,
      "patr": 8751,
      "obsc": 8752,
      "yog": 8753,
      "pup": 8754,
      "drops": 8755,
      "distributed": 8756,
      "religions": 8757,
      "##elet": 8758,
      "##ups": 8759,
      "passeng": 8760,
      "impat": 8761,
      "ladder": 8762,
      "prevention": 8763,
      "slip": 8764,
      "distances": 8765,
      "devot": 8766,
      "slipp": 8767,
      "buzz": 8768,
      "absurd": 8769,
      "advert": 8770,
      "wing": 8771,
      "bearing": 8772,
      "robot": 8773,
      "sof": 8774,
      "mummie": 8775,
      "##emoiselle": 8776,
      "entrance": 8777,
      "muscle": 8778,
      "newly": 8779,
      "fairness": 8780,
      "squir": 8781,
      "candy": 8782,
      "unfor": 8783,
      "diamond": 8784,
      "temple": 8785,
      "constitutes": 8786,
      "mademoiselle": 8787,
      "widely": 8788,
      "wides": 8789,
      "instrument": 8790,
      "hasta": 8791,
      "reports": 8792,
      "touching": 8793,
      "sending": 8794,
      "influencing": 8795,
      "imperial": 8796,
      "synth": 8797,
      "mobile": 8798,
      "rank": 8799,
      "launch": 8800,
      "constraints": 8801,
      "fantasy": 8802,
      "tickle": 8803,
      "bubbles": 8804,
      "hed": 8805,
      "sed": 8806,
      "deck": 8807,
      "##pread": 8808,
      "##isp": 8809,
      "extent": 8810,
      "stern": 8811,
      "steel": 8812,
      "attempts": 8813,
      "classical": 8814,
      "degrees": 8815,
      "praise": 8816,
      "adapting": 8817,
      "films": 8818,
      "widespread": 8819,
      "##ica": 8820,
      "infin": 8821,
      "invited": 8822,
      "exem": 8823,
      "bush": 8824,
      "regarded": 8825,
      "reign": 8826,
      "investing": 8827,
      "laun": 8828,
      "madam": 8829,
      "portray": 8830,
      "pause": 8831,
      "grim": 8832,
      "adequate": 8833,
      "supports": 8834,
      "dum": 8835,
      "pivotal": 8836,
      "roo": 8837,
      "perception": 8838,
      "fert": 8839,
      "##osal": 8840,
      "##eld": 8841,
      "agents": 8842,
      "overlook": 8843,
      "locked": 8844,
      "talent": 8845,
      "shifting": 8846,
      "##urers": 8847,
      "accomplish": 8848,
      "uncertainty": 8849,
      "##iculous": 8850,
      "inquired": 8851,
      "foundational": 8852,
      "average": 8853,
      "##eps": 8854,
      "stiff": 8855,
      "promotes": 8856,
      "kissed": 8857,
      "gaze": 8858,
      "option": 8859,
      "transformative": 8860,
      "rivers": 8861,
      "wherein": 8862,
      "lucky": 8863,
      "fi": 8864,
      "resolved": 8865,
      "gaming": 8866,
      "masterp": 8867,
      "##word": 8868,
      "reflected": 8869,
      "applicable": 8870,
      "midst": 8871,
      "duties": 8872,
      "lemonade": 8873,
      "buddh": 8874,
      "expansion": 8875,
      "borrow": 8876,
      "##oir": 8877,
      "slept": 8878,
      "enthusiasts": 8879,
      "dilig": 8880,
      "trace": 8881,
      "legend": 8882,
      "racing": 8883,
      "warning": 8884,
      "sooner": 8885,
      "pipe": 8886,
      "airplane": 8887,
      "##uch": 8888,
      "collaborate": 8889,
      "##oration": 8890,
      "portra": 8891,
      "imit": 8892,
      "puppy": 8893,
      "gramm": 8894,
      "theatre": 8895,
      "##anted": 8896,
      "reference": 8897,
      "reduces": 8898,
      "##pson": 8899,
      "assured": 8900,
      "horrible": 8901,
      "gi": 8902,
      "bricks": 8903,
      "indul": 8904,
      "numer": 8905,
      "descript": 8906,
      "spell": 8907,
      "##oval": 8908,
      "transparency": 8909,
      "recept": 8910,
      "sighed": 8911,
      "##greg": 8912,
      "fisher": 8913,
      "lamp": 8914,
      "manners": 8915,
      "elizabeth": 8916,
      "catherine": 8917,
      "potatoes": 8918,
      "structural": 8919,
      "delivery": 8920,
      "warri": 8921,
      "organizing": 8922,
      "guest": 8923,
      "funds": 8924,
      "neighbour": 8925,
      "jar": 8926,
      "banana": 8927,
      "gig": 8928,
      "lest": 8929,
      "##umed": 8930,
      "cries": 8931,
      "poem": 8932,
      "enforce": 8933,
      "groundbreaking": 8934,
      "combines": 8935,
      "vs": 8936,
      "commission": 8937,
      "painted": 8938,
      "hunt": 8939,
      "##amin": 8940,
      "yyy": 8941,
      "imagery": 8942,
      "admit": 8943,
      "foolish": 8944,
      "brows": 8945,
      "useta": 8946,
      "border": 8947,
      "alter": 8948,
      "##mes": 8949,
      "candle": 8950,
      "enlight": 8951,
      "fewer": 8952,
      "weapons": 8953,
      "pose": 8954,
      "cheeks": 8955,
      "tactics": 8956,
      "guiding": 8957,
      "paused": 8958,
      "caterpillar": 8959,
      "spear": 8960,
      "arist": 8961,
      "adaptability": 8962,
      "##agu": 8963,
      "admiration": 8964,
      "nom": 8965,
      "rena": 8966,
      "sax": 8967,
      "filling": 8968,
      "awake": 8969,
      "minded": 8970,
      "relat": 8971,
      "sab": 8972,
      "##keep": 8973,
      "studied": 8974,
      "terr": 8975,
      "eco": 8976,
      "##rific": 8977,
      "pollution": 8978,
      "farming": 8979,
      "disciplines": 8980,
      "gear": 8981,
      "purse": 8982,
      "hyper": 8983,
      "##issions": 8984,
      "humble": 8985,
      "policymakers": 8986,
      "acknowledge": 8987,
      "openly": 8988,
      "scholar": 8989,
      "therapeutic": 8990,
      "poets": 8991,
      "##ya": 8992,
      "recipe": 8993,
      "marian": 8994,
      "anti": 8995,
      "celebrating": 8996,
      "migration": 8997,
      "clues": 8998,
      "controlled": 8999,
      "nutrition": 9000,
      "##fiction": 9001,
      "abroad": 9002,
      "glor": 9003,
      "slave": 9004,
      "classmates": 9005,
      "ancestors": 9006,
      "##bies": 9007,
      "crew": 9008,
      "shadows": 9009,
      "ellie": 9010,
      "misunder": 9011,
      "doth": 9012,
      "bic": 9013,
      "modeling": 9014,
      "videos": 9015,
      "##za": 9016,
      "tastes": 9017,
      "southern": 9018,
      "washed": 9019,
      "chaos": 9020,
      "rhythm": 9021,
      "trousers": 9022,
      "##celot": 9023,
      "coal": 9024,
      "islands": 9025,
      "exempl": 9026,
      "subs": 9027,
      "occupied": 9028,
      "potato": 9029,
      "multif": 9030,
      "abund": 9031,
      "miserable": 9032,
      "adopted": 9033,
      "shelter": 9034,
      "launcelot": 9035,
      "andy": 9036,
      "farther": 9037,
      "hypoth": 9038,
      "medie": 9039,
      "nurturing": 9040,
      "consistently": 9041,
      "lively": 9042,
      "##uously": 9043,
      "##points": 9044,
      "guided": 9045,
      "chuck": 9046,
      "irish": 9047,
      "citizen": 9048,
      "evaluating": 9049,
      "dataset": 9050,
      "medieval": 9051,
      "cave": 9052,
      "relate": 9053,
      "vessel": 9054,
      "succeeded": 9055,
      "bind": 9056,
      "biases": 9057,
      "jelly": 9058,
      "meg": 9059,
      "rog": 9060,
      "##hine": 9061,
      "ours": 9062,
      "blame": 9063,
      "mos": 9064,
      "##lands": 9065,
      "warmth": 9066,
      "##ona": 9067,
      "##agger": 9068,
      "edward": 9069,
      "##eff": 9070,
      "scattered": 9071,
      "grandfather": 9072,
      "##like": 9073,
      "towns": 9074,
      "venture": 9075,
      "senses": 9076,
      "philosophical": 9077,
      "fog": 9078,
      "asian": 9079,
      "dressing": 9080,
      "johns": 9081,
      "fict": 9082,
      "strangers": 9083,
      "disturb": 9084,
      "shaking": 9085,
      "relation": 9086,
      "adds": 9087,
      "shade": 9088,
      "maximum": 9089,
      "searching": 9090,
      "mond": 9091,
      "letting": 9092,
      "variable": 9093,
      "forehead": 9094,
      "stretched": 9095,
      "guil": 9096,
      "effectiveness": 9097,
      "instruction": 9098,
      "nana": 9099,
      "patch": 9100,
      "holistic": 9101,
      "fever": 9102,
      "polly": 9103,
      "turkey": 9104,
      "marine": 9105,
      "collected": 9106,
      "oliver": 9107,
      "dozen": 9108,
      "spreading": 9109,
      "visited": 9110,
      "reflects": 9111,
      "supported": 9112,
      "tommy": 9113,
      "plates": 9114,
      "debt": 9115,
      "theater": 9116,
      "##arity": 9117,
      "firstname": 9118,
      "stewards": 9119,
      "amuse": 9120,
      "ampl": 9121,
      "underne": 9122,
      "##case": 9123,
      "controlling": 9124,
      "warfare": 9125,
      "papa": 9126,
      "uncomfort": 9127,
      "pione": 9128,
      "puzzles": 9129,
      "deer": 9130,
      "phase": 9131,
      "supportive": 9132,
      "chin": 9133,
      "advocacy": 9134,
      "dada": 9135,
      "croc": 9136,
      "delighted": 9137,
      "hoping": 9138,
      "##pse": 9139,
      "thrust": 9140,
      "jewel": 9141,
      "iii": 9142,
      "shops": 9143,
      "civilizations": 9144,
      "underneath": 9145,
      "kore": 9146,
      "25": 9147,
      "mild": 9148,
      "nights": 9149,
      "integral": 9150,
      "##anged": 9151,
      "supern": 9152,
      "winning": 9153,
      "vehicle": 9154,
      "pillow": 9155,
      "sensit": 9156,
      "contained": 9157,
      "slavery": 9158,
      "pursuit": 9159,
      "somehow": 9160,
      "cozy": 9161,
      "consumer": 9162,
      "50": 9163,
      "debate": 9164,
      "pian": 9165,
      "hadta": 9166,
      "decades": 9167,
      "unnecess": 9168,
      "nonfiction": 9169,
      "minimal": 9170,
      "mindful": 9171,
      "fireman": 9172,
      "incident": 9173,
      "faithful": 9174,
      "index": 9175,
      "lara": 9176,
      "climbing": 9177,
      "mour": 9178,
      "vert": 9179,
      "defense": 9180,
      "##ressed": 9181,
      "##rete": 9182,
      "##apers": 9183,
      "frequency": 9184,
      "placing": 9185,
      "slee": 9186,
      "geographical": 9187,
      "protein": 9188,
      "weary": 9189,
      "respective": 9190,
      "strip": 9191,
      "couch": 9192,
      "##athan": 9193,
      "confused": 9194,
      "links": 9195,
      "##standing": 9196,
      "##gly": 9197,
      "prayers": 9198,
      "islamic": 9199,
      "alph": 9200,
      "codes": 9201,
      "escaped": 9202,
      "elim": 9203,
      "baron": 9204,
      "guar": 9205,
      "territories": 9206,
      "poorly": 9207,
      "volunteers": 9208,
      "measuring": 9209,
      "peer": 9210,
      "copies": 9211,
      "organic": 9212,
      "approaching": 9213,
      "coin": 9214,
      "priorit": 9215,
      "assembly": 9216,
      "nutrients": 9217,
      "talents": 9218,
      "district": 9219,
      "cav": 9220,
      "combination": 9221,
      "crayons": 9222,
      "##engu": 9223,
      "sophisticated": 9224,
      "tent": 9225,
      "tasty": 9226,
      "##backs": 9227,
      "supre": 9228,
      "##usc": 9229,
      "##uk": 9230,
      "shell": 9231,
      "respectful": 9232,
      "##apes": 9233,
      "leaned": 9234,
      "gasp": 9235,
      "kat": 9236,
      "boats": 9237,
      "plato": 9238,
      "habitats": 9239,
      "cigar": 9240,
      "eve": 9241,
      "stamp": 9242,
      "sweethe": 9243,
      "campaigns": 9244,
      "electrical": 9245,
      "comparing": 9246,
      "relie": 9247,
      "disagre": 9248,
      "defe": 9249,
      "recol": 9250,
      "jigsaw": 9251,
      "capturing": 9252,
      "penny": 9253,
      "workshops": 9254,
      "invite": 9255,
      "latest": 9256,
      "cows": 9257,
      "lets": 9258,
      "obv": 9259,
      "surge": 9260,
      "convert": 9261,
      "strain": 9262,
      "sacrifice": 9263,
      "##ties": 9264,
      "unb": 9265,
      "respecting": 9266,
      "necessarily": 9267,
      "virgin": 9268,
      "troubles": 9269,
      "administration": 9270,
      "fid": 9271,
      "puss": 9272,
      "evaluation": 9273,
      "displaying": 9274,
      "rue": 9275,
      "refund": 9276,
      "entrepreneurs": 9277,
      "governor": 9278,
      "disputes": 9279,
      "showcase": 9280,
      "##ari": 9281,
      "##oven": 9282,
      "detection": 9283,
      "dominant": 9284,
      "ging": 9285,
      "##drop": 9286,
      "attain": 9287,
      "recollect": 9288,
      "motivation": 9289,
      "restrictions": 9290,
      "##urr": 9291,
      "##ola": 9292,
      "##rian": 9293,
      "interpre": 9294,
      "joining": 9295,
      "statements": 9296,
      "microphone": 9297,
      "invas": 9298,
      "orient": 9299,
      "destr": 9300,
      "quarrel": 9301,
      "destruction": 9302,
      "sits": 9303,
      "vector": 9304,
      "drama": 9305,
      "maya": 9306,
      "trist": 9307,
      "##ien": 9308,
      "uncon": 9309,
      "##pin": 9310,
      "##alk": 9311,
      "##ainted": 9312,
      "description": 9313,
      "visually": 9314,
      "blending": 9315,
      "sticks": 9316,
      "housing": 9317,
      "grateful": 9318,
      "retreat": 9319,
      "physically": 9320,
      "proteins": 9321,
      "pace": 9322,
      "##onents": 9323,
      "chips": 9324,
      "steph": 9325,
      "dismiss": 9326,
      "gab": 9327,
      "bloom": 9328,
      "attitude": 9329,
      "steep": 9330,
      "careers": 9331,
      "regulatory": 9332,
      "prime": 9333,
      "breathe": 9334,
      "guilty": 9335,
      "deals": 9336,
      "##gal": 9337,
      "##ila": 9338,
      "conscience": 9339,
      "wishes": 9340,
      "paramount": 9341,
      "uncomfortable": 9342,
      "cottage": 9343,
      "ashamed": 9344,
      "##dles": 9345,
      "employing": 9346,
      "tracking": 9347,
      "counterp": 9348,
      "performed": 9349,
      "picnic": 9350,
      "friendships": 9351,
      "annoy": 9352,
      "celebrated": 9353,
      "boost": 9354,
[...]
