[PAD]
[UNK]
[CLS]
[SEP]
[MASK]
!
"
#
$
%
&
'
(
)
*
+
,
-
.
/
0
1
2
3
4
5
6
7
8
9
:
;
<
=
>
?
@
[
\
]
^
_
`
a
b
c
d
e
f
g
h
i
j
k
l
m
n
o
p
q
r
s
t
u
v
w
x
y
z
{
|
}
~
¡
£
¥
¦
§
©
«
¬
®
¯
°
±
²
³
´
µ
·
¹
»
¼
½
¾
¿
×
ß
æ
ð
÷
ø
þ
đ
ħ
ı
ł
ŋ
œ
ſ
ɐ
ɑ
ɔ
ɘ
ə
ɛ
ɥ
ɩ
ɪ
ɾ
ʁ
ʃ
ʊ
ʌ
ʒ
ʻ
ʼ
ʾ
ʿ
ˇ
ˈ
ː
΄
α
β
γ
δ
ε
ζ
η
θ
ι
κ
λ
μ
ν
ξ
ο
π
ρ
ς
σ
τ
υ
φ
χ
ψ
ω
ϑ
ϕ
ϛ
ϵ
а
б
в
г
д
е
ж
з
и
к
л
м
н
о
п
р
с
т
у
ф
х
ц
ч
ш
щ
ъ
ы
ь
э
ю
я
і
ң
ա
ե
թ
կ
մ
ո
ւ
־
א
ב
ג
ד
ה
ו
ז
ח
ט
י
ך
כ
ל
ם
מ
ן
נ
ס
ע
צ
ק
ר
ש
ת
،
؟
ا
ب
ة
ت
ج
ح
خ
د
ذ
ر
ز
س
ش
ص
ض
ط
ظ
ع
غ
ف
ق
ك
ل
م
ن
ه
و
ى
ي
پ
چ
ک
گ
ی
अ
आ
उ
ए
क
ग
ञ
ण
त
थ
द
ध
न
प
ब
भ
म
य
र
ल
व
श
ष
स
ह
ा
ि
ी
ो
ौ
।
আ
ই
ও
ক
জ
ত
দ
ন
ব
ম
র
শ
া
ি
ে
ం
ద
ം
ഉ
ക
ങ
ട
ണ
ത
ധ
ന
പ
മ
യ
ര
ല
ള
വ
ശ
ഷ
സ
ഹ
ാ
ി
െ
േ
ൽ
ก
ข
ค
ง
จ
ด
ต
ถ
ท
ธ
น
บ
ป
ม
ย
ร
ล
ว
ห
อ
า
ำ
เ
แ
ใ
ไ
ກ
ງ
ຈ
ຍ
ດ
ຖ
ທ
ນ
ບ
ປ
ລ
ສ
ຫ
ອ
ະ
າ
ເ
ແ
ໃ
ໄ
ໝ
་
ང
ᄀ
ᄂ
ᄃ
ᄄ
ᄅ
ᄆ
ᄇ
ᄉ
ᄋ
ᄌ
ᄎ
ᄏ
ᄐ
ᄑ
ᄒ
ᅡ
ᅢ
ᅣ
ᅥ
ᅦ
ᅧ
ᅨ
ᅩ
ᅪ
ᅬ
ᅭ
ᅮ
ᅯ
ᅲ
ᅳ
ᅵ
ᆨ
ᆩ
ᆫ
ᆯ
ᆷ
ᆸ
ᆺ
ᆻ
ᆼ
ᇂ
ᏼ
ក
ខ
គ
ង
ច
ឆ
ជ
ញ
ដ
ត
ថ
ទ
ធ
ន
ប
ផ
ព
ម
យ
រ
ល
វ
ស
ហ
អ
ា
ើ
េ
ែ
ោ
ៅ
ះ
ៈ
ᵏ
ᵢ
ᵣ
᾽
‐
–
—
‘
’
“
”
†
•
…
′
″
‿
⁎
⁰
⁴
⁺
⁻
₀
₁
₂
₃
₄
₅
₊
₋
ₖ
ₙ
€
₹
⃣
ℕ
ℝ
℠
™
ℤ
ℵ
⅓
⅔
⅛
⅝
→
↔
↗
↪
↫
∂
∆
∇
∈
∑
−
∙
√
∝
∞
∧
∨
∩
∪
∫
∬
∮
≃
≈
≡
≤
≥
⊂
⊆
⊕
⊖
⊥
⊲
⌈
⌉
⌊
⌋
⏰
⏱
⏳
①
②
ⓘ
─
│
┘
├
┤
┬
┴
┼
╭
╮
╯
╰
▔
□
◇
◉
●
◦
☀
☑
☔
☕
☹
☺
♀
♂
♠
♣
♥
♦
♭
♯
⚔
⚖
⚙
⚠
⚡
⚽
✏
✨
❌
❓
❤
⟩
、
。
》
「
あ
い
う
お
か
き
く
け
こ
し
す
そ
た
ち
っ
て
と
な
に
の
は
へ
ま
め
ら
り
る
れ
を
ん
ア
ィ
イ
キ
ク
コ
サ
シ
ス
ッ
テ
ト
ハ
フ
ヘ
ホ
ラ
リ
ル
レ
ロ
ン
・
ー
ㄱ
ㅗ
ㅜ
ㅠ
ㅣ
一
上
下
不
个
中
为
么
之
了
予
什
今
他
以
们
会
估
住
体
何
作
你
保
修
候
像
公
关
兴
写
军
准
分
利
别
到
制
割
动
化
南
厅
参
収
叫
可
台
吗
君
告
和
哪
善
喜
器
国
土
在
地
報
墙
士
备
多
大
天
太
夫
头
女
她
好
妖
子
存
孟
学
學
定
审
家
对
將
尚
山
岁
巅
常
年
庖
府
弱
強
强
役
彼
很
得
德
心
性
怪
您
意
成
我
战
扰
投
挙
据
控
損
敬
数
文
斯
新
方
於
明
是
智
最
有
木
权
来
树
校
格
椒
業
標
機
欢
止
正
此
比
民
气
水
決
淮
火
灵
炖
点
為
然
爱
片
物
率
王
画
発
的
盆
石
確
礼
私
立
第
算
精
糖
終
継
続
纯
美
耳
肉
胜
能
自
至
花
草
菜
螔
行
表
親
証
認
語
識
议
记
许
该
谢
起
跟
跳
踪
身
这
退
選
部
都
醋
里
金
错
長
際
雄
需
非
预
飛
高
鱼
ꮝ
ꮞ
ꮣ
ꮥ
ꮧ
ꮯ
ꮳ
ﬁ
ﷺ
！
（
）
，
？
｣
𒁲
𝒜
𝒫
𝔹
🇨
🇭
🇮
🇯
🇸
🌈
🌉
🌊
🌍
🌐
🌞
🌠
🌪
🌱
🌳
🌶
🌸
🌽
🌿
🍅
🍇
🍈
🍉
🍎
🍔
🍕
🍦
🍬
🍲
🍳
🍽
🎃
🎈
🎉
🎨
🎩
🎬
🎶
🎼
🏆
🏛
🏠
🏭
🏽
🐟
🐨
🐱
🐶
🐷
👀
👉
👋
👨
👩
💃
💋
💖
💡
💤
💥
💪
💫
💰
💻
📈
📕
📖
📚
📲
🔍
🔎
🔐
🔒
🔥
🕰
🕵
🕺
🗣
😂
😉
😊
😋
😍
😎
😔
😲
😴
🙌
🙏
🚀
🚗
🛋
🤔
🤕
🤝
🤩
🤯
🤷
🤸
🥄
🥗
🥘
🦁
🦳
🦸
🧘
🧠
🧪
🪄
🪔
🫐
##o
##u
##r
##g
##e
##n
##d
##l
##i
##c
##s
##a
##h
##k
##z
##f
##t
##y
##b
##q
##w
##p
##テ
##ッ
##フ
##4
##m
##5
##6
##j
##2
##x
##v
##∧
##1
##3
##ر
##د
##ی
##م
##0
##α
##σ
##τ
##ο
##ς
##μ
##8
##ø
##ز
##→
##9
##7
##°
##ه
##λ
##ε
##₁
##ν
##θ
##ρ
##ω
##π
##ι
##υ
##ɛ
##о
##м
##ζ
##η
##œ
##ɩ
##↫
##ı
##æ
##₂
##♠
##™
##お
##そ
##ら
##く
##β
##ð
##п
##а
##с
##и
##б
##و
##ᅥ
##ᆫ
##ᄉ
##ᅢ
##ᆼ
##ᄂ
##ᅵ
##ᆷ
##ᄋ
##ᅳ
##φ
##т
##г
##н
##е
##ß
##त
##ा
##ʌ
##δ
##κ
##ξ
##र
##ि
##क
##ष
##ो
##®
##χ
##×
##²
##ю
##ψ
##р
##я
##ن
##ł
##ʿ
##י
##💻
##☕
##श
##व
##स
##サ
##イ
##ン
##の
##ϕ
##ь
##ו
##ᅡ
##ᆨ
##ᄀ
##ᅭ
##ᅦ
##γ
##▔
##₀
##ང
##ж
##л
##у
##д
##🌍
##🇸
##🇭
##ق
##ت
##ص
##ا
##в
##−
##ᆸ
##ᄌ
##∇
##ц
##ט
##ל
##♀
##∆
##ч
##к
##ы
##❤
##ض
##ع
##ん
##に
##ち
##は
##₃
##₄
##س
##گ
##ذ
##い
##ل
##х
##ר
##ק
##©
##´
##∈
##ℕ
##¹
##⁰
##♦
##🌿
##♯
##₅
##ш
##ᄃ
##জ
##ᄐ
##½
##ग
##य
##щ
##♣
##ᅬ
##ᄎ
##ᄅ
##ᅣ
##³
##া
##শ
##म
##ी
##💡
##ʾ
##¼
##ᅮ
##ᄒ
##き
##る
##з
##⁴
##ᄆ
##─
##┴
##╯
##🌐
##ᆯ
##ᅨ
##🌽
##🐟
##🍬
##ʁ
##ط
##េ
##ស
##ល
##ম
##な
##て
##し
##う
##🍽
##┼
##┤
##🍳
##ल
##भ
##ش
##∞
##✏
##♥
##א
##מ
##ת
##ᅩ
##⃣
##ℝ
##ϑ
##ŋ
##ᅯ
##ᅧ
##נ
##כ
##ה
##ꮳ
##ꮣ
##ꮯ
##ᏼ
##ꮞ
##ꮝ
##ꮧ
##ᵢ
##₊
##◉
##ม
##น
##ใ
##จ
##ว
##า
##บ
##ท
##ห
##ข
##อ
##ง
##ᄇ
##た
##こ
##と
##を
##ー
##ル
##𝔹
##り
##か
##ब
##ध
##न
##₋
##і
##ៈ
##ព
##ដ
##ែ
##វ
##ា
##ជ
##ក
##រ
##ោ
##ៅ
##シ
##ɑ
##ɪ
##ъ
##ᄑ
##ſ
##ハ
##ク
##ₖ
##ي
##خ
##ˈ
##ʒ
##っ
##す
##ב
##ן
##ɐ
##┘
##¾
##📚
##✨
##☺
##🥗
##ة
##♂
##👩
##🏽
##🦳
##ə
##ɔ
##ᵏ
##پ
##ى
##❌
##ː
##ج
##ʃ
##ϛ
##ʼ
##ˇ
##ᆻ
##দ
##ে
##れ
##ɾ
##द
##ト
##ʻ
##ד
##ע
##🍕
##ើ
##យ
##ង
##ច
##ធ
##ន
##ះ
##ត
##ផ
##អ
##គ
##ម
##ប
##ថ
##≈
##΄
##ര
##േ
##ാ
##ത
##സ
##ഹ
##ന
##മ
##ള
##¦
##ញ
##🚀
##🌱
##غ
##🎉
##đ
##あ
##ま
##ک
##ₙ
##ك
##🕺
##√
##ി
##ശ
##വ
##ം
##ই
##ব
##ন
##র
##ौ
##キ
##ィ
##ホ
##ф
##ɘ
##🍉
##🍇
##👀
##ʊ
##᾽
##ラ
##ไ
##ด
##ป
##ล
##ย
##ค
##ำ
##แ
##ถ
##ก
##ร
##💖
##⚠
##ি
##💃
##£
##ア
##レ
##ス
##ف
##ह
##ए
##प
##ب
##ח
##ם
##⅛
##þ
##ద
##ז
##ך
##ទ
##ហ
##ഷ
##യ
##ం
##ɥ
##≥
##ക
##э
##🤔
##പ
##🔐
##ロ
##⊆
##µ
##∙
##ᄏ
##ᅲ
##↗
##ങ
##リ
##🐱
##📲
##ᆩ
##🔥
##め
##💰
##ң
##ש
##☀
##🫐
##⁺
##צ
##ᆺ
##ᵣ
##ﬁ
##ত
##ক
##ട
##െ
##ല
##ണ
##ൽ
##ខ
##ظ
##💫
##ħ
##∂
##ա
##կ
##ո
##ւ
##թ
##⁻
##थ
##♭
##ե
##┬
##🧪
##🔍
##⚡
##ℤ
##ധ
##ס
##₹
##€
##⚖
##🎬
##ण
##ᅪ
##❓
##ञ
##ឆ
##╮
##ح
##ະ
##ສ
##ດ
##ອ
##ບ
##ນ
##ລ
##າ
##ແ
##ຫ
##ງ
##ປ
##ເ
##ທ
##ຍ
##ໄ
##ກ
##ໃ
##ຈ
##ໝ
##ຖ
##↔
##📕
##℠
##💪
##เ
##±
##ธ
##ต
##💋
##👨
##¯
##ᇂ
th
##er
##in
the
##nd
##at
##ou
##es
##on
##ing
##en
##or
##ed
and
##it
##an
to
##ar
##al
##is
in
of
##ic
you
##om
##re
##ion
##as
##el
wh
##le
##et
##ow
##ent
##ot
it
##il
##ut
##st
##ec
on
that
##ac
##ur
##ad
##id
##ve
##gh
##ly
##ay
he
st
##se
##ere
##ir
##ol
re
for
##im
be
sh
##ith
##ver
pr
with
##ter
##am
as
is
##ation
ha
al
##ce
an
##ess
##ul
##oo
##ch
##th
con
##ght
##ke
li
ch
we
##ld
do
ex
##ers
was
com
this
##ain
##ri
##ag
his
su
##em
what
##pp
or
at
##ab
they
##ies
##op
##ill
me
##ect
se
so
not
##ant
your
##ct
en
##us
##ig
fr
can
##ore
##ap
##ight
##all
##ould
##ell
ne
##est
##and
go
##ate
tr
##os
by
but
##um
have
there
##un
##if
are
her
##ity
##ome
##her
##iv
all
one
sp
##ust
she
##out
##ist
le
de
ab
##rou
##ive
pl
my
up
wor
##ard
int
had
##od
##ook
like
sa
##ous
kn
un
im
their
##oc
##ial
##our
no
##ions
##art
from
##pl
##ak
him
##ort
##ure
##ment
##qu
them
how
##ich
##ind
##ine
ad
when
us
man
##ong
##nder
these
who
##ood
out
##ast
##ep
##ical
##act
know
ar
about
some
##one
##ack
##og
##ance
##iz
##ie
##ud
##ake
##ge
dis
which
##ations
res
if
cl
will
br
comp
##reat
##ach
cont
##ame
now
##ink
into
gr
cr
##ence
##ov
##able
##au
look
##ip
str
##av
##ff
more
tim
am
don
##end
##ual
ev
let
##ide
our
did
ever
##ost
ac
##itt
fe
see
##ice
then
##pt
where
em
oth
under
were
##ose
##own
##ile
##ish
app
##ings
##ult
##ound
said
##ace
##ue
##age
would
##ely
##ans
##per
ag
##ci
car
over
get
any
##elf
imp
##rough
just
through
##ful
here
##ents
##ary
##uc
##fer
##ass
##ry
think
bet
tw
##ib
well
time
##ays
pe
qu
##ces
##ign
bo
bec
##ick
##oun
##ors
could
##ating
dr
##ear
##ite
rem
ind
##ang
##na
inc
##ious
col
per
##hing
hel
xx
put
##other
##orm
its
xxx
ro
pre
other
want
inter
##ning
##ber
thou
##ery
##ks
comm
co
oh
every
down
bl
part
##ove
##ities
##ens
##ated
such
##ittle
af
little
too
##oss
##ild
has
fl
rec
##ory
des
##ire
##ft
may
than
##omet
good
##ving
##aw
sc
got
back
while
expl
been
##round
##ause
rel
##ally
##ition
##ater
somet
##oth
cons
pro
ll
two
##fore
underst
##tain
off
##uct
play
##pr
help
##pect
##ath
##ict
##les
##urn
act
##ures
mar
po
##we
##ade
work
right
hand
##ree
come
understand
##form
fir
sm
##fe
very
acc
again
new
##ves
even
##uring
##old
##oll
##ons
after
inst
does
##aking
##ys
##ord
te
those
##ise
lear
dif
aw
peop
say
fri
might
##wn
before
##get
##ward
##ting
call
disc
##ail
people
##ific
ke
##vel
read
need
ins
first
make
##are
##self
going
world
##ech
##xt
##ount
inv
##igh
##ness
##ase
way
##ments
id
##air
friend
pers
##ather
ve
ph
##my
##lect
exam
bu
why
should
only
wr
day
take
ser
##olog
dec
add
##ro
##ked
##ics
reg
##iss
##led
##ily
happ
ob
differ
mu
##ates
gl
sy
##ah
##rib
##ple
great
many
another
##als
##ond
eng
##ower
life
##eng
long
gu
art
##ia
own
exper
spec
##anc
##ween
between
mom
made
##iver
##ty
eff
ear
stud
##ential
something
##ms
sim
upon
##day
because
##iqu
tell
##ved
##ress
op
##over
##ough
pres
bel
imag
find
##ever
##ian
att
##ied
##king
##atter
each
must
prov
##oy
##ave
##ular
much
commun
##int
val
##ouse
set
gen
within
##arm
es
adv
##ility
##ection
creat
sch
ass
tech
par
old
##ible
##ling
fun
sur
cour
mr
##ember
thought
##atch
el
sk
var
sign
##so
supp
##ub
tal
##ices
##gg
hist
during
hum
cre
##ues
del
##ences
feel
##ows
##its
both
techn
sl
##ject
##ying
cult
##ange
##ds
##ative
care
also
##hip
big
called
##cc
turn
things
gon
##ently
mod
char
##ne
ey
use
found
fin
being
##ural
##cept
pract
gonna
wan
trans
real
better
away
##erm
##alth
fam
incl
##ool
pol
##enc
high
around
toget
together
##owing
never
sec
remember
yes
##ock
min
book
dist
##gan
exc
understanding
jo
learn
##br
##akes
##ble
conc
cap
mean
met
##ider
##ern
experi
house
ref
shall
different
wanna
##red
keep
came
red
##ven
pass
##ody
bre
open
head
comple
end
##ature
count
##thing
##ives
chap
still
import
ed
##gin
bas
##ivid
##ten
seem
cur
start
went
using
year
##ph
most
sub
ye
child
##ize
##ement
cle
##ps
without
beh
form
chall
health
give
water
conf
##ead
bab
person
once
mon
##ters
vis
foll
home
power
##ism
##be
three
##velop
lead
##ines
med
prom
last
##ix
ok
##ng
num
chapter
imagine
##ene
##ories
okay
##ared
consider
##ric
##ribut
making
inf
sw
however
ret
##lic
##wards
explor
##ized
conn
develop
among
sol
various
##stem
##te
##ways
contin
##ner
##iting
prop
##yp
mind
gre
school
pot
includ
##uck
wom
##ists
proc
##ried
##ark
today
cor
det
individ
yet
individual
deep
step
gir
bus
##ional
##dy
young
##ened
##ited
##por
build
##ull
##ts
##uth
um
gener
kind
light
dat
didn
##ier
##ew
##augh
enc
doing
isn
##uss
##ages
##ically
##ra
##less
quest
others
mor
##read
##iness
##ope
##ually
place
spe
pur
love
system
##ands
sit
men
always
mum
##ars
##ety
night
partic
##ogr
rep
soc
ens
girl
wa
##str
ple
less
eyes
though
##erg
often
next
##sel
himself
##ants
yeah
course
##aph
##ertain
ide
ext
##ique
dad
friends
room
belie
##ished
##aring
##ets
##aut
challeng
mus
example
baby
equ
prot
main
face
show
eat
##ology
trad
ele
same
##ances
##til
##az
##ention
heart
invol
poss
loc
signific
##ered
fact
hold
prof
##ired
tre
opp
design
##ering
small
aff
##iel
##ational
fur
##itions
learning
prod
prin
process
interest
##ape
##up
story
wal
ma
miss
requ
create
ess
saw
##imes
inform
draw
##ately
thing
soci
having
against
hard
stand
dem
ident
##ots
effect
cond
human
fac
contr
wo
##ret
cent
hu
typ
##els
sound
repr
along
food
really
explore
##selves
def
##iec
complex
certain
sil
charac
##ross
connect
##ush
##aster
else
##ob
pat
discover
leg
##vers
##ital
law
resp
bro
near
##wor
towards
dep
##press
across
rest
sin
##ining
cause
##row
sou
exp
##pped
left
##den
far
##ained
boy
years
sci
##ww
pos
##ny
done
##ense
ter
move
pop
##ash
bit
##orts
war
funct
used
watch
matter
provid
env
took
lad
##izing
sing
sle
##oved
class
##man
sure
fell
sometimes
wind
name
##ined
mummy
##ively
ent
anim
crit
##aging
mem
nothing
beaut
sat
##sw
social
##ateg
##ll
##ert
enough
##earch
research
point
door
best
anal
bir
##fully
bed
hands
essential
##ortun
##ney
jour
hor
laugh
data
heard
##iew
est
piec
throughout
plan
##oney
grow
furth
##aps
unique
answ
history
##ains
list
##uction
##gr
doesn
wonder
run
unit
bar
section
impr
nec
god
due
daddy
##ream
top
##iron
diver
become
mot
asked
mag
##ution
##ples
##ivity
##wh
##ills
appro
##ination
environ
##ren
giv
ah
offer
looked
chr
nor
repres
vo
present
discuss
instead
strong
words
based
potential
sever
##usion
##ute
sn
exploring
express
grou
four
lar
organ
##ns
##ability
side
imm
##iter
##ights
##side
contribut
try
ord
sir
##ici
fut
fo
foc
##ether
##asc
##right
##ted
pret
serv
family
fall
mil
##ither
color
means
##ization
ge
##ili
focus
mother
##ilar
histor
succ
##ogn
change
##ank
lang
until
air
challenges
##ale
incre
support
##ger
perform
infl
dri
significant
king
makes
di
business
special
maybe
father
langu
pub
relations
round
##ources
##con
ste
known
stay
pain
iss
yourself
pict
##fta
##oon
##aces
prev
##hod
hafta
concept
important
tri
pap
##ols
anything
cook
few
occ
stories
soon
success
educ
looking
chang
return
several
comes
##itional
##eric
la
bring
similar
role
##elt
ill
future
##ote
che
self
intr
nat
begin
key
since
gover
##ins
eas
inn
##app
bene
##ength
follow
break
behind
quite
method
chi
cal
##irect
strateg
ball
##ason
##itch
av
##tle
result
body
##ior
mommy
auth
lay
seen
told
##ental
train
approach
reach
everyone
nature
moment
##par
##avor
dev
talk
appear
hal
##eth
fire
appre
opt
##lish
americ
past
##amp
goes
##bers
sleep
heav
gone
spir
##ield
er
hear
compan
##ats
##illed
someone
##ency
##tern
won
##land
children
individuals
happy
fost
experiences
looks
whether
mark
##iques
enter
##ingly
opportun
respect
maintain
##ued
box
##by
##acy
everything
##ries
##ron
rather
aspect
direct
money
##irc
modern
personal
common
##body
uh
table
christ
reflect
##omes
knew
address
students
mult
journey
land
collect
##ump
treat
nice
contem
##ised
cultural
appreci
##osed
emp
impact
ways
##agement
communic
particular
influ
began
object
share
##ledge
enj
unc
concl
hur
##itive
##ta
circ
relationship
##abor
seemed
themselves
wee
necess
##come
full
green
information
black
whole
##ames
ris
emot
woman
##ung
obs
times
including
##inating
techniques
hour
cut
desp
poor
##iful
##ening
govern
works
increas
##ides
fre
fair
liter
introd
##uce
ready
fasc
mater
grand
insp
bi
environment
white
represent
regard
dear
tem
case
##aus
tom
felt
word
access
polit
enjoy
##ev
phys
historical
##oph
##oud
##atives
##istic
encour
mer
shap
meet
character
morning
sun
rev
valu
coming
country
recogn
respons
bob
##ouch
repl
##line
##erv
teach
sho
ones
days
##ime
says
sym
five
swe
second
half
material
quick
public
##ograph
##arr
skills
dog
true
##ises
##iction
foot
women
ground
specific
comb
rich
rece
elect
pick
thr
mrs
##ilities
hon
##ister
valuable
leave
lim
##rought
lives
##ee
post
coll
knowledge
##ably
##ane
systems
##ife
mid
invest
lady
##anced
bal
wel
##ision
ori
beautiful
##ases
voice
##ton
earth
function
##eness
communities
taking
press
##ards
language
turned
master
##porary
experience
issues
profess
##ont
##aken
##inary
##most
doct
playing
dig
proper
ask
##uff
question
creating
adm
##nds
sent
bur
##ug
early
further
clear
living
choo
##ured
please
mov
practices
##fic
squ
hair
struct
favor
##orn
19
fig
music
##oub
##haps
nav
gave
##esh
cruc
##aught
harm
state
relig
mad
##ided
arr
perhaps
mess
fascinating
##mm
pati
thom
bey
paper
spirit
proble
instance
##ify
##ially
provide
20
ra
beyond
brought
live
thus
##to
cat
##ugg
allow
polic
sud
##ustom
given
##ological
community
questions
hope
tur
myself
hers
idea
getting
study
##irt
resources
helps
##airs
##ploy
blue
qual
##ext
##ived
super
comput
number
noise
crucial
##ids
speak
context
game
##fort
happened
##ury
##oke
sudden
conclusion
applic
development
contemporary
books
local
test
building
drink
animals
##io
sal
wait
##lying
##itting
short
practice
outside
perf
diverse
exist
level
##ones
society
working
har
project
patter
##aged
##amm
protect
dark
##iet
following
surround
almost
##egr
oper
##work
fa
arm
flo
innov
whom
inde
accord
##ract
mis
wanted
expect
##aim
##amed
##ready
gent
tools
cann
already
init
##sequ
traditional
##dle
inside
welcome
critical
##asure
##ams
strength
##ending
clos
fu
advent
soft
growth
later
##elling
pet
##ced
view
const
piece
ensure
determ
##oci
picture
div
touch
##yn
thinking
benef
##pping
##chie
close
ju
##ken
cop
##ole
enh
##bs
sens
##rew
bot
##ike
feet
##ibility
convers
aren
activ
##utes
strategies
affect
natural
ang
believe
hot
technology
origin
##arch
##ster
pay
thomas
##ony
din
ten
pretty
##ergy
employ
custom
##aling
estab
##ax
##outh
associ
line
suff
thir
behav
##ables
clean
##iding
navig
despite
opportunities
bad
whose
states
##ode
dive
emb
city
brother
herself
started
##bit
town
allows
##idence
exact
bear
sel
emerg
abs
leav
aim
##owers
py
trying
wood
stri
progr
trav
large
events
death
##aries
insights
win
##acing
alice
group
either
capt
##ancing
##atic
became
cover
jud
gard
gentle
caus
meaning
integr
space
dress
needs
feat
rob
text
clim
simple
prep
cross
learned
analy
##erc
ap
pu
##erous
##aining
horse
addition
age
taken
free
##urs
coun
mouth
perfect
##ept
wasn
transform
##fs
importance
safe
breat
lands
possible
stre
culture
wild
alone
cannot
lost
##unt
cool
##olution
##sy
net
perspect
##ising
energy
##lex
scient
##ios
##apt
tra
##ident
joh
eye
##ires
embr
##utions
##rop
farm
vi
narr
non
##light
trust
##enty
##plic
chair
elements
connections
lov
dom
fit
education
##use
unf
able
ant
situ
concern
incor
lo
attention
##inct
stick
gold
##zz
cost
##ules
warm
mat
interact
##ians
reason
science
factors
write
deeper
order
indeed
stood
dream
finally
stop
sea
saf
popular
cried
son
include
##ru
lot
communication
##ustr
##oles
diffic
cold
difficult
account
phil
aspects
fil
stat
methods
saying
necessary
##eless
online
product
intern
##ulation
desc
##ended
##unch
fish
eth
fast
##ude
thy
##ma
##iple
tree
patterns
filled
engine
arch
relationships
conv
##ails
feeling
replied
wall
##where
bound
constr
incorpor
neg
collabor
thous
favorite
##onstr
efforts
sugg
values
fing
suggest
improve
toys
arg
instr
cel
mach
six
summ
steps
sense
econ
##ciples
##uced
##ceed
prob
##me
thank
yell
##ips
aud
port
econom
passed
dead
led
##ison
regular
##ench
##ously
lik
glob
##edi
types
sor
##let
##aced
##iring
control
moreover
consequ
field
exactly
wish
shape
##aft
till
shared
esp
promot
guid
management
##www
american
pen
reading
broad
##ality
continue
peri
##cient
doctor
actually
##ivers
strugg
letter
fear
value
road
leading
powerful
forg
sweet
principles
lord
##ators
visit
##ina
vol
comfort
path
##opped
period
physical
haven
lived
sort
answered
##etic
##ulations
mine
##dom
sam
sust
surpr
chec
itself
particip
##sp
continued
materials
analys
##bo
floor
subject
hund
wife
##ged
thee
hundred
contribute
que
obser
plat
engaging
spr
achie
author
priv
aut
soul
conditions
hey
doub
gather
fix
##oring
##go
du
##ese
dyn
prim
##ley
suddenly
sharing
slow
visual
compet
alth
tast
term
talking
late
ancient
##iny
although
hat
takes
tit
##lement
overall
decided
ur
john
sty
birth
##oming
cloth
societ
huh
ul
purp
walk
agre
##ops
low
##umb
month
associated
##ouble
sounds
ir
##ges
cast
thoughts
whis
##ners
window
involves
##ored
roll
##iously
compon
##igen
couldn
above
smo
forward
##ef
activities
##athy
indust
jack
##res
interv
cho
blood
minute
##00
carry
careful
##imately
prog
dam
characters
##cious
yellow
eating
pyth
cup
dar
global
political
pieces
wrong
possess
arri
delve
##room
mist
##hood
eur
##rant
neigh
dang
pred
espec
party
event
additionally
##ocks
identity
rom
digital
##hm
progress
ann
##itation
breath
ensuring
pa
##ply
entire
truth
##ebr
une
##ption
##uit
##aint
bes
specif
regarding
held
##way
rights
python
curr
##anch
front
fellow
named
analyz
changes
members
dynam
guess
neighb
demonstr
##ror
therefore
type
faith
##ased
##iled
quiet
##itten
middle
sar
sad
especially
libr
accom
prevent
##yc
deb
novel
quickly
##izations
##ipp
##ilt
ideas
vari
groups
ult
et
consist
action
sett
boys
civ
##cape
ec
milk
##key
bow
writing
literature
analysis
drawing
scr
general
phot
quality
glass
delic
require
##ging
##ned
peace
shar
bag
pal
preser
amaz
fort
gain
mental
model
medic
fostering
##lict
least
terms
justice
feelings
interp
und
##isions
bat
forms
environmental
##urch
answer
dest
knows
serve
offers
tas
company
##ems
indigen
implement
18
excl
indigenous
performance
remain
effici
surrounding
push
distribut
particularly
##sych
altern
prefer
providing
##ground
travel
europe
listen
choose
##aily
fight
appreciate
exerc
secret
mic
except
multiple
loved
##ologies
lessons
garden
wouldn
according
church
record
easy
tar
fresh
concepts
government
sand
##isf
distinct
mhm
extra
##iced
doll
##itted
minutes
##ils
consum
song
worth
optim
tel
##ument
den
needed
##reh
hol
##enge
##ator
influence
norm
##une
relev
ther
##der
craft
ing
english
hurt
parts
##iment
##ium
examining
adapt
sustain
emph
lots
psych
##kn
plays
hours
cry
stuff
single
dinner
##ients
##ified
viol
##oint
anx
laws
ru
ran
##ucing
shaping
jump
wis
narratives
sitting
##for
gotta
##ites
allowing
daily
princ
wants
##ral
##ama
##enced
pray
longer
conflict
gar
minim
celebr
hung
court
cam
united
mill
cow
prec
expression
market
##hes
sister
buy
street
areas
ago
pig
mix
hast
hop
perspectives
##gu
##ager
eight
##illing
compreh
temper
##astic
resili
hy
activity
stra
simply
philos
safety
arms
emphas
introduction
##ky
ourselves
##ift
greater
toward
cultures
max
strange
disp
specifically
lesson
discovered
features
##ells
##ration
captain
catch
girls
growing
##oes
forth
tea
kiss
points
ban
problem
##care
belong
carefully
fiction
##odies
offic
benefits
##tered
##ief
joy
suppose
readers
rules
egg
track
##itable
virt
##antly
applications
establish
south
accept
examples
artists
whe
surf
maj
math
##iliar
nut
encoun
incred
numerous
select
maintaining
##ests
religious
##gar
plant
##ermore
twenty
satisf
concerns
platform
followed
scen
behavior
tail
becomes
furthermore
wear
places
engage
evening
hors
trees
acqu
added
##olly
##nding
funny
position
tow
waiting
written
##oof
colon
alright
famil
vers
ver
alex
je
remains
##ource
colors
beauty
daugh
##asures
spread
rap
fore
##works
services
##men
played
camp
avail
effective
symb
##ountain
##rel
accur
ut
financ
standing
levels
fine
positive
avo
intric
##acher
bud
##ann
##asp
##ulate
seeing
faced
dim
grad
bird
brown
hid
civil
##rect
conduct
purs
challenge
cand
healthcare
##just
connection
##itude
humans
leaders
##iling
week
fail
addressing
hus
finding
ho
feed
decision
doubt
significance
##ease
ble
save
##play
century
challenging
##ming
generations
page
bath
straight
hell
bri
tried
kept
team
traditions
cit
components
finished
##miss
fif
doc
sold
frequ
promoting
illustr
balance
rad
brid
giving
##ancy
immedi
media
copy
##ension
successful
nose
##ught
ice
processes
rose
##put
##iant
running
curios
calc
service
10
lab
pack
structures
##af
subst
hall
figure
##ille
river
##uments
evol
games
north
mass
ultimately
reve
identify
movement
ful
themes
exh
mur
unl
remind
returned
studies
forget
##ding
probably
ded
dial
##istance
gender
kids
seeking
##ements
happens
singing
bott
curiosity
darling
passion
mention
policy
vital
healthy
animal
broken
opin
##bed
rock
examine
##band
seven
sex
refer
divers
gets
title
sight
mel
log
##aff
magn
code
fat
clothes
##pected
search
repe
curious
vict
jew
##ival
financial
clock
higher
current
meant
##aves
usually
##sh
philosoph
audi
mut
##echan
sac
util
investig
##lished
plants
medical
christian
##used
##empt
similarly
emotions
##ensive
##rupt
families
##ched
card
bread
chick
thousand
rapid
amid
##oses
##ik
received
countries
ep
##hold
loss
leaving
training
##arily
lines
rain
adventure
keeping
##ler
vill
job
interesting
fem
heavy
threat
butter
gri
earl
significantly
none
legal
##eds
wash
risk
bright
describ
worry
##alu
ben
national
##action
knowing
##ented
provides
sarah
brain
afric
##urity
resilience
snow
##ervation
increased
separ
mechan
mo
##port
shoes
##ought
##ields
lie
delight
##oms
adop
promote
studying
incorporating
store
glad
check
involved
pictures
spoke
throw
evidence
husband
putting
helping
dut
deliver
effectively
##cap
pros
seems
purpose
##riage
boat
mountain
organizations
occas
citiz
circum
star
tear
scar
refers
responsible
##inal
businesses
tiny
##ifying
##ores
##icing
embracing
opened
force
dry
foster
advance
##izes
solutions
tru
daughter
profession
trouble
prince
letters
disapp
##co
machine
forgot
pull
van
problems
##ivating
smooth
walking
##ropri
##amb
##ees
appreciation
##ellig
requires
##agon
yours
familiar
informed
silly
sorry
mir
results
emotional
lower
##ification
flowers
chance
##ii
toy
setting
ingred
##ient
incredible
##going
empathy
created
shad
ath
frame
beliefs
##ball
germ
onto
##atory
attempt
da
univers
occur
thanks
french
##fast
puzz
advoc
cooking
computer
##aser
background
##ript
designed
strang
unex
vide
der
manner
pan
approaches
youth
park
actions
ought
##ana
trends
demand
spot
researchers
therap
bodies
achieve
##uous
##ipe
amazing
mal
##oop
juice
appropri
##anging
anyone
seek
hidden
##wise
race
dedic
wit
creative
tap
decisions
outc
decl
instit
theory
ow
area
vast
notice
moving
##ography
sky
famous
##uits
teacher
easily
##ware
birthday
schol
whisper
intellig
hun
##rit
reached
##ded
##aimed
happen
##gn
turning
sources
caught
##ingu
##osing
constit
guide
foundation
certainly
numbers
developing
target
heaven
##gy
fol
##areness
core
compared
neither
involve
pul
corner
##iration
awareness
exch
##epend
topics
adult
impress
smart
recent
spiritual
##bert
nod
remark
lat
evalu
advanced
ahead
library
parents
rab
spo
months
##ament
nearly
##iers
circumst
##osition
memory
societal
apart
smile
slight
fund
rh
conversation
##asing
guidel
aunt
##osp
weak
colle
##ipped
slowly
quar
native
##uries
advant
##itary
##entions
news
deal
sick
host
original
exploration
provided
friendly
outcomes
##itect
lift
length
interests
compl
##back
##ena
orange
architect
objects
board
tired
##gor
cou
climate
note
roles
navigate
truly
stress
image
ongoing
allowed
##orrow
send
walked
distance
fant
poet
##agr
diversity
ability
graph
finish
match
##ume
third
size
gently
unexpected
lies
innovative
vib
##iff
##ius
heat
drive
speaking
engagement
wisdom
##ring
indic
##mb
available
201
taste
hello
eager
hous
programs
solid
##pper
noticed
planning
pock
broader
dialog
##py
grew
watching
movements
encourage
uncle
beginning
grace
skin
becoming
changing
appeared
##emat
##isms
##ban
wondered
inj
assess
independ
interpret
breakfast
ya
##asts
dance
crow
america
sev
stream
thor
depart
weight
report
tax
construct
rub
intricate
##ibly
differences
ring
rout
myster
scientists
policies
lovely
creativity
##iance
ship
tall
ensures
offering
adjust
exciting
##esty
##book
silence
initi
command
landscape
manage
##agn
matters
office
queen
active
economic
inclus
holding
die
span
mary
loud
kitch
earlier
surface
risks
##encies
fraser
cream
##ilit
clever
moon
below
born
figures
helped
technologies
hi
dynamics
apple
##ixt
predict
relevant
attract
##rible
magic
measure
excited
treatment
##iles
##istics
bottom
choc
showed
##raid
enhance
effects
speech
international
excell
##mas
fill
teeth
shut
##ey
exec
##ibilities
increasingly
##wide
proceed
shout
cake
afraid
apply
pun
weather
england
rid
season
inspired
correct
whatever
leaves
creatures
built
fields
laughs
##uh
##cy
shop
opportunity
##hips
options
amount
expand
authors
##plications
tick
habit
chem
deeply
##ushing
plot
realized
finger
wide
##omp
laid
spaces
gas
listening
##ha
situations
paint
goals
##olate
effort
lu
remained
hungry
ride
broke
items
turns
somebody
asking
compass
writ
amidst
ingredients
plain
sports
shows
moments
discussions
edge
##iest
collaboration
veget
highlight
kitchen
sav
condition
##oving
aftern
##fl
##isc
major
platforms
##bre
schools
functions
mathemat
##und
##stairs
situation
equal
horses
##eal
coff
ted
##ades
##omm
grass
equip
iron
enth
stone
stopped
environments
pretend
inher
receive
required
carried
desire
display
german
mentioned
legs
worldwide
trade
madame
franc
closer
literary
silver
scientific
professional
laughing
monit
appl
complete
difference
medicine
circumstances
explained
##gorith
stage
algorith
##cer
involving
avoid
chicken
facilit
navigating
##aver
projects
cheese
transport
professionals
swim
detect
security
alike
models
surprise
labor
wise
amb
represents
meeting
property
freed
##he
pour
details
sustainable
everybody
##ek
fingers
citizens
mons
##lig
reality
afternoon
recover
od
recognize
cred
##icles
bell
##iety
truck
fle
brit
managing
##while
noises
defin
##know
gained
##mission
##usi
whenever
contain
##ocr
alternative
##rim
summer
speed
intri
##ches
tool
##ummy
disord
scene
production
serves
religion
susp
##ieur
lem
structure
wid
acknow
aimed
##cipl
tasks
extre
##omed
tour
discovery
gentleman
sharp
##itty
arrang
enthusi
minds
##izz
arrived
##asons
peter
suc
link
occup
hom
##ork
presence
pressure
instruct
established
hen
##son
pleasure
birds
stronger
style
cu
additional
guard
##itage
enab
acad
appropriate
hit
##asant
monsieur
private
inqu
join
lunch
claim
##imate
surv
deg
industry
products
entered
texts
mama
forces
mich
bun
lif
obtain
##emic
ethical
bank
##eral
west
fash
base
##ket
secure
counter
trick
devices
alongside
yester
delicious
enem
meanwhile
##icians
##val
nine
calm
innovation
ears
capable
initial
bul
##cing
closely
patient
fly
fool
thorough
forest
fal
moved
content
images
guidelines
practical
primary
##uing
prison
starting
profound
likely
consequences
burn
boundaries
##vey
cars
larger
##iors
install
eleph
neck
electron
heritage
##encing
species
christmas
roy
confidence
occasion
realm
patience
users
appearance
immediately
choices
yesterday
struck
##pan
languages
##abilities
considered
changed
nur
companies
measures
lion
##ott
promise
hosp
##enom
settings
##bb
uses
worked
wet
##bits
basic
produce
tig
##onom
foreign
fashion
spent
bye
exclaimed
helen
##oom
param
limited
##equ
thick
experiment
hole
series
placed
exercise
experienced
drew
##aming
island
honey
conscious
cases
##cend
storyt
tales
smaller
branch
##oted
##under
ital
wonderful
oce
duck
domin
artistic
frog
musc
pocket
quant
compassion
capital
bottle
range
##eter
firm
rise
charge
prepared
intel
##ette
opinion
##ensions
##aur
##ternal
rule
seat
chocolate
entertain
excit
pupp
happiness
shapes
coffee
explain
adding
beneath
lips
##rates
video
clar
revolution
russ
extraord
guidance
driving
voices
neighbor
ign
telling
vent
beat
brush
politics
improved
attack
raised
##iveness
mere
paris
military
sus
intelligence
nu
reduce
resol
analyze
protection
##fulness
geor
covered
collective
limit
intellect
excitement
fruit
caused
##illy
thri
ate
##ze
imposs
##board
remarkable
meaningful
solving
region
##acles
##arked
related
shif
plate
central
##kes
scholars
waste
paid
sexual
symbol
cray
via
prompt
unless
desired
emerging
networks
preserving
believed
battle
##enth
courage
luck
oil
rac
##onic
##ends
extract
##ses
extraordinary
pink
implications
depth
reducing
dialogue
##pty
teaching
final
nin
partners
existing
align
##een
vibrant
contact
fully
lean
magical
rein
creation
circle
motion
hes
opening
numpy
planet
connected
##ounds
review
frank
bridge
gaz
proud
enable
ol
blow
reveal
empower
liber
tears
##inist
analyzing
respond
transl
practicing
phenom
closed
typically
absol
weeks
jes
continues
autom
bill
dust
meat
evil
##time
honor
commit
myst
cy
rig
uns
exhib
##unk
perce
rat
##iving
attach
mac
winter
stret
smiled
##osure
agree
##amental
isl
gall
names
loo
lack
phone
micr
coat
##oh
discussing
witness
hide
wealth
##ulated
applying
##ville
cultiv
##being
wellbeing
understood
urban
stuck
nations
##ads
inters
persist
mas
tradition
rely
nurs
discussion
dav
obst
drop
agreement
freedom
storytelling
artist
entirely
depending
captivating
encounter
scenar
input
teddy
##rict
##urance
tone
operations
tomorrow
jwww
conver
representation
expert
recognizing
ast
network
arts
ell
##hab
besides
jam
rate
doors
cab
##irm
expected
conversations
bless
cutting
easier
categ
sugar
tong
abilities
consequently
anxiety
##elled
grab
impossible
older
former
suit
kitty
##onse
attend
##entional
eventually
hath
otherwise
equipment
##ett
chief
corn
conce
excess
patients
barri
maxim
died
parties
advancements
golden
drawn
royal
##akers
##icient
dishes
eld
##owed
dropped
encouraging
##iation
response
##bing
##ected
##antic
lond
interested
signs
police
discour
hang
served
benefit
dogg
france
spring
appar
message
student
ce
##acity
##urally
stir
rabbit
fright
##uel
band
direction
nobody
beside
crying
london
iv
prepare
##xic
club
evolution
pair
##orous
user
amy
cul
oblig
pin
busy
consult
assum
goal
fundamental
examination
thousands
spect
gun
##yr
inspire
##avors
laughed
skill
mart
reb
hardly
##ocked
##ael
##osy
bigger
noble
brave
serious
embark
observed
comfortable
resistance
##teen
##more
electric
dw
merely
concer
##others
reflection
##nal
prepar
##lessly
station
unto
veh
miles
likes
stead
married
print
faces
bowl
disease
scre
offered
focused
nation
earn
notable
##onal
honour
sect
imper
complet
enables
adventures
application
soil
agreed
houses
cher
boo
vision
struggle
holds
centuries
gate
existence
##ulating
asp
##capes
causing
emerged
lens
spl
eggs
##ae
alt
resource
grandma
wine
beg
meal
engaged
rates
enhancing
rand
assist
encourages
distribution
gree
lose
##ray
showc
tale
supporting
aid
charm
cells
fixed
syn
trib
##icism
feels
harmony
crack
walls
facing
taught
excellent
gives
wand
##lo
damage
##ishment
height
indian
enabling
cogn
dir
gh
square
##ested
##ushed
knight
technique
##que
requirements
##aded
grasp
##gen
fancy
hearing
thirty
watched
cater
issue
therapy
##die
cities
expectations
detail
##gment
plans
##ashed
##ule
controll
software
determination
somewhere
straw
european
dressed
terrible
moral
bord
array
powers
hero
princess
##wood
##isy
dish
societies
wrote
vac
wes
prior
sympt
##sing
thin
findings
neur
stars
village
resulting
discipl
laur
roots
authent
passing
##avour
##osen
handle
frequently
directly
##atively
ocean
bite
furn
##idents
wheel
tip
teachers
institutions
blocks
educational
costs
##ym
##ois
enr
interactions
responsibility
virtual
##ression
document
college
wed
##pet
monkey
kid
kindness
danger
flower
flat
designs
decide
tun
tot
##rom
perfectly
divine
puts
career
kill
recomm
considering
unfortun
basket
vir
silent
canad
sought
improving
##force
mort
source
exchange
inspiration
pec
copyright
players
posit
east
contract
succeed
vul
webs
cyc
regularly
##uf
hind
reasons
mutual
populations
sheep
##ustling
writers
optimal
lou
sets
processing
##ishing
tender
jap
technological
sen
##rif
conflicts
generally
block
##inate
twel
fed
waves
blank
##icle
emotion
dan
violence
embrace
cell
shot
afford
ii
chosen
##uli
behaviors
stands
alive
maid
twelve
painting
##vin
cheer
##ship
sess
camer
flu
grown
nic
engineering
poetry
usual
dedicated
##acies
accompl
staying
african
##iday
##aked
##ocking
humanity
sigh
styles
cart
windows
dread
storm
functional
japan
##wich
lights
##leep
communicate
spoon
mission
determined
dreams
upd
secre
collection
elephant
reduced
preferences
asleep
socrates
rapidly
##house
motiv
repeated
healing
tor
sides
bought
unw
presented
stranger
rene
concerning
cris
accordingly
deser
lying
messages
novels
increasing
perspective
official
fab
hasn
margin
countless
cere
shed
york
duty
excuse
philosophy
simult
medium
simultane
empty
timmy
cod
compar
seemingly
row
poll
##ales
mob
advice
sword
diss
tight
marriage
fer
##estic
castle
creature
washing
##otic
##idently
coach
honest
wat
vary
##icked
implementing
propert
developed
##dr
breaking
ham
##mit
program
##nic
brings
cous
juven
##ai
insight
dirty
increase
precious
evolving
##asy
luc
initiatives
##reg
norms
authentic
properties
myth
happening
intellectual
center
##inent
facts
identities
showing
falling
subjects
##mon
discrim
whispered
##actions
temperature
##inations
false
sequ
feature
sail
cloud
properly
atm
##head
shr
flow
regions
ordinary
percept
thereby
authority
tape
##rix
sell
fallen
accompan
mouse
purch
puzzle
agric
judge
##iam
adults
brief
reflecting
heads
formed
cham
err
sund
##resp
female
nap
prove
##arrow
reson
rough
movie
landscapes
sum
hill
##ums
sandwich
audiences
por
naught
divid
tend
worse
primarily
gradually
fortune
agricult
##othing
etc
##of
##iable
computers
fold
tv
##uces
leads
##ruct
complexity
fighting
liked
qualities
san
manip
##ipping
lin
clearly
sleeping
meals
shirt
negative
escape
layers
juvenile
define
marked
##ato
regional
michael
glance
200
threw
plus
ai
goodness
##inated
mood
needta
flying
tips
acknowled
regardless
audience
##eren
##igr
task
##agraph
territ
british
pand
homes
gods
habits
memories
confess
employed
china
paragraph
millions
cards
flour
robust
buck
grav
delicate
organization
managed
instant
population
button
dogs
tiger
199
constant
anna
wearing
##illa
possibilities
17
bon
##asm
crim
##cel
choice
coast
anymore
produced
hiding
everyday
absor
##elle
matrix
innoc
era
grant
affected
diagn
pressing
relax
ladies
dangerous
ain
prote
carl
angry
##ufact
##ching
previous
yield
david
consideration
chemical
rail
mit
explored
external
appeal
ash
suppl
symptoms
tower
poo
asse
drag
##kin
introduce
impacts
advers
causes
accurate
hyp
spoken
actual
characteristics
manufact
anc
##osph
##aving
expressions
lily
##bl
##bon
##name
standard
completely
weren
pride
web
##iments
diet
couple
wound
aside
tongue
dick
simultaneously
##iber
##aved
convey
clin
##respond
disappear
flex
pip
correspond
determine
barriers
##ula
crime
uncover
decor
destro
##eases
imagination
nan
connecting
hearts
inherent
suggested
recip
wished
##aign
regulations
henry
democr
debates
renew
trip
rever
##unning
ups
mc
tiss
spend
programm
george
##unte
strict
latter
ox
##chant
jesus
underlying
angel
western
##tering
aware
shaped
volunte
babies
heavily
dynamic
shel
talked
customs
hospital
bol
assign
proced
roman
pill
pale
assistance
cos
integrating
electronic
##anor
rul
permission
flor
starts
easter
blind
forced
dispar
contrast
adopt
##eted
focusing
bringing
unity
marry
grat
soldiers
listened
##arian
burst
musical
exposure
bunny
ancest
coo
double
secrets
brand
oppos
purple
##oves
governments
lastly
##ker
memor
afterwards
passage
##alized
##ox
##aper
goods
contributions
inhab
naughty
##ulous
ber
inclusive
james
slightly
beach
struggles
##aker
consistent
lever
tells
##icks
everywhere
guy
status
belief
performing
bonds
includes
friendship
twist
nearby
##cely
holy
crowd
member
kinds
trium
chann
foods
naturally
preserve
forgotten
gathered
##gypt
credit
##nected
satisfaction
unders
unlike
jim
ali
price
folk
mystery
fifty
vegetables
marvel
ende
ay
##ading
##mer
photograph
morrow
recognition
16
wow
##stand
spirits
notes
president
carrying
ca
date
##osystem
voc
ba
triumph
buildings
ven
##jo
fault
stake
cookie
exercises
egypt
stock
anxious
##udes
##inese
##water
shadow
hesit
returns
dor
explan
##icit
##ference
fantastic
##ounced
shook
##umbled
alle
incorporate
missing
swift
developments
relevance
##osc
giant
protecting
soph
greatest
##esth
complexities
obstacles
##isters
anne
keeps
bang
##bal
15
frag
manif
genu
capacity
academic
##aints
strategy
##lin
army
carriage
string
##apping
ecosystem
harness
distingu
location
transformation
standards
efficient
enrich
##do
mechanisms
advantage
chinese
mountains
creates
traum
rhy
pil
##eping
depend
##ka
construction
##rid
solve
driven
cultivate
suffer
tack
##repr
pizz
stairs
ger
servant
inner
##ino
adap
scenes
symbols
commitment
surprised
pleasant
000
remembered
pure
persons
illness
mount
affecting
salt
tailored
##bur
distur
contributing
graphic
efficiency
vig
roof
identifying
peculi
peculiar
faster
penc
swimming
##gl
horiz
accident
##olf
##etics
shoulder
observe
plenty
supply
transportation
dancing
architecture
troub
paul
dur
metal
brill
doctors
fate
surely
resist
sacred
shoulders
beloved
suspic
fee
streets
combining
potentially
##igration
neighborhood
dolly
scale
dinos
file
breast
advantages
preparing
poly
equally
designing
vess
anybody
machines
origins
quietly
jose
##otyp
script
uncertain
influences
supposed
##ibl
##osphere
pra
ment
grapp
separate
crown
presents
legacy
flavor
reform
##rial
fan
##icip
differently
difficulty
wave
learners
improvement
contexts
interview
minimize
##oned
sole
acts
positively
upstairs
severe
cas
##atures
serving
##mn
empire
waters
cognitive
reput
sake
complic
humor
enemy
##whel
mixed
##utely
shake
sings
laughter
intercon
distress
picked
vulner
inspiring
administ
##erable
shoot
bold
mysterious
##ara
##ague
instructions
random
counsel
##ss
income
discovering
beings
lemon
assemb
introduced
requiring
threats
seam
solution
##ls
lit
fellows
loves
awa
lor
rot
bitter
overwhel
##ucks
unkn
##attered
lid
comprehensive
ren
shown
diving
featuring
##nam
jewish
fruits
goo
depict
thread
bac
##isl
##ims
songs
thro
observ
suitable
sched
narrow
darkness
nest
adver
armed
sne
spark
algorithms
pow
valid
pleased
liqu
arise
conservation
promised
ideal
trail
artific
twice
huge
coord
##nel
swing
leadership
approached
normal
##sc
##ription
eleanor
facilitate
suns
transfer
##bt
reaching
caut
sov
applied
opposite
shame
anth
gray
signal
colonial
athlet
greek
##arks
useful
stones
delves
cousin
approx
layer
discrimination
meas
destroy
##aud
##omfort
younger
papers
##med
render
scared
practition
follows
corpor
records
goin
unh
india
undersc
ax
wake
customers
located
testing
motor
##ella
declared
astr
gentlemen
presently
utter
attribut
##nie
intrigu
preparation
fest
killed
instances
spite
appr
participate
suffering
pages
william
interconnected
pushing
##pre
monster
##col
flavors
##zen
queer
##holders
desert
gran
##how
cooper
##huh
##rain
reven
march
negot
pizza
depress
fuel
ic
spin
demonstrate
kingdom
ech
calling
wondering
initially
containing
pitch
clou
purdie
internal
prospect
forever
muse
immers
guys
##ford
symp
africa
thrilling
atmosphere
overl
rocks
##ointed
spanish
hate
resolution
campaign
map
carr
##ram
formation
shoe
##iverse
total
gest
knock
sem
weap
anywhere
drug
fred
workers
periods
gal
ta
bike
capture
rang
aug
##obe
feedback
execut
wheels
sustainability
pulled
concent
smoke
##ects
touched
rising
critically
unknown
highly
choosing
legisl
remove
##ompass
lic
libraries
aston
##berry
neverth
illum
greatly
encompass
reward
##neys
participants
nerv
##point
generate
##etch
louis
mole
proved
classes
safely
outl
##acle
smith
##enses
enjoying
recently
cookies
demands
degree
device
##uls
knife
islam
dun
##oe
sunny
ghost
diseases
smiling
element
supper
traff
lover
flag
##arts
pointed
argument
purposes
recall
intersection
heroes
##place
dollars
describe
specialized
football
alarm
culinary
nevertheless
##what
raise
##athers
genre
drinking
favour
sentence
screen
cha
intriguing
##zy
artificial
chee
ages
donations
extreme
tract
highlighting
jer
hurry
considerations
dare
##rast
##using
universe
dealing
integration
adher
stability
immediate
fulf
immense
quarter
cath
##inting
nodded
charl
uhhuh
##pers
worthy
riding
whereas
driver
efficiently
moves
##uses
ended
12
chain
sport
brothers
##0s
unt
joe
##night
willing
equality
rome
union
opinions
##ector
handling
rooms
harmful
batter
begg
farmer
camera
celebrate
cancer
##ias
monitoring
recognized
emily
judgment
datas
nich
somewhat
parent
##acement
centered
##ardon
psychological
##iture
mitig
wond
neat
selecting
subsequ
overcome
joseph
reply
liv
sixt
somed
##eph
committed
shouldn
##view
bedroom
companion
practitioners
##och
smell
generation
unus
lege
##awn
sunday
tang
classic
sple
billy
output
domain
calls
clients
palace
affairs
kick
thoroughly
##itudes
strategic
##well
tapest
distant
remaining
unfortunately
forty
sung
invent
waited
knees
someday
prayer
impl
shopping
proposed
lake
ton
mastering
expertise
##cent
argue
eh
multi
boots
lingu
pit
comprom
journal
restrict
fortun
jac
competition
tact
intended
household
simpl
aesth
electr
phr
transpar
male
jamie
##umn
settled
elev
comics
calculate
stor
unn
arth
conqu
##mod
##atoes
recon
player
lasting
mysteries
##uity
companions
##rous
##plot
contributes
sensitive
confron
limitations
answers
murm
worlds
settle
butt
university
directions
##ogen
focuses
tid
parall
bustling
adam
clothing
insurance
intervention
hob
balloon
mathematical
persu
compelling
##fall
orders
scenarios
dign
paying
teams
begins
mont
breathing
relief
pity
perse
warrant
pad
saved
splend
##ex
##orial
dece
##eration
joined
abuse
##ints
grave
engineers
##uge
bond
backgrounds
pover
scarcely
aver
jane
seeds
falls
anticip
privacy
dil
icon
visiting
terror
snake
tough
slide
interaction
clouds
##road
solely
disag
classroom
glasses
##coming
lod
saint
crayon
absolutely
programming
##oyal
chamber
##ructure
schem
affection
owners
discoveries
disorders
barb
treasure
ordered
poverty
creations
sorrow
difficulties
commerc
elder
bid
colorful
##lights
experts
##osis
educators
##ensity
satisfied
cuis
##iform
knee
teachings
pie
##nes
lawy
responses
anyway
hence
phenomena
mm
hamm
##ashing
grief
representing
ped
##elly
forming
americans
duke
softly
##gress
frameworks
accounts
perceived
minor
##iot
gif
infrast
##olic
emphasizing
cord
consciousness
views
##ancho
perpet
filler
raw
brilliant
##unct
inhabit
utilize
murder
charles
inequ
##da
leader
bones
fabric
occurred
christianity
fox
##etical
##ogether
##ission
##avery
altogether
smoothly
continuous
##owned
infrastructure
##hand
entr
crafting
label
##vi
discourse
vain
##ologists
##igs
linear
conventional
ga
walks
fosters
nurse
narrative
mighty
million
sessions
cruel
comprehension
bits
appears
rib
##ounce
characterized
independent
loyal
arguments
release
remarked
pool
shift
advances
##ifications
pic
##here
yummy
##ortion
nutr
substant
##field
stere
ling
##aled
interrupt
striking
rice
shore
mexic
##atically
partner
revol
picks
observing
##umes
convin
selection
weakness
professor
explo
cov
satur
tapestry
ease
mud
uniform
fairly
##enn
##oops
escap
error
markets
extrem
mistress
folks
stakeholders
commercial
##tles
plastic
worship
equipped
anger
woods
disorder
bout
14
peas
documents
genuine
evaluate
##life
##met
strive
##aws
pump
downstairs
latin
##esis
delightful
np
nutri
newsp
sufficient
##ycle
italian
theor
universal
dram
magnific
wings
hadn
accuracy
sorts
domestic
##oul
bee
component
complicated
compare
canada
remote
peoples
internet
alexand
movies
algorithm
parl
site
gathering
paths
enhanced
gle
ships
compos
blend
marginalized
abstr
formal
##ographical
scratch
owl
rhyth
##urning
superior
industries
assert
##gs
mindfulness
realize
customer
usage
instantly
hills
film
flew
flash
branches
interf
zoo
colonel
gay
fond
##istry
successfully
desk
colour
analyt
nurt
faint
##idity
##aks
accepted
##worth
psychology
trauma
wore
treatments
hotel
subtle
il
bears
enjoyed
innovations
##aust
summary
theat
consumption
##ifies
despair
isol
##ham
fier
sees
runs
hunting
ere
cultivating
richard
chim
consent
described
economy
##opping
pattern
exists
enduring
##off
helpful
grey
ner
endless
##gest
##kins
request
expressed
emper
inclusivity
nuanced
proof
leaf
##can
missed
duh
racial
rit
wooden
tremb
recovery
bent
tub
harmon
visitors
intrig
theories
unusual
apples
mainten
investigation
toast
farmers
##yl
clay
illustrate
freely
combined
stereotyp
lg
minimizing
opens
amongst
providers
surrounded
##inity
maintenance
sant
##acks
eleven
industrial
bay
##eem
aven
refuge
micro
##osta
geomet
raising
repeat
guests
ignor
recipes
considerable
servants
tut
aloud
actively
cats
entertainment
monitor
grate
soldier
##ache
rare
basics
##eman
devil
independence
##bles
reck
principle
lgbt
lon
pier
meditation
counc
sposta
combine
variables
shakes
arab
##iece
recommend
##uded
##eenth
chest
coc
##lers
proph
pencil
tension
benny
possibly
strike
earnest
storage
##opher
varying
lux
staff
mirror
evidently
##cl
molec
prosper
achieving
tissue
procedures
muscles
belonging
francs
##alt
repub
fifteen
root
reprod
decre
minister
budd
obliged
explanation
returning
holiday
necessit
organized
surg
##oons
sink
##ghter
adversity
dedication
awful
mail
tummy
##ero
prominent
superher
failed
whist
bubb
losing
confusion
wonders
##edy
bin
essence
oct
##bye
strengthen
highlights
signals
ly
conven
defining
interventions
climb
steam
constantly
bone
errors
budget
ink
liberty
##eters
craw
sales
utilizing
hook
##jud
teleph
soup
expans
surroundings
mistake
gasps
##mitted
descend
##box
##tha
topic
##usive
##quis
operation
resc
##crib
manifest
yo
##umble
capabilities
instruments
addressed
admir
tests
bump
innocent
virtue
lgbtq
##aid
strengths
rush
compliance
levin
accessible
wars
derived
assessment
traffic
##sters
##appy
##idential
confirm
paus
evolved
ranging
cuisine
tie
trial
demonstrated
substance
upper
alloc
reader
fairy
bor
drove
##ault
scream
lis
flight
carol
thunder
parad
articles
accommod
comic
jul
thrown
eagerly
combat
jan
##gie
approximately
boxes
federal
burning
tooth
##erge
balls
ebook
governance
##reprene
lock
##stone
entreprene
balancing
globe
intense
discussed
diam
cub
gor
chose
rooted
wret
##outs
harry
gratitude
##guard
witch
sunlight
marketing
persever
cot
lam
relative
switch
equitable
##fly
##found
inspect
##eding
mixt
##azy
estim
investment
##acious
resem
officer
arthur
ruth
##rael
criminal
horror
sacrif
lap
disrupt
eric
thinks
princip
nursery
collaborative
##chief
employees
##otes
intention
acting
websites
objectives
version
##raft
locations
represented
candid
colored
rolling
pardon
scul
##arn
bisc
frightened
photography
ends
cash
##erson
seated
sites
##lets
contrary
apr
knights
files
agriculture
integrity
haz
champ
ethics
claims
##ovitch
rele
childhood
stages
israel
stumbled
framework
aer
thrive
tort
selling
##ther
germany
moist
histories
jumped
enthusiasm
rode
plane
##mates
##uary
fought
included
hanging
experiencing
bull
clust
neighbors
newfound
texture
nervous
##ounting
sculpt
positions
stepped
establishing
republic
##apped
cabin
##isher
keys
subsequent
stup
airpl
jumping
horsie
explaining
reser
mathematics
##ald
composition
particles
neglect
telev
spending
loving
vel
##rate
defined
estate
haha
##umps
mumm
displ
overview
shifts
furniture
keen
ecosystems
bare
##agers
affects
dragon
##arsh
detective
romantic
struggling
solemn
oven
accurately
rejo
throwing
valley
##aly
laura
##oning
finds
interpretation
pron
clown
saving
forb
cad
##enance
representations
reaches
glim
mercy
stim
artwork
sons
##mother
governing
limits
chat
promising
emperor
treated
possession
vr
##urd
magnificent
cleaning
wildlife
impression
adequ
chronic
linguistic
vivid
haw
dere
spain
aims
##rics
##cience
excessive
lorry
pants
insist
attitudes
doin
genetic
neural
kindly
hundreds
##erb
eastern
rod
org
stereotypes
vehicles
throat
tonight
flood
lifted
wicked
published
loose
##itor
preventing
acquaint
silk
##gle
jean
comprehend
##bow
theme
scary
acceptance
fears
contributed
traits
sauce
##asting
kinda
##sm
computing
negoti
##pill
##orted
acknowledging
depression
##ustral
cups
japanese
aband
leap
hier
mini
attached
spider
austral
hurried
demonstrating
necessity
##alous
survival
sisters
prices
imagined
variations
dimensions
##ird
chairs
emerge
worn
volume
unable
holes
pushed
tis
##nings
holl
participation
discl
regul
transformed
ot
collecting
puppet
seized
treating
shouted
eleg
##umber
amounts
expanding
appe
##ca
kings
curtain
influential
cock
implementation
chances
harsh
delving
nay
kar
dism
score
statement
marks
butterfly
substantial
contains
possessed
ros
13
previously
bible
##kind
spots
##bor
caterpill
##erie
notion
enemies
deepen
##onomy
glory
steady
shining
suffered
italy
rigorous
sizes
carbon
##rees
attending
dinosaur
##eta
hoped
treasures
echo
personality
stom
##usions
eliz
criticism
arranged
##omb
contempl
inhabitants
dying
stunning
knocked
load
injury
trem
expressing
visible
lifesty
##hin
arrival
##ereign
instinct
commonly
influenced
sovereign
aspiring
tied
mamm
suggests
##itely
dignity
pointing
charming
socio
saus
encountered
##uted
##azz
alternatives
11
intim
##ecess
##itors
##ares
gloom
thoughtful
tackle
##utional
comment
phenomen
worksh
cosm
categories
hay
extended
pepper
technical
balanced
##ience
stem
execution
tempt
romance
format
trigg
preservation
mistakes
yard
##ptions
behold
##gers
steven
cryst
officers
flexibility
na
healthier
demanded
blanket
##makers
provin
performances
cooked
consumers
entities
bore
removed
equity
definition
observation
piv
##uals
peers
intricacies
##eries
toler
harv
##pe
upset
tractor
asia
cler
massive
fare
wipe
owner
precise
pean
enchant
##anna
##udd
fourth
##eling
electricity
contro
skilled
musicians
obey
##ographic
portion
abstract
inquir
handsome
revealed
niche
baking
voy
jobs
squee
wire
##mond
gift
weigh
preced
towel
##uts
russian
afterward
firstly
pir
frustr
mister
telephone
ram
##abeth
objective
rag
tensions
versat
mixture
linked
begun
##gi
bibl
dining
infer
restaur
vic
##pa
confident
fro
buying
eaten
controvers
worst
highest
stomach
pivot
encounters
adaptation
fel
partnerships
kay
##rav
pear
mia
##aham
traveling
brains
##ointment
##isely
##ophone
whispers
supplies
dipl
indians
gardens
victor
##lim
violent
beast
priest
transition
avoiding
achievements
accompanied
failure
triang
channels
##anges
radio
##erate
clinical
factor
esteem
revel
beans
christians
introducing
saturday
television
profit
passionate
designers
advocate
spat
roads
trusted
concerned
undert
cooperation
##lib
click
##att
##atherine
odd
##hib
adopting
pounds
affair
russia
encouraged
consistency
bags
ivan
30
reconc
stores
deliber
chew
##opes
variety
vit
##lines
merry
jur
les
illustration
##atural
prol
emphasize
exhaust
tin
expenses
divide
fitness
article
shares
nearer
stayed
participating
##ady
forests
##berries
doctr
thirst
emphasis
scot
ethnic
lighting
protest
pursuing
targeted
oo
##donal
arrangements
athletes
regulation
giraff
##father
courts
journeys
esc
reinfor
wedding
ray
reliable
yum
advocating
doggie
##apeut
privile
apparently
solar
souls
##ician
##rec
poison
##cr
##yy
operating
##riet
emma
postman
demonstrates
defend
popularity
revealing
bacter
temperatures
disappeared
buttons
diplom
dough
exceed
observations
tire
inequality
email
victory
santa
##breaking
repair
breaks
francis
reputation
cough
stable
pac
routine
bench
robert
selected
receiving
disparities
safer
evident
delay
interpretations
authorities
producing
genres
splendid
perseverance
circles
hopes
##plotlib
august
whale
betray
##anes
soap
matplotlib
refused
photos
surve
tries
investigate
prejud
accessibility
occurs
icec
fence
actors
ach
rope
ske
barn
##rie
##ione
##abel
dull
uncons
socks
banks
##achel
leveraging
trains
passions
dy
reactions
improvements
precision
sophistic
##jection
rolled
outdo
trained
safeguard
borders
flesh
announced
##brid
unfold
sour
harder
cig
academ
responsibilities
pressed
exped
bathroom
reminded
cert
agency
##ethe
sang
alas
sew
labour
punishment
##hol
referred
divided
cott
##with
##eria
jealous
##ruption
gifts
gro
rushed
sheet
iconic
hm
enterpr
exhibit
icecream
explicit
fishing
absence
buried
crisis
sally
##ficial
##oiselle
employment
ross
daisy
##ihood
admitted
advancing
lucy
publish
crossed
desires
firmly
mand
mike
swall
rum
maria
scenario
desper
museum
council
##ilet
protagon
fits
pooh
principal
cin
rural
tum
handed
sore
absolute
discipline
##abet
bos
pulling
##uten
##arted
edges
competitive
parameters
socc
prem
injuries
peaceful
correctly
aqu
surfaces
jun
prevail
magaz
distract
memorable
liquid
hierarch
sections
jigs
peek
resonate
hipp
toes
trous
regret
turtle
tables
seed
teen
entering
precisely
occasionally
doggy
##agues
dreadful
soccer
lamb
centers
powder
##aine
assumptions
drum
jen
screw
writer
wolf
##fare
forgive
theoretical
bish
rav
sna
conducted
therapeut
unhappy
phenomenon
##bury
metaph
ninet
substances
prisoner
patr
obsc
yog
pup
drops
distributed
religions
##elet
##ups
passeng
impat
ladder
prevention
slip
distances
devot
slipp
buzz
absurd
advert
wing
bearing
robot
sof
mummie
##emoiselle
entrance
muscle
newly
fairness
squir
candy
unfor
diamond
temple
constitutes
mademoiselle
widely
wides
instrument
hasta
reports
touching
sending
influencing
imperial
synth
mobile
rank
launch
constraints
fantasy
tickle
bubbles
hed
sed
deck
##pread
##isp
extent
stern
steel
attempts
classical
degrees
praise
adapting
films
widespread
##ica
infin
invited
exem
bush
regarded
reign
investing
laun
madam
portray
pause
grim
adequate
supports
dum
pivotal
roo
perception
fert
##osal
##eld
agents
overlook
locked
talent
shifting
##urers
accomplish
uncertainty
##iculous
inquired
foundational
average
##eps
stiff
promotes
kissed
gaze
option
transformative
rivers
wherein
lucky
fi
resolved
gaming
masterp
##word
reflected
applicable
midst
duties
lemonade
buddh
expansion
borrow
##oir
slept
enthusiasts
dilig
trace
legend
racing
warning
sooner
pipe
airplane
##uch
collaborate
##oration
portra
imit
puppy
gramm
theatre
##anted
reference
reduces
##pson
assured
horrible
gi
bricks
indul
numer
descript
spell
##oval
transparency
recept
sighed
##greg
fisher
lamp
manners
elizabeth
catherine
potatoes
structural
delivery
warri
organizing
guest
funds
neighbour
jar
banana
gig
lest
##umed
cries
poem
enforce
groundbreaking
combines
vs
commission
painted
hunt
##amin
yyy
imagery
admit
foolish
brows
useta
border
alter
##mes
candle
enlight
fewer
weapons
pose
cheeks
tactics
guiding
paused
caterpillar
spear
arist
adaptability
##agu
admiration
nom
rena
sax
filling
awake
minded
relat
sab
##keep
studied
terr
eco
##rific
pollution
farming
disciplines
gear
purse
hyper
##issions
humble
policymakers
acknowledge
openly
scholar
therapeutic
poets
##ya
recipe
marian
anti
celebrating
migration
clues
controlled
nutrition
##fiction
abroad
glor
slave
classmates
ancestors
##bies
crew
shadows
ellie
misunder
doth
bic
modeling
videos
##za
tastes
southern
washed
chaos
rhythm
trousers
##celot
coal
islands
exempl
subs
occupied
potato
multif
abund
miserable
adopted
shelter
launcelot
andy
farther
hypoth
medie
nurturing
consistently
lively
##uously
##points
guided
chuck
irish
citizen
evaluating
dataset
medieval
cave
relate
vessel
succeeded
bind
biases
jelly
meg
rog
##hine
ours
blame
mos
##lands
warmth
##ona
##agger
edward
##eff
scattered
grandfather
##like
towns
venture
senses
philosophical
fog
asian
dressing
johns
fict
strangers
disturb
shaking
relation
adds
shade
maximum
searching
mond
letting
variable
forehead
stretched
guil
effectiveness
instruction
nana
patch
holistic
fever
polly
turkey
marine
collected
oliver
dozen
spreading
visited
reflects
supported
tommy
plates
debt
theater
##arity
firstname
stewards
amuse
ampl
underne
##case
controlling
warfare
papa
uncomfort
pione
puzzles
deer
phase
supportive
chin
advocacy
dada
croc
delighted
hoping
##pse
thrust
jewel
iii
shops
civilizations
underneath
kore
25
mild
nights
integral
##anged
supern
winning
vehicle
pillow
sensit
contained
slavery
pursuit
somehow
cozy
consumer
50
debate
pian
hadta
decades
unnecess
nonfiction
minimal
mindful
fireman
incident
faithful
index
lara
climbing
mour
vert
defense
##ressed
##rete
##apers
frequency
placing
slee
geographical
protein
weary
respective
strip
couch
##athan
confused
links
##standing
##gly
prayers
islamic
alph
codes
escaped
elim
baron
guar
territories
poorly
volunteers
measuring
peer
copies
organic
approaching
coin
priorit
assembly
nutrients
talents
district
cav
combination
crayons
##engu
sophisticated
tent
tasty
##backs
supre
##usc
##uk
shell
respectful
##apes
leaned
gasp
kat
boats
plato
habitats
cigar
eve
stamp
sweethe
campaigns
electrical
comparing
relie
disagre
defe
recol
jigsaw
capturing
penny
workshops
invite
latest
cows
lets
obv
surge
convert
strain
sacrifice
##ties
unb
respecting
necessarily
virgin
troubles
administration
fid
puss
evaluation
displaying
rue
refund
entrepreneurs
governor
disputes
showcase
##ari
##oven
detection
dominant
ging
##drop
attain
recollect
motivation
restrictions
##urr
##ola
##rian
interpre
joining
statements
microphone
invas
orient
destr
quarrel
destruction
sits
vector
drama
maya
trist
##ien
uncon
##pin
##alk
##ainted
description
visually
blending
sticks
housing
grateful
retreat
physically
proteins
pace
##onents
chips
steph
dismiss
gab
bloom
attitude
steep
careers
regulatory
prime
breathe
guilty
deals
##gal
##ila
conscience
wishes
paramount
uncomfortable
cottage
ashamed
##dles
employing
tracking
counterp
performed
picnic
friendships
annoy
celebrated
boost
testament
wounded
vulnerable
lawyer
beth
##ensional
margar
sunshine
pengu
spare
beard
##gent
biblical
optimization
rival
organisms
civilization
##ala
herbs
johnson
##opl
buff
viewers
##mo
organiz
constitution
distinguish
squirrel
maps
##ovna
questioning
sweetheart
rewards
##brell
tan
##uctive
grandmother
##ustomed
showcasing
100
envelop
upside
##urt
parks
inclusion
juris
##oman
cotton
crash
equations
perceptions
##aches
glanced
umbrell
grows
mars
fluid
##bble
##grat
accountability
indign
##lor
crimes
mode
majesty
ty
##bie
toilet
react
fork
preval
sprang
salad
suspect
martin
##iciency
physics
shock
##plicity
cyber
##uate
consists
critics
hydr
reported
##ultural
ceased
ooh
lonely
realizing
ownership
##ga
friday
composed
organize
determining
fib
competing
proceeded
##olit
ward
lip
##ilation
fierce
coping
covering
ecological
exceptional
##amiliar
experiments
enhances
##storm
belongs
seas
drinks
ruin
brow
greet
stupid
##com
northern
##oust
oxy
clara
##net
wanting
counting
optimize
alien
shield
##etti
economics
##ucle
indif
blowing
probability
mush
murmured
lifestyle
gates
noisy
directed
taxes
doo
reinforce
hammer
##othy
##arking
deed
units
unnecessary
##stream
bride
unfamiliar
bishop
dried
blows
celest
deriv
recre
labels
##ections
pond
picking
sanct
nick
##tin
patri
emergency
tricks
##urer
handy
renewed
##zing
countenance
productivity
ric
preferred
relaxation
singular
surgery
mile
zero
##ras
##eline
struggled
battles
stroke
##working
moo
biological
rust
dot
client
immune
vigil
acquaintance
rect
##isible
exposed
corresponding
peanut
crocod
bod
dared
hug
planned
june
presentation
britain
##fish
brick
genius
thriving
lightly
department
##ece
##issance
redd
literacy
femin
newspaper
suspicion
stored
interrupted
lately
##omy
mixing
##eller
cycle
##pless
##gender
enjoyable
##agh
pee
painful
wil
##bling
##vas
202
##iliation
drift
spices
happier
thoughtfully
purchase
##icket
replace
carri
stretch
vine
quix
impressive
##tr
##ria
worried
curric
shower
jacob
stared
distribute
functionality
rings
charlie
agent
##olph
tempor
frequent
fans
smoking
acquired
tones
affirm
transforming
loft
intimate
creators
importantly
treats
orth
##anda
systemic
sample
belonged
persistent
rescue
##mark
pine
##org
##erce
slipped
bother
198
departed
sympathy
license
poems
##yard
disaster
ponder
##aceted
apps
sounded
indicate
multifaceted
likewise
aust
##oot
anch
marsh
explores
generated
poured
tribes
monday
supernatural
finance
mes
ample
delivered
relying
apparent
contempt
administr
##iology
developers
reasoning
giraffe
guarant
feast
residents
depends
heightened
##entine
cru
crops
appreciating
manufacturing
obtained
##erto
fictional
inviting
agreements
arrive
catching
mcdonal
modest
angle
emphasizes
comply
imposed
paintings
beer
transcend
feeding
enorm
##bled
fires
assets
devoted
embed
completed
agricultural
##ele
interactive
damages
##onomic
spatial
victim
##craft
loyalty
nucle
##ata
fees
oneself
personalized
nuances
thumb
stays
evolve
familiarize
torn
awww
oxygen
auntie
trembling
intrigued
cute
til
comr
##oys
thine
columb
checking
dawn
mah
pound
whir
degr
feared
partly
monarch
angels
##asters
checks
bridges
rituals
quantum
sequence
tank
timeless
regression
garage
disappointed
tristram
quixote
fled
presenting
conducting
perceive
vessels
mead
seeks
seconds
territory
cer
gaps
##wr
protoc
loop
##ago
##ivals
availability
meets
delivering
overwhelmed
holmes
vocab
fetch
##ictions
valued
slice
extend
bert
wip
elsewhere
beds
##agg
excitedly
rud
association
##ok
196
tunnel
##sey
pref
patty
20th
welf
accustomed
predictions
begged
whence
neut
reduction
waist
touches
chemicals
##inkle
grid
therm
agencies
meetings
cherished
washington
scott
radiation
anthrop
centre
promptly
##ini
alco
adoles
blessed
prize
protected
ken
merc
happily
morality
outer
establishment
extremely
lung
ark
foundations
##asty
luci
wretched
##unted
nuts
bunch
##icking
confidently
misf
website
gym
trif
packed
contents
examined
swear
possibility
whil
reass
operate
ming
burden
gardening
sixty
welfare
dirt
diction
authenticity
item
##burg
##bra
197
parallel
weights
woke
climbed
separated
voyage
dict
sque
isolation
bacteria
joint
frost
invisible
guides
refr
renowned
stack
sciss
magnet
rage
consequence
piggy
intelligent
perman
audio
bark
commerce
criteria
uhoh
oral
division
reasonable
architectural
umbrella
yards
rug
devotion
##rey
compens
seriously
merchant
##arse
##ucky
departure
masters
##gory
##keys
prohib
container
bees
##ugged
wool
##mp
wherever
crazy
watches
historically
protective
tourism
##idays
investors
bend
impair
gloves
aesthetics
orch
coloring
convinced
##arrass
matth
piano
phrase
altered
biology
winds
emergence
facilities
collections
policeman
gown
writings
ire
viewpoints
pile
##away
wrap
##ida
disabilities
warmly
brut
gap
##note
habitat
staring
pursued
corporate
bloss
numerical
judic
lect
groc
explorers
superhero
realism
adoption
remembering
gamb
ingen
overwhelming
carries
investments
samples
consol
##oqu
intensity
drunk
distinctive
democracy
misfortun
datab
floating
##istical
consp
lighted
crypt
sancho
identified
adorn
haste
migr
expense
embarrass
oops
som
ms
veter
##pled
flung
eats
hesitated
clerk
propag
dialogues
session
jake
iter
##onsky
robin
dimensional
appealing
##alities
fatig
##roid
joke
historic
dolls
liver
attacks
leaning
cattle
caring
snipp
pursue
calculated
##ipher
unlock
bottles
belly
sammy
simplicity
harvest
caution
##itals
sentences
visualize
nons
rational
dess
rent
clo
cheek
mothers
defect
##ux
##ulary
manipulation
retired
renaissance
thresh
crab
desir
belt
corners
followers
strongly
compassionate
bree
eternal
##irical
grounded
jacket
jeann
laying
cues
atl
##osion
accum
attent
##ieties
oak
grandd
caroline
pave
##uation
##iders
trucks
##nis
stitch
bew
##gence
uttered
prolong
beef
transactions
moisture
##rig
printed
prosperity
##aze
harnessing
rows
recommended
##no
brighter
matches
forbid
##itative
bowed
whilst
bars
stopping
mechanical
boot
courses
enjoyment
lisa
##otte
shy
ties
##irations
integrated
annual
appet
sank
increases
plainly
gesture
inches
autonomy
needle
sweetie
interplay
momma
damaged
pacific
routines
baseball
immersive
##taking
##ste
trunk
gravity
bour
##ita
##anship
dramatic
##arge
myri
manager
becky
##bin
complement
subt
grandpa
stops
teamwork
meanings
logic
##ean
godd
transformations
existed
saxon
leis
carpet
discomfort
surprising
sensors
nicole
cunning
##rust
disability
stepping
combinations
feminist
##unting
secondly
strawberry
speaks
pigs
sensitivity
resumed
wrapped
mastery
thompson
constructing
revenue
margaret
vocabulary
##eur
##ellers
respected
hans
punch
##inter
acquis
utterly
weaknesses
hunger
wheat
accomplished
gerard
gaining
careless
pertain
kissing
scissors
congrat
grains
statistics
quack
glue
fifth
##active
adaptations
magnetic
answering
mexico
bosom
expensive
calif
identification
reminder
involvement
californ
##inates
##cending
wisely
mitigate
contrad
attempting
sausage
handker
leisure
dile
shone
recess
owned
monte
bias
condem
enormous
##ieth
holidays
##rated
##ques
pregn
essentially
gazed
brook
photographs
mounted
yep
##zer
impul
adherence
founded
critic
mythology
troops
addiction
provisions
##onial
biod
##00s
aged
config
profits
##table
spagh
stewardship
fet
entry
inflamm
beautifully
apartment
##aned
lend
intentions
charged
philip
dilemm
grain
threshold
unch
generous
likel
jeannine
mend
beneficial
activism
democratic
##itarian
ireland
##osh
wax
officials
tidy
cakes
##fr
clap
travels
##ulf
nearest
guideline
somethin
payment
candles
matthew
##oid
traged
tag
landl
category
confront
relatable
gast
wagon
promises
heavens
accidents
unconscious
gad
generating
posed
proudly
tutorial
outdoor
emissions
dollar
messeng
facilitating
translation
charges
doctrine
##itar
##ali
digest
maximize
carrots
##ancies
midnight
conventions
achieved
mistaken
earned
empowers
jurisd
jung
pist
facial
landed
seal
##sem
philosophers
lemme
arrangement
##keeper
arose
assume
subm
snap
rustling
schedule
vot
grapes
footnote
##ora
versions
grapple
vin
confer
replacement
reporting
mankind
supreme
arrays
chimney
superv
byebye
flexible
nam
questioned
quarters
cereal
##bi
chase
trials
breathtaking
preserved
displayed
##osity
##uv
trump
deeds
##orship
realistic
lightning
thrill
##ais
visits
immigration
##bel
definitely
##fol
##bly
facult
artif
interviews
##umbling
passengers
shine
trading
pant
##the
judges
garlic
rebell
shalt
muff
rays
##bish
withdr
sheets
troubled
insult
##igma
##inky
swept
wilder
lob
shep
threatened
dietary
appointed
talented
stair
pharm
builder
##apy
surre
captured
epis
installed
##inging
appreh
losses
maiden
##oric
##etime
##ulates
victims
wholly
stol
ard
marie
likelihood
braz
register
acid
dangers
clut
refuse
spaghetti
prow
throws
embod
briefly
temporary
modes
bobby
reveals
fertile
3d
hats
##cast
##bage
abr
abbe
##aky
column
retire
chains
behave
entity
rubber
unfair
obtaining
www
sparked
##ucked
slaves
leather
##ipper
blew
brig
mask
rachel
##imental
teaches
##iversity
incredibly
##economic
angles
scan
countess
mechanics
unfortunate
california
hint
##quet
trend
##ettes
comparison
raises
whispering
disparate
executive
cure
disgr
titles
##bul
distinguished
##pent
guns
similarities
continually
outcome
underpin
danc
inev
smartph
coastal
om
stove
neighboring
committ
skept
##anas
tracks
ding
pets
adapted
anton
spake
prey
landing
wig
##ki
##lys
bron
concert
dimin
##iii
sympath
engines
elabor
funding
adjustments
vacc
drugs
counterparts
deciding
fascinated
grounds
google
gord
shouting
zeal
##iament
tune
snippet
spectr
dorothy
alb
trap
lan
chess
mustn
sticking
responded
destroyed
entails
grandad
medications
crop
depos
alexandr
parliament
ned
dutch
covers
proportion
commanded
astonishment
##oj
mushroom
boun
compelled
scores
factory
misery
separation
adj
restr
tob
##eled
exert
##ppers
##odes
twent
hollow
useless
fluct
burned
domains
clubs
dent
curve
canadian
railway
tu
recyc
pole
##iances
myriad
##oubted
nicely
endeavor
##ounded
concrete
crocodile
##pling
sticky
festival
jeff
##oscop
hastily
emotionally
versatile
cush
gum
##kers
stro
feathers
deny
grie
sway
parallels
alcohol
goat
##oding
penet
##vation
sept
##inous
##irts
seamlessly
enforcement
compr
encouragement
versus
foss
##hy
empowering
cheerful
naked
horm
tyr
##omin
compat
correl
infinite
embraced
obedi
arrange
daughters
elephants
empowerment
ceremon
horizons
whistle
vronsky
mant
ry
oppression
farewell
##pear
toss
exquis
gim
##gust
revenge
dates
##erals
adaptive
philosopher
pursuits
symbolism
bade
reaction
occasions
##cription
disgust
cared
diff
wilt
sue
grin
rou
wrec
jolly
throne
goose
marble
serge
pockets
descriptions
outs
##upon
ducks
##ologist
repro
weapon
ugly
##inder
transitions
vanilla
depths
organizational
raining
##tery
##emed
manipulate
catholic
mcdonalds
tony
barrel
reflections
puzzled
illnesses
celestial
cwww
##ener
mostly
continuing
scarce
elegant
inch
bucket
released
stroll
##attering
sleepy
granddad
zorg
sexuality
##ostic
cohes
admired
compromise
scrut
scheme
travers
reviews
mamma
nonsense
intu
interd
conserv
attended
brew
drives
equation
shakespear
nail
chip
suggesting
undoubted
substit
murd
expedition
goddess
profile
physician
captiv
implemented
routes
granted
fame
##urring
##ospect
scand
sadly
indicating
traced
backwards
absorbed
gestures
##oa
##ado
unp
draws
restore
cupboard
describing
##worthy
endure
attracted
recommendations
embedded
mortal
damp
casting
crystal
jess
melancho
melancholy
insects
invitation
horn
savings
kang
reliance
passes
visitor
nods
hut
##inda
interior
vanished
spirituality
quantities
shooting
analog
route
restaurant
##cher
holder
protocols
##tub
heath
prud
ebooks
heir
##iana
transmission
adverse
woo
seasons
playground
closing
fatal
muttered
daniel
underscore
revelation
chic
##acts
drank
decent
hyd
accepting
shepher
cass
roses
shor
spong
arom
polar
crossing
shiny
expanded
##xual
constructive
sofa
incons
resting
shortly
tens
##atched
medication
ambition
recovered
split
intervals
heal
##ographies
ignorant
abraham
binary
attor
brainstorm
albert
draft
firsthand
election
categor
channel
tangible
lions
##rices
##iscipl
varied
streams
insisted
unm
independently
ignorance
prioritize
maintained
comfortably
rous
##cia
july
lovers
thys
lew
permitted
organs
##amas
historians
epic
lieuten
greeks
seldom
trim
disgu
disappointment
hospitals
aesthetic
pumpkin
luxury
nineteenth
exagger
outline
empath
autumn
consuming
update
scotland
hoo
tab
awes
discern
panda
##roc
##soever
extensive
suspected
glorious
honesty
conversely
##aurs
inclined
homework
updates
forec
county
retain
farms
contracts
helpless
impressed
endeavors
widow
attributes
glimpse
boast
computational
camar
await
motif
vegetable
battery
stephen
##liness
exac
utmost
aspirations
bicycle
truths
secretary
orientation
footst
mirr
##tes
neph
##mented
believing
inquiry
kin
legacies
rigid
pressures
prost
##opolit
personally
opera
exacerb
cricket
scorn
basis
granny
biodiversity
pav
barg
resolve
##text
virtues
resid
signed
repet
##ris
##ersonal
tran
plots
bug
formats
destination
tide
sher
percy
racism
threatening
thyself
lust
indisp
napole
savage
ambul
wandering
counts
chemistry
dey
flame
greece
solidarity
molly
##roph
##gments
thanked
smiles
crafted
noted
##aching
##gets
bund
charity
bullying
cycles
sid
estimate
analytics
beads
##uddle
crowded
survive
dna
pony
##oral
##amps
willn
scal
wherefore
quantity
reject
removing
addresses
merch
verse
aye
kne
refine
nina
19th
hobbies
wilderness
nails
##rot
accel
fleet
swiftly
grammar
blo
metrics
awesome
wider
spy
cuts
limbs
dreamed
analyses
ecc
grappling
waving
##oft
boom
steal
accidentally
kh
guilt
striving
socioeconomic
fathers
asks
calmly
##down
##achus
immort
cs
gam
dost
thinkers
meantime
infant
archae
telegr
parameter
desperate
tues
toe
sciences
legislation
tart
##ez
##ba
##isons
excel
characteristic
bake
##via
##adays
arising
nowadays
chefs
merr
underscores
costume
attractive
suspense
##ih
opposition
bedtime
snack
dental
##uating
globalization
owe
trag
##uctions
##ergies
speakers
exception
laurie
pas
whit
##isciplinary
remem
colum
corruption
surviv
magazine
gabri
21
##tw
humility
confidential
dash
thither
brav
decline
jewelry
dense
pod
redist
suggestions
precaut
phrases
churches
explicitly
mim
thief
##aderie
strengthening
ip
interm
kisses
proceedings
carrot
camaraderie
indo
recording
coward
cage
ps
vint
volcan
triangle
dump
##illes
propose
largest
geometry
april
unpr
immigr
settlers
undoubtedly
adjusting
tissues
mexican
enterprise
gut
oz
vote
heated
##ppy
feather
restoration
hedge
alge
vacation
beheld
conclusions
revolutionary
strawberries
renewable
shakespeare
globally
reproductive
##cha
completing
deter
speaker
portug
peasant
stuffed
tailor
jews
owing
nour
abrupt
boards
##onym
traject
coding
compositions
avenues
solace
hinder
deserve
enlighten
cathy
panc
discre
enabled
basketball
candidates
sale
pretending
fatigue
daring
##rified
overt
scales
imagin
##mat
imaginary
ultimate
frogs
datasets
cens
lav
asc
##ander
##iffs
procl
eighteen
colleagues
yoga
handkerchief
puff
heap
suited
dex
institution
columns
eag
194
mickey
flows
responsibly
gloomy
dip
##ession
resort
martha
readily
frozen
injured
##ached
flowing
crust
functioning
cone
conve
knot
doubtless
pouring
thirsty
vocal
australia
zebr
##che
overcoming
cardi
allevi
insuff
sensation
compromising
apt
##amation
##ours
##ishes
immun
##iblings
races
posts
celebration
##orse
suic
decol
unforget
conform
effic
absent
insert
investigating
experimenting
dora
##chair
baba
printing
sara
unforgettable
dub
persec
rainbow
highlighted
prisoners
vest
##boy
##orph
manual
minerals
extends
acquire
astonished
interpreting
##anth
##ogs
boss
##dd
##ulously
##berg
resulted
acquainted
slightest
elderly
liz
visualization
biscuit
##sed
essay
empirical
apolog
measurements
molecules
prejudice
sailing
tex
alignment
splash
reverence
wounds
integrate
##unks
incidents
gazing
helic
typical
footpr
affordable
schemes
##lore
##cs
sticker
siblings
unre
marius
attachment
lieutenant
wag
shouts
clarity
sector
tuesday
##tt
imaging
##chester
unjust
invention
provision
survey
matrices
erect
hip
stout
lev
indirect
indicates
tribe
charlotte
dexter
##ania
dinosaurs
hith
statistical
##ober
##ouses
coins
entreat
sadness
sevent
deserves
folklore
rendered
lucien
hardware
seaf
forgiveness
proceeding
squeeze
molecular
kath
artic
profiles
classification
seamless
jazz
intake
betty
satell
lane
unpre
privilege
hitherto
gross
downlo
loads
fixing
exchanged
nuclear
redistribut
lwww
relatives
##icted
admire
spinning
sib
conceal
steadily
ancestral
az
twists
biscuits
concluded
navigation
irre
##vol
##otherapy
talks
conquer
##unction
module
legit
cybers
twentieth
##ndy
calculations
horizon
stolen
beating
pasta
targeting
motivations
assigned
exhausted
penguin
rude
patron
mayor
formula
##ascular
warriors
reconstr
##umental
longing
wander
fitting
disasters
wednes
safeguarding
helicop
woven
winnie
garments
resilient
reminding
assessments
intersectionality
gorge
exquisite
flies
passages
prospects
fortunately
derivative
sentiment
mans
assumed
##eg
toxic
liberal
hesitate
abandoned
fountain
pix
director
tightly
pries
commands
proficiency
solitary
mice
shelf
ambit
hearted
definitions
cease
helmet
rabbits
quad
##etus
perm
silently
##ij
beasts
peep
poses
terrain
updated
nonpr
reinforcing
fiber
willough
peril
offs
lifting
##cribed
##aroo
mobility
disagreements
##iability
suscept
bills
bapt
roast
conviction
advocates
nerves
##gia
complications
##any
hee
interval
aft
urged
precip
verses
jenny
kent
lur
##azing
batteries
vintage
osc
inex
exit
tomato
badly
disturbed
borne
##omic
securing
bells
baker
ventured
pilgr
curtains
ambitious
##adv
seats
##isha
september
nephew
mischief
prolonged
mate
thurs
##ano
arbit
marv
assure
lifel
##tic
tranqu
ambulance
oath
##mony
ceremony
breeze
gems
vice
soda
gene
##iciently
##ulum
headed
pathways
mun
##idi
heights
pleasures
coverage
obscure
gina
peak
securely
aging
goodbye
absorb
willoughby
batch
lists
athen
acquisition
hood
##inery
kim
lec
##hire
##icultural
milest
weeke
buddy
envelope
##lyn
notably
uniqu
escal
##abetes
pussy
evoke
glit
refining
greeted
perfection
saddle
##vet
oppress
lords
utility
indispens
##ials
ginger
algebra
pope
enl
##usal
alexey
dumb
uk
vern
unple
parted
treacher
palm
threads
intently
strings
wrath
devast
mold
##bot
##illance
awk
locally
##idable
##inking
timely
sandwiches
aliens
misunderstand
remin
rested
scroll
gordon
##rane
accused
sensations
hopeless
spani
legends
immigrants
comedy
crunch
editions
medit
infection
journ
package
lawyers
oly
rip
##esc
##orus
##ada
temp
sharply
lush
##acco
startled
divor
allocation
reception
elaborate
##bird
undergo
##obi
fourteen
argued
johnny
olive
permit
bio
pandemic
motifs
representatives
conversion
bast
bands
rar
locals
concentration
configur
viet
stan
##asses
stretching
unwanted
rear
diabetes
progressive
analytical
cope
hither
intertw
awak
eyed
robots
pulls
efficacy
awkward
liability
##ieces
spill
continuously
economies
descended
unse
gimme
indispensable
resur
clasp
slain
sustained
lincol
artifacts
##oard
claus
mainly
logical
automatically
gains
underwater
strengthens
wednesday
acted
sensory
concealed
constructed
loudly
daw
rushing
waved
stew
christopher
arrest
nurses
avenue
necessitates
hygi
reminds
aids
moses
##astical
communal
caps
hobby
adorned
kr
mak
grade
reluct
accounting
evenly
symmet
radical
exploitation
yonder
##lysses
golf
hub
injust
league
nov
sock
nursing
sixteen
glow
challenged
drawer
testim
zones
shots
warn
##flies
witnessed
resign
fluff
decay
targets
hindu
pilot
fusion
tay
##giving
##rob
verbal
folded
valentine
sequences
motorc
amusement
adolesc
ulysses
crept
distinction
ambig
bern
welc
lifetime
rendering
congress
subsc
communicating
rolls
minimum
##aire
density
dilemmas
##marks
##acc
##oper
roar
backward
engineer
##lock
anat
whatsoever
vend
underm
cheap
physi
ingredient
beaten
ille
sketch
expecting
##inement
##itory
##ani
##ecurity
syr
sufficiently
illustrations
misfortune
tragedy
##icy
copper
sweets
leverage
colonialism
reconciliation
surveillance
conj
##plex
achievement
deserted
##rence
stur
allies
patsy
outf
ideologies
dispute
segment
secondary
persuas
jungle
##born
canvas
drain
##brush
reckon
portrait
pains
stoop
december
formidable
pots
viewing
filter
amazed
sacrific
demanding
newspapers
sovereignty
overlooked
compensation
gau
pest
continuity
191
stickers
repeating
kangaroo
sie
overs
flip
masterpiece
dictionary
##aet
submit
disgrace
lincoln
tam
potent
tennis
cleaner
irr
chickens
ville
larg
hurts
rhet
thursday
prest
thence
breach
machinery
palest
ranks
##hah
sectors
october
##hear
hav
##riger
##oured
controls
attempted
cents
gw
waking
heels
intens
appreciated
recorder
detailed
purchasing
quit
biggest
refriger
convenient
displays
olymp
##ema
venge
remarks
suggestion
disagree
interc
flut
modifications
bushes
sincer
payments
stool
##ilipp
honestly
compute
ridiculous
##uish
##de
obl
gallery
dragged
admiral
##agog
arrow
##urg
stole
##ucid
princes
interpersonal
pushes
##rations
fraud
trash
majority
bodily
24
lett
spanning
##nom
notions
harmonious
caval
##ikes
dwar
##dal
donkey
romances
withdraw
childs
lawn
coaches
napoleon
weird
proposal
adhering
enchanting
dual
pall
dominic
##ping
disch
daylight
visions
##exist
##rest
beep
arises
panels
tirelessly
missions
cautious
hated
##verse
managers
backdrop
opponents
dreaming
behavioral
therapies
sailors
axis
pairs
hatred
permanent
inconsist
vague
##ua
##ships
lighter
intent
manusc
aggress
methodologies
prompting
manuscript
harr
researching
conference
admin
##annah
guessed
constitute
##eon
##idge
therapists
canon
guitar
richness
meaningfully
fulfill
alf
##rog
##leys
##ieu
recru
offerings
traditionally
gambling
impulse
baked
os
anyhow
advis
snakes
greenhouse
consume
plung
bugs
cowper
##abil
uphold
thirteen
senior
##uild
##atric
andrew
lee
perplex
grip
convenience
paced
xv
upright
idle
edition
limiting
prosec
simpler
masc
wages
weeping
merit
##coat
symbolic
persistence
schedules
disclaim
reminisc
shiver
prick
visibility
ceiling
elucid
selfish
finishing
jail
neckl
cherry
worm
editing
ern
tomatoes
confessed
protagonists
##elia
crist
poster
prowess
##jamas
synd
eyebr
occupation
endeavour
childsname
traces
scope
circus
scientist
wandered
champion
prevalent
triggers
refresh
##iate
descent
fou
relates
offices
interacting
measurement
elders
obligations
geometric
bubble
rocket
containers
diagnostic
fy
ts
promin
squares
##gregation
strick
announce
tobacco
rasp
aboard
cliff
gatherings
spoons
width
homem
festivals
intentional
disposed
superheroes
pleas
constitutional
cheeky
ford
measured
hazards
han
##uations
fores
wellness
competitors
enlightenment
bost
##bour
cowperwood
##esy
##cends
relies
hearty
##glaf
60
jason
##edia
##sts
magist
convention
crafts
punct
agreeable
comparative
vulnerability
lick
libert
artagn
pglaf
##adation
extr
sweep
cameras
horizont
mitigating
listeners
experimentation
hir
ket
nig
atoms
uneasy
universities
wealthy
##writing
bewild
landlord
dys
hack
cooling
fearful
shedding
encompasses
##edies
##aboo
##etheless
nonetheless
covid
##grou
skies
collar
digger
specim
retention
posted
merg
underground
##ribly
employee
hallow
stirring
welcomed
clergy
assim
bananas
folly
sack
##corn
encl
earthqu
scrap
exclusion
scholarly
conser
ending
negatively
seasoned
ratt
dessert
napp
irrit
artagnan
##inely
brands
reliability
administer
bounce
bean
##ami
##ulative
gracious
monkeys
failures
saints
##ilian
##eme
tray
mining
tradem
spray
tricky
tremend
prevailing
aly
nathan
calend
fanci
fortunate
rubbish
depicted
scout
trips
turk
sailor
unpleasant
practiced
balloons
destiny
scholarship
##inth
suits
##unts
sensible
odds
intersect
jones
##ibles
jackson
confirmed
pronounced
metals
conception
preference
ruined
degradation
rack
wives
fract
unint
paradise
gang
stated
fran
unrav
memoir
villain
describes
declare
zebra
##ighter
181
tumult
jove
##matic
dropping
misc
guardian
pupils
ml
assessing
marky
namely
largely
trop
amazement
traveled
insufficient
hygiene
homemade
##ello
cleared
burd
digit
fastened
deadly
exclusive
messenger
lent
upward
grape
subd
planting
porter
rebellion
ascend
ballet
fogg
boston
##rier
##ectors
discont
soviet
gra
fried
ideals
stub
beau
residential
carib
equil
locate
rounded
richer
committee
##rical
helicopter
compact
satisfy
investigations
misunderstandings
##apse
##lessness
robber
tolerance
##iated
woe
seventy
dwell
ruled
cloak
stations
crises
florence
sunset
transparent
negotiations
inflammation
whip
secured
progression
planted
dwelling
##repres
protagonist
40
compounds
genes
muslim
rewarding
##smith
fain
diagnosis
sturdy
inward
forens
firms
corrupt
patiently
hybrid
korean
subgen
warren
sixth
heed
##ithm
whoever
philipp
statue
reddit
fitted
chop
dishon
lofty
footsteps
##oodle
recl
columbus
sponge
irres
occasional
panic
sewing
appetite
##oking
##iah
theology
embarking
dustbin
tragic
##arded
brass
specified
woof
potty
politicians
unhe
workplace
simon
smallest
drawings
illustrating
2018
cant
hatch
plt
##ourse
expose
burge
featured
vertical
pere
sham
deploy
implic
##mentation
##enders
curiously
##untary
volumes
acknowledged
##50
##dling
##lings
##cup
outward
overhead
##ensed
multip
##gener
ruler
rectang
pricing
##osha
elbow
transgender
confed
##ashes
moor
coexist
reflective
distinctly
formerly
barrier
miniature
vengeance
##oly
operational
witnesses
##eck
##ugs
##words
##oise
##isk
entertaining
##rows
drivers
##evitch
dividing
dant
boring
kern
nob
antique
##ders
bravery
relatively
respectfully
##eous
intol
wrest
appearances
multicultural
slippers
##rium
continent
facets
shorter
##hum
relied
guards
culturally
references
suspicious
shepherd
shells
amused
cust
roughly
january
blown
monsters
##zzy
bure
wils
incent
conduc
fulfilling
alyosha
fancied
chir
boiling
travelers
##books
burgeoning
exotic
studio
counted
designated
planets
networking
texas
##sen
##ilton
##igious
pert
collectively
##flow
accommodate
introspect
architects
jealousy
kir
sends
heavenly
2017
rhod
corrid
strikes
doubts
illustrated
ticket
germs
sailed
exchanges
speeches
egyptian
sphere
decolon
conducive
theaet
##etically
##thood
lasted
depri
grandpar
martial
aeropl
athenian
mounting
sweat
dangl
casual
makers
##tie
wholes
englishman
dunno
unpreced
pens
coeff
stirred
giants
relieved
lifelong
equilib
unprecedented
22
gil
nigh
noon
crushed
impart
helm
ceremonies
##rus
clam
duch
nodes
mingled
dies
sob
##opolitical
wiz
##aron
guardians
buddhism
##rage
sober
##izer
marquis
diaper
cataly
ott
##asper
##uum
deaf
nowhere
incon
scent
peekaboo
wy
copying
strictly
taylor
circumstance
publishing
accomplishments
bust
ee
##istan
animation
##ront
cardinal
burnt
wilson
##pace
heating
octop
ripp
##zi
butler
abe
##ciously
majestic
seasonal
desirable
checked
rulers
assembled
##uated
wept
griev
photographers
depicting
smartphones
jury
wol
##leness
curt
photo
duration
lodge
fluctuations
futures
catast
trembled
theaetetus
interference
flames
inherit
##urous
thereof
claimed
butterflies
earliest
responding
lungs
##brew
melody
##ranean
heidi
gradient
echoed
catastroph
jon
treas
oceans
jacques
betrayed
arkady
priests
##wa
##urious
rover
torch
dissol
reserved
gorgeous
##nut
secretly
intimacy
pirate
pork
keeper
186
applies
prophet
releasing
##power
smells
decipher
calculating
shades
ringing
ernest
sul
vio
##iner
embarked
baa
sculptures
bou
bart
##airy
eloqu
passive
factories
rocky
punish
wha
##umbs
polite
posture
consulting
intimid
blues
##azar
uncovering
nutrient
karen
lakes
##erget
##eliness
##urred
creatively
connects
favorable
##ulus
leon
suicide
ov
energet
practically
geography
gosp
receives
obvious
grocery
associations
taper
##ospher
indiffer
weekend
alert
civic
wiser
volunteer
cristo
tread
sket
linen
danced
dolph
invented
louder
eagle
loll
##uting
contri
awfully
towers
##erald
mme
forcing
vex
solicit
bumble
yay
##pass
induced
writes
polish
specially
penn
virus
readings
doorway
##ulsion
alexandrovitch
##imity
oranges
nerve
injustice
kate
ruff
##onduct
skate
confusing
plum
paints
communications
disposition
credibility
##bridge
invites
earning
planes
educate
##eseen
impressions
priorities
procedure
defeat
##ggy
electronics
survivors
rehab
boil
boundary
culm
seafood
bum
dairy
prox
gregory
autobi
peacefully
##ymes
abundant
bending
sheer
fascination
antiqu
prayed
##iki
cuddle
schedul
anchor
nope
##umin
donald
2016
##vem
##izers
commod
setbacks
appropriately
hesitation
automation
explanations
##gon
##era
percent
understands
defects
sentiments
##break
abandon
foul
backyard
proving
meth
performers
railroad
swinging
worker
fired
loan
hastened
reserve
bureau
metab
warned
superst
##falls
reproach
wrought
proactive
veil
originally
alexander
tramp
arc
cares
quiver
boasts
hurting
contrasting
executed
aristocr
bored
yourselves
##ortions
183
polynom
hitting
##iams
haunted
restored
severity
snacks
digging
bella
hamb
lazy
##zan
tops
stems
pled
paras
blessing
neutral
ripe
##inals
##alo
fury
textures
decreased
defective
novem
resent
breeding
accent
decept
alarmed
pel
yields
jokes
closet
benj
##itated
stal
representative
isolated
lace
##ussian
brian
lined
##west
hardships
ahhah
lewis
las
##entric
irrig
meadow
november
rif
playd
vegg
satire
familiarity
ribbon
translate
equilibrium
enters
temples
annie
confronted
veloc
inevitable
whither
comments
retail
coordination
gymn
timing
chapel
extending
diets
warming
mechanism
partnership
manufacturers
illuminate
obeyed
spectrum
amend
195
emphasized
innocence
berries
##win
appointment
speeds
tablets
elected
initiative
##esar
meats
##retion
educated
activists
mascul
##lete
##inks
displacement
remembr
##ester
##idental
##rious
mane
overnight
relaxed
imaginative
biting
dots
##uding
modified
limitation
gravely
outlined
hoc
alc
heartily
accompany
persuade
dances
mock
##aste
contest
propriet
hunter
frustrated
rides
##ovascular
artis
utilization
counseling
earnestly
cybersecurity
shan
wasted
##actory
wrist
varieties
cape
traction
partial
differing
melodies
gallant
negotiation
mull
timid
critique
messy
validation
hierarchies
strokes
rarely
openness
circuit
revis
crisp
lun
mainstream
arguing
fossil
sag
##master
imbal
##prop
regulate
skil
meticulous
probable
intrigue
synthetic
killing
inval
harass
towering
melted
settlement
salvation
utilized
obedience
500
pays
scrib
coral
prevented
alleg
museums
velvet
metaphor
hannah
##aneous
negro
institutional
odys
fern
jest
##ja
##jean
tracing
spoil
gracefully
tant
##rating
glowing
syl
province
brist
scare
mushrooms
gosh
goth
regulating
graceful
immersion
alphabet
jav
chart
coats
systematic
imprison
magdal
chris
moonlight
fragments
marianne
confined
predicted
hazard
paved
ze
##zed
##through
contam
bak
plac
guine
swung
dresses
legislative
dismissed
faculty
##ingle
weep
feeble
divorce
##din
##mate
deemed
earthly
juda
epoch
sis
valjean
189
mol
todd
192
furnished
cafe
##onymous
hector
##lest
##erend
dissem
bridging
forgetting
occupy
nonprof
tore
theod
hebrew
##eming
##qual
solitude
prevents
successes
controversial
pud
treaty
documentation
atmospher
atlantic
quadr
isab
disl
twisted
vigor
adhere
184
epist
gases
worries
disadv
##order
##beit
milestones
dou
canal
twe
recurring
smote
insol
swed
youngest
lesser
opposing
artistry
pencils
masterpieces
disadvant
bha
##itz
onions
##iph
marion
urgent
recorded
diplomacy
alleviate
tremendous
supplement
stepan
viewed
vigilant
andre
assault
catal
disposal
buddhist
zone
rehear
shark
satisfying
gadgets
##mel
remedies
chicago
gem
##rome
##alf
equival
circular
##uther
##urities
longed
accessories
pajamas
sandy
neglected
inferior
coher
dose
slay
respectively
tunes
surgical
obviously
attentively
pd
shaw
fridge
ensl
darker
excellence
bacon
sparkling
##gars
menu
portfol
corporations
recalled
carved
structured
surprises
hamilton
neatly
advertising
dating
imperf
dependent
exceedingly
temporal
tac
beam
##ifer
colonization
marginal
eu
##inge
isabel
##oped
agony
objection
frustration
dre
vap
eras
tenderness
##generational
dus
oils
brac
##bean
therapist
scripture
anxiously
hospitality
##stein
duchess
medicines
lenses
hort
##ipy
intergenerational
skating
ministry
protections
coordinates
australian
villefort
fuss
##nament
removal
assurance
fashioned
confession
curriculum
motions
optimizing
forbidden
necklace
27
bomb
kins
sins
radi
cluster
arkadyevitch
##ador
hem
flashed
steward
seventh
loops
linda
herbert
febr
insur
owns
lego
currently
swords
bolt
##organ
imb
crook
didst
incap
laboratory
lau
plains
envision
distributing
familial
##orie
abide
##inkling
amen
musician
persisted
prophec
paradig
guarantee
##atics
##onent
chill
##teenth
squire
nutritional
versatility
##group
wishing
iran
automated
february
##aca
parrot
curly
defending
improv
hurdles
athletic
interfere
leaped
##leen
goss
arrested
strangely
precautions
##rs
repent
layout
garbage
conspir
##onies
advised
naval
villages
attorney
sooth
signature
animated
risen
##ridge
##lements
unrel
painter
tablet
scarlet
aligned
chiefly
assistant
rhythms
borrowed
kite
server
essays
stealing
contextual
antib
couples
susan
deserved
##regular
winding
madness
portions
possessions
dimit
advertis
##igrant
breth
normally
##forward
congratulations
hose
##oma
skirt
denied
clarify
kicking
cree
stu
##udge
resh
dias
irregular
vanity
neighborhoods
interdisciplinary
sibling
experimental
translated
hypothesis
paw
##anny
decomp
pleasing
situated
camps
##smanship
fundament
attraction
##inform
toil
joey
divisions
jewels
enthusiast
awaited
stigma
carn
funeral
powered
publicly
eighty
citizenship
triumphs
flags
compatibility
rapt
glances
restaurants
judicial
prair
##ucers
shallow
succession
orthod
bib
fats
orph
williams
gettin
parting
beforehand
float
inventory
murderer
comrade
##anthrop
faded
##aya
##unty
colonies
declar
swallow
##vy
complying
quir
approval
labeled
refugees
45
bru
##azed
gasped
nappie
judaism
lament
crom
loans
minority
maker
sized
##unci
genetics
greens
frown
streaming
flourish
bah
upcoming
elig
financing
faraway
sleeves
##eto
comin
encry
barely
lettuce
bef
locks
politely
picturesque
shelves
##la
receip
preparations
junior
##icious
stap
exter
##ulsive
lesb
dancers
##iour
##wick
breakthrough
hostile
awaiting
23
aggressive
diaspor
##itya
scor
infring
identical
marit
expressive
arranging
vitam
tha
##ication
stif
storing
elusive
retorted
appearing
cosmic
introspection
oy
tons
ank
knocking
makeup
bleeding
bitterly
pistol
inventions
modify
moderate
cycl
fragile
kil
sweeping
ceram
dimitra
lyn
chate
spher
##ulture
##ographics
loaded
heroic
unconv
craftsmanship
pitcher
roused
energetic
##kets
graham
oldest
waff
indignation
los
reper
##imer
respectable
penal
##boards
bloody
debr
awh
refined
travelling
catering
dragons
crawl
wreck
##ck
193
enriching
databases
cushion
28
slender
beginnings
employers
magdalen
brethren
ferv
wires
##imag
chasing
bra
humour
curse
##ograp
collaborations
standardized
ranges
90
socially
fantastical
calendar
vectors
##fin
##ston
shipping
whoa
bounds
acquiring
staircase
scatter
roller
showcases
buckle
fluffy
taperec
dal
oink
herm
textbook
southe
jimmy
aeroplane
unconventional
dave
##otech
customized
failing
tourists
micros
reputable
awhile
scipy
copied
binding
orchest
ashes
missus
##inson
graeme
pipp
forem
quaint
parlor
forensic
vitamins
shrew
appoint
backs
blankets
peasants
rasc
##ota
chalk
##ople
theirs
veins
springs
brightly
worrying
ethnicity
cardiovascular
theft
##isation
sniff
dearest
jerry
lingering
benjamin
bever
simulations
furry
anarch
190
petr
volunteering
caribbean
rash
##atisf
##igan
optical
multitude
##agram
mitya
##essed
greatness
suppress
endurance
pretended
specializing
cleaned
verd
manageable
chateau
dazz
nancy
nasty
##arians
amusing
##thy
livel
intend
peters
packages
magazines
distractions
eliminate
fibers
hart
twil
##angel
summar
pomp
##ito
upl
##udder
babys
consisting
unlocking
thanksgiving
indicators
hambur
sull
##ilitation
actor
horns
packet
drying
miracle
sickness
anticipate
popped
infect
quicker
extraction
warranties
mirrors
gospel
von
##erts
##eland
interven
##bee
harbor
emergencies
eldest
trademark
grandparents
beginners
yielded
dismay
portrayals
surrender
trent
apost
neglig
ambass
abruptly
##nish
noting
brushing
peel
athos
hypn
coordinate
paving
advancement
conceived
reverse
mentors
tails
##otted
bead
facility
horrid
persuaded
slices
slope
cannon
juan
screens
attributed
ragged
##iculously
##ulent
trench
compound
188
vulgar
##cere
##ped
##otive
stark
skelet
cupc
flora
florida
sausages
taperecorder
##ori
contend
smack
breed
aircraft
cousins
paragraphs
anticipation
abundance
##weight
accus
swings
replaced
frontier
weekly
twilight
ker
moss
##ocation
serene
creep
tomb
competence
breathed
nutrit
resolving
pearl
comrades
maritime
awe
phases
creator
instrumental
summoned
tours
rattle
approved
piqu
wendy
trails
multim
deceived
fiery
jaw
##iac
napkin
motorcycle
tapping
##hh
crav
musl
optional
termin
aligns
##oscope
adjac
halloween
tropical
remembrance
##wan
clad
awoke
individually
originated
gradual
motionless
diamonds
eyebrows
##inkled
believers
##after
anthony
ingenuity
recycling
tensor
gabriel
illegal
stocks
isa
holly
steadfast
sculpture
##erting
spont
mediter
elections
adventurous
murdered
mosc
niece
##itter
##elines
inputs
##romagn
assignments
enriches
mediterranean
discon
airport
harriet
necessitating
blast
reads
polished
armies
exclus
hits
kicked
stall
poke
needing
##ounted
clearer
reminders
implied
enfor
empt
coron
believes
arriving
graphics
nutritious
##aux
syll
##inton
opposed
existential
indifference
weaving
grind
whereby
etiqu
billion
pandas
illuminated
pregnancy
reserv
realization
envy
pretends
##ymph
trifle
kathleen
lyr
##sky
soothing
upwards
##gged
infam
korea
rin
issued
destined
tickets
attacked
myths
decorative
condemned
##elity
knitting
decides
babe
sweetness
jurisdiction
hockey
ak
finest
dispers
scarec
indicated
conveyed
cosette
temptation
deliberate
whirl
indifferent
##inor
compost
simulation
invasion
syndrome
26
ari
##iently
##har
adul
furious
motive
franz
si
##bons
whoops
exe
continents
defence
markers
vacuum
allocate
impatient
abre
overse
##ormal
steve
mouths
whiskers
currency
consumed
bolster
cocoa
colony
realities
broaden
interconnectedness
champions
##making
##mouth
seize
##ittens
diary
miscon
diligently
moscow
diana
leop
introduces
anticipated
merchants
eph
mam
##gian
##erse
blu
circulation
harp
mentally
murmur
hush
jenn
ranch
frames
compete
verify
cabinet
plunged
liberties
zoom
entit
momentum
cowboy
oliv
elegance
##frame
##olis
##kee
dew
disple
filters
melting
dusty
mortality
inspector
brutal
bundle
physiological
dorm
fails
gib
sting
flushed
morph
connectivity
rises
panel
coupled
##avern
reforms
ghosts
pirates
unseen
ramp
##agan
goats
costumes
auto
fortunes
voting
foref
##pses
batt
alternate
dialect
marvell
swww
epid
particle
consisted
warrior
seventeen
pilgrim
hul
##chool
##odor
knit
carpent
monk
solemnly
disclaimer
muslims
##imm
foam
cooks
sunk
harmless
rubbing
tube
##olas
advise
chef
amazon
miller
fag
hull
##emption
procure
invested
2019
microb
mourn
outfit
abreast
whereupon
promotion
vinegar
ale
relent
watering
firef
conclude
definite
##low
##alie
##acial
collaborating
vanstone
embodied
foremost
dame
##icate
contented
individuality
legally
divides
lamps
contemplation
veggies
yarn
token
dee
cro
twinkle
interrog
editor
etern
hiv
sights
##ignant
filmm
unlik
##flakes
##astics
crus
pears
prelim
transcends
inflation
philanthrop
competitions
##blance
recreation
lantern
gn
ira
poop
innate
genuinely
dwarf
cb
dizz
careg
behalf
ruins
packaging
arabic
dashed
chapters
personalities
trapped
celebrations
matching
durability
melt
shores
sliding
joys
pinch
candidate
##inges
##ington
##ask
marched
fuels
episode
yaw
longev
elinor
expend
exhibition
royalty
wav
##pring
marj
groundwork
brushes
ivory
longevity
##bell
dod
clip
lookin
embody
motives
honing
viruses
academy
redemption
squash
breaths
joyous
shifted
##oodles
immerse
##plication
187
distributions
gladly
##colonial
scarecrow
saves
##ucking
coarse
fries
humorous
admiring
##rection
##zo
info
generosity
rais
periodic
syrup
bhaer
mature
chival
postcolonial
execute
unsure
spectacle
clusters
swallowed
devastating
aunty
rosy
##iti
##learn
##stick
evid
##apsed
alternatively
detectives
pipes
pedagog
janet
carter
referring
ninety
bowls
favourite
vow
##eing
##itis
shocked
##ctic
mapping
##ommun
ascertain
pests
wits
ski
demi
entang
pickle
caesar
##orable
##oos
amelia
flock
respects
debts
settling
victories
luke
tongues
##emen
placement
acute
assisted
rotation
surgeon
##uill
broc
judged
##untarily
punished
interface
bass
jumps
lac
##lev
##enson
improves
turmo
##naments
attribute
octopus
ix
toad
scoop
##issa
fungi
streamline
pavement
residence
stray
charitable
urbanization
altar
harmonyville
rehabilitation
##hd
insign
subc
constitu
complementary
##represented
fent
pend
sic
refinement
maggie
felix
tossed
bargain
donate
fearing
morn
violently
chorus
flashing
camel
tendency
##withstanding
orthodox
##fire
julia
mourning
hire
notwithstanding
##ensible
posters
aiming
##enched
aquatic
##oscopic
bened
infused
traders
treaties
ratio
cracker
elevated
groan
greeting
jum
troop
perish
assass
doubtful
searched
sleeve
pudding
gav
laser
sto
chopped
induce
yea
##azi
welcoming
females
poised
##ountable
glancing
queens
snowman
daunting
surveys
turmoil
##eer
##aders
shov
joints
afflict
anguish
hosting
converting
##uncture
portugues
bows
gaw
##vous
meticulously
interpreted
blended
entrepreneur
browsing
satellite
albeit
willingly
endang
productions
intertwined
wizard
##lie
brim
restless
telem
comprehending
legendary
irrigation
och
stain
instability
bald
##forth
bathtub
passe
gulf
hues
##urable
hears
bred
taller
pioneers
fulfillment
assimilation
##ipation
agility
teeming
sincere
merits
microw
masses
complain
fiercely
provinces
aristot
administrative
portuguese
node
shudd
flick
flatter
playgroup
needn
morgan
chron
embodies
deliberately
launched
##arter
throng
adventurers
cherish
cautiously
wretch
##olds
eddie
personnel
landmarks
fuzzy
pyram
unequal
maximizing
nestled
inquiries
vigilance
therein
drown
##ailed
erotic
boarding
trailer
danglars
##bone
overhe
blade
explos
wins
##unken
##grily
romans
scramb
irony
hideous
gigg
subtract
turkish
fau
lapt
segments
grants
monst
arrows
intuition
wears
##oping
##una
poetic
mineral
honoring
cinema
##ira
meow
wont
hosts
unexpectedly
cognition
portraits
shaken
peyr
releases
basil
physicians
exhibits
praised
gossip
etiquette
gul
##ucer
phon
produces
radiant
spectators
unlikely
##otism
alliance
strat
discretion
natives
compliment
fabrics
fertil
rhyme
wolves
peyrade
cort
##elope
sails
proves
opponent
samuel
germans
attracting
supplied
prejudices
patriarch
dul
##ji
miracles
controversy
correlation
tends
yucky
knives
consec
##ordan
propos
collectors
salary
tasted
exhibited
##ollen
learns
learnt
##aphy
ellen
porth
oppressive
treacherous
eug
curves
processed
navy
traveller
##erpt
enqu
courty
certainty
biom
limb
2015
refugee
gastron
pharmac
cuc
##hamm
excerpt
sensing
budding
retirement
scrutiny
frying
##actic
claws
emails
requests
exploit
playdough
dah
##atha
senator
repeatedly
households
enterprises
enslaved
isaac
shrie
troy
persian
##erman
avoided
dug
generates
nightm
vii
camping
fifi
automob
completion
resonates
robotics
repetition
lass
##houses
##ploys
ecst
illuminating
gaussian
nineteen
pertaining
rhetoric
##ho
noah
amph
smarties
velocity
29
boiled
colin
understandings
biographies
incorporated
##ographer
heter
##rette
mediums
chambers
confirmation
##isive
static
protested
procession
popcorn
steering
publications
##ilingual
absorption
purely
trigger
unforeseen
database
skepticism
discrep
hiram
stare
leagues
amate
##althy
singer
scrub
sinking
inspection
recollection
immortal
persecution
gust
mast
charts
brisk
drowned
gotten
realms
patent
beggar
sacrifices
abode
backp
sklearn
infections
terribly
nationalism
bullet
captivate
anatomy
reminiscent
rapp
pla
associate
norman
positioning
assuming
legitimate
whales
##apart
##ifier
beck
roaring
mindset
delights
responsive
miser
lil
chord
remorse
foe
magnets
faults
una
eru
operators
masks
conceive
astronom
finances
##encer
monks
solic
extrav
strategically
strips
carlos
nathaniel
gy
perch
possesses
uneas
effortlessly
ruling
sacrificing
horizontal
monstrous
tucked
thie
trades
threaten
bachel
ligh
allig
plague
outd
potter
distinctions
correspondence
encompassing
electrons
convince
hippo
kit
kitten
mul
dove
arithm
quot
remot
literally
electromagn
turbul
1800s
attractions
berlin
decrease
prevalence
antony
conveying
gwen
gothic
##otechn
hired
tires
##vable
##ecca
convent
clustering
pupil
cohesion
ware
revers
remn
backed
mund
parson
extension
demographic
installation
cellar
wilding
membership
snee
echoes
steamer
vitamin
vietnam
htt
liable
peppers
humming
proposition
terrified
styl
youthful
afforded
ion
metrop
experiential
urs
enthusiastic
porch
boldly
virginia
invasive
supervision
subgenre
##vis
##itably
##ighted
considerably
extinct
raft
sampling
straightforward
torture
snail
lag
##ima
inte
archive
verb
rubbed
diligent
thermal
wholesome
misconcept
##wright
##mers
crad
revital
occurring
##oxide
accommodations
kettle
shrewd
stamps
##agne
employs
righteous
customary
strife
dale
tribut
rend
agitation
protests
2014
marvels
rinse
bick
cinder
nib
##itious
headache
retr
governed
logs
hiking
applause
cruelty
harmoniously
patrick
lollip
shaft
feas
hearth
hunters
carriages
blossom
violet
31
pam
proven
skull
slumber
refres
volat
cathed
testimony
iraq
cable
nun
ses
spilled
unst
clearing
emerges
182
shrub
awakened
thuill
prose
##riety
##orting
restoring
erosion
productive
tendencies
multiplication
intermedi
spaniards
incapable
##uci
canoe
disprop
refrain
demographics
matt
nee
playful
transp
transpl
deepening
##avering
neurons
depictions
imposing
capac
housekeeper
lois
disturbances
entrepreneurship
uniqueness
piqued
hare
##eded
plaster
unem
bash
fasten
facilitates
protestant
bravely
##dri
##fu
stagg
##chem
whereof
restor
providence
riches
horseback
viii
loading
exercising
suspicions
lump
forum
worms
ministers
endured
futur
comparisons
sourced
curricula
huck
sealed
##apple
salmon
wildly
thankfully
deceive
admirable
pious
##adel
##essing
##igation
friction
marilla
provider
broom
presentations
dimension
marveled
irresist
disproportion
vag
##di
##pit
##va
angrily
idol
##psy
collectibles
puppets
luxurious
certific
##bows
##adan
stained
##ensively
devise
activation
cheerfully
inhabited
elevate
banging
dine
derm
afro
185
##bbing
raven
fist
##olar
shirts
broth
downward
parcel
skip
entertained
##cribe
stripes
crib
rol
energies
relating
rightly
fortnight
homeless
furnish
publishers
administrators
alfred
oop
wick
highway
concurr
ridd
lodging
conferences
acceler
receipt
porthos
loun
dese
satisfactory
##unciation
rocking
vault
##inias
smarter
poles
distrust
plotting
bidding
lingard
dentist
conservative
ukrain
cp
len
tai
##cript
##eses
remedy
blond
suppor
classrooms
lecture
corridor
exeunt
ewww
wield
asd
abol
eyel
cleinias
builds
bestowed
autonom
inquire
installing
unwilling
##ml
unear
scaling
geopolitical
nodding
colleges
motivated
galax
dislike
determin
atmospheric
wink
noticing
maternal
frightful
lingered
scottish
contradict
dens
mould
##olin
comf
brute
cargo
paste
greener
courtesy
owed
tigers
tackling
vulnerabilities
estimated
preceding
##uilding
fie
##woman
brood
##odynam
mischie
positivity
senor
southeast
##gage
##igned
concise
monaster
storms
coaching
anon
overc
indel
transf
medi
diagon
warmer
180
departments
axe
apron
bess
sig
##illon
crush
swamp
posits
ruby
hue
##arged
offensive
seeming
conceptual
manufacturer
intentionally
burdens
##arms
troj
allure
twins
signaling
edit
tenets
prospective
bip
chant
readiness
transaction
walter
symph
prompted
clinicians
##watering
subsequently
conquered
debris
lith
##rr
##rowing
##antha
wrapping
##overs
secular
defensive
grades
axes
pitfalls
katie
incentives
extravag
yor
##amis
repose
barry
voila
contribution
impacting
fueled
yogurt
exaggerated
offspring
odysse
tak
drunken
console
drawbacks
doubled
vegetation
crackers
rotten
##alties
coinc
refrigerator
infectious
sall
##asis
crane
underrepresented
##ateral
publication
spaceship
bonapart
##hyd
portfolio
arithmetic
mwww
unrest
submission
praying
conflicting
nesting
##ogenic
meek
monet
circuits
penalties
linking
prints
fragrant
creek
nit
##gre
##enka
##stop
##keeping
adhes
##cio
pepp
heavier
accordance
packing
##cloth
bumped
pippin
orle
worsh
inherited
screaming
wiped
vernon
recruit
decolonization
penalty
refreshing
##wind
marbles
hardy
demon
bulk
cec
riv
wi
fry
abn
##ollo
solved
allowance
impatience
embarrassed
strides
finite
palom
interfaces
pondered
memoirs
noodles
phy
attire
developmental
softened
eagerness
encountering
configurations
##iotic
##opot
herd
suspended
ella
pertains
fow
chie
offence
expectation
tearing
neuros
multimedia
arous
##chron
timber
crimson
preliminary
##drew
withdrew
haul
##osa
leo
boundless
periodically
acceptable
discourses
concentrate
inventor
industrialization
##human
muller
conject
strained
roared
regiment
hurric
samantha
tigger
purchases
buffalo
hamburger
##oked
perme
poland
lads
recognizes
marjorie
mabel
phones
##oyd
void
snatch
lowered
cocon
estimates
equivalent
cane
delved
imported
impacted
urg
destinations
bursting
undertake
predomin
derive
chewing
palomides
ae
reap
decidedly
subscrib
breakthroughs
bamb
jus
nas
ss
##estation
incom
marcia
destruct
financially
##holder
homer
decorations
duc
hiring
##ede
##iratory
bonding
differential
operates
crowds
martyr
folds
trajectories
ottoman
polynomial
dwww
ropes
esther
customize
conductor
frequencies
calculates
fools
provinc
download
microsoft
adjacent
bom
bax
ki
ally
##chain
##antine
franch
##umpt
imagining
mines
swarm
##coli
implies
manifestations
ants
##meal
commentary
pioneering
deception
##opotam
putnam
provoking
supposing
excurs
streaml
loos
pixel
bewildered
scheduling
noo
exting
travellers
virtuous
predicting
instructors
venice
mentorship
ache
kneeling
clasped
guinea
crou
##ea
chanced
tram
awards
regist
raj
titled
unwavering
barbara
premium
lesbian
unemploy
jordan
##urp
##ulin
offended
deleg
##obia
apoc
likeness
dynasty
burns
purchased
cigarette
mundane
odysseus
nim
pedi
##gone
##atus
drums
lowest
obstacle
honourable
faintly
patches
scandal
##eros
##ete
##stal
arn
signifies
transm
pops
evolutionary
grasped
ashore
companionship
appeals
gawaine
##page
hah
nobles
##places
needles
asset
proportions
prediction
psycho
athens
reconstruction
marvellous
courtyard
##lon
hail
arctic
acids
justified
##erton
severely
strengthened
variation
psychologists
exchanging
cultivated
decorated
album
disagreeable
proximity
thuillier
##aith
seals
clue
##auqu
loaf
telet
spectacles
conquest
feminine
##bid
##arding
phara
charter
closes
telesc
liberation
sergeant
##casts
newcom
##ailing
regimes
attic
athlete
sneak
descendants
zip
vegan
deput
buyers
birdie
luther
mall
nik
##cus
##fold
##bir
forums
deform
detected
diplomatic
temporarily
pak
sod
sparks
feud
##ogram
maintains
hasty
symptom
sequential
nervously
carolina
prett
volt
cracked
apprent
tempted
francisco
insignific
##edict
improper
astronomy
teletub
spons
gluten
constructs
cathol
prosperous
specimens
cum
handwriting
natured
courageous
manipulating
annoyed
lectures
magistrate
rider
altering
transmit
purity
18th
exhilar
lacking
attendance
julian
kernel
stuart
##ilion
twas
castles
converted
cycling
territorial
snapped
unrelated
##information
orleans
eigen
rats
##ura
##ometer
sometime
graphs
witnessing
scrutin
fundamentals
prone
nois
calculation
predictive
bitterness
disruptions
makin
##beth
##chio
justify
bliss
insect
producers
joyful
hunts
capitalism
amplify
nobility
harassment
sq
##rise
##ecraft
onion
beats
saith
fostered
##boat
urging
separately
bully
electronically
missionary
distressed
outdoors
mesmer
empathetic
au
chaut
alliances
marking
salon
predators
litter
instincts
culminating
tink
beet
shem
agg
cob
elastic
commonplace
##ycles
##guer
fulfilled
perpetuating
estimation
esteemed
2020
stricken
encryption
bachelor
dow
##opath
##atson
particulars
replacing
turtles
pancakes
doom
disreg
blush
##aughter
requested
mouthwatering
trustworthy
thankful
stringent
chautauqu
cd
tense
##vial
tos
seren
morrel
##elson
posting
denotes
massage
louise
absorbing
prestigious
prominently
ew
##made
##inos
allan
explosion
marguer
robbed
monthly
colours
inconven
jumper
cement
fake
reun
shill
haught
clung
speculative
gardener
coven
aristotle
aught
##rences
##urb
strand
wales
talkin
qualified
pyplot
tarzan
bolst
semi
discharge
bise
munch
pete
yielding
lecount
dantes
exterior
##ril
##utor
##acon
sheds
##izable
disney
##ysis
babble
devoid
templ
ladybird
discrimin
pi
scold
glimpses
35
occurrences
controversies
susceptible
misconceptions
mesh
##pid
marin
##ugging
freezing
reproduction
hierarchy
episodes
eccles
footprint
exclusively
viv
##elp
comte
syd
strongest
lyrics
rien
rept
acoust
agitated
regime
swiss
cartoon
carrier
entitled
electromagnetic
##rah
##onaut
ree
##ante
setup
equips
horace
uneven
laund
##ico
##ivities
outrage
disd
keyboard
convict
verily
institute
tribal
marvelous
deceased
##iotics
toothp
broccoli
ein
sly
##pool
##arine
juicy
##archus
belongings
outdated
bese
scaff
monot
morris
multid
participant
europeans
accompanying
bronze
sympathetic
olivia
mason
exile
spit
committing
vigorous
unconsciously
recreational
evidenced
hispan
robe
blog
cursed
retaining
antagon
catches
foli
suitcase
errand
delayed
passenger
prohibition
hormones
upholding
caregivers
dand
##alled
herr
grove
schoolers
sleeps
dwelt
venus
neighbourhood
##days
##acular
heel
##illery
consens
subl
greedy
guarded
totally
##usalem
nah
##bec
courte
encaps
pastry
updating
folding
oscar
siege
amateur
tuck
##sa
ster
abys
lengths
blessings
apprehension
footprints
raspberry
gps
##ti
anom
twinkling
valleys
securities
explorations
greed
geographic
bikes
summit
sarc
philosophies
impatiently
chuckled
adolescents
sincerely
infamous
pins
flowed
simm
respiratory
bites
immigrant
figured
robes
affectionate
alterations
watson
##itia
##cium
drill
slower
calf
halls
spotted
willingness
bourge
ditch
zar
##min
##manship
brun
commenced
smoother
uncovered
paradox
rejected
maneu
yup
seaw
manga
acton
tryin
fishes
scarf
1996
traumatic
gleam
trumpet
telegraph
antiquity
declaration
zen
##bands
chore
##ivism
carving
impose
quizz
draught
##ighters
fireplace
behaved
brushed
mystical
reciproc
penguins
iterations
hic
ka
seagr
valiant
informing
armor
thickness
torment
mosa
unpredict
trajectory
overheard
provincial
eust
messaging
harold
petition
notebook
rejoined
jet
ron
##van
whee
knots
indig
commem
embroid
psychi
drought
##rent
##asia
reimag
droop
slides
calcium
erin
trusty
banking
screamed
metaphys
disguise
mong
wels
##top
quoth
phant
##ologic
hopeful
jerusalem
teenagers
2021
nonprofit
cinderella
embroidery
hone
jag
##riend
enig
abd
twin
operator
dominated
revolutionized
diagnosed
warranty
indoors
marginalization
marguerite
omn
chau
##osures
spelling
downs
handled
equals
publ
loneliness
roofs
intercourse
ports
shuff
claud
carbo
accents
entries
##insic
##aiming
detailing
acquaintances
crooked
2d
bats
wist
nothin
enact
allied
imitation
cla
brad
##plete
proponents
antio
currents
passionately
ignoring
alpha
ryan
diaspora
rienzi
32
fret
shab
illust
cheers
burg
figur
utens
declined
flourished
pitched
privileges
screwdri
inheritance
ais
inh
##utical
unsp
preach
baskets
default
complaint
recovering
bonnet
parenting
relieve
riddell
autonomous
jos
lays
sage
##bar
pram
interfer
serpent
schm
locom
travelled
males
tortoise
enchanted
exemplifies
vincent
ambiguity
supporters
bisexual
##itations
##omon
whims
handful
pottie
suck
franklin
1997
criminals
scripts
litigation
coconut
bce
gill
lime
##zes
##wall
##orig
##esses
basin
##world
exposing
trivial
##umpy
detecting
perpetuate
meadows
consolid
livelihood
dizzy
lollipop
##burn
thematic
indices
firing
equipping
directors
riders
lifestyles
adulthood
thieves
baxter
rugged
stance
pottery
collins
blockchain
perpetual
diminished
illustrious
hover
##rice
trot
underw
commitments
stimulate
achilles
pollyanna
indelible
gid
sult
precon
##rett
ecl
aligning
republican
imperialism
mimic
palestin
stubborn
spheres
foliage
ost
allerg
allergies
childish
waiter
floated
journaling
rhoda
tatt
reapp
##agements
cooler
costly
coldly
labyr
missionaries
hurriedly
aroused
destructive
labyrinth
dart
abound
disk
interestingly
critiques
##hearted
prompts
laurence
maple
exacerbate
petersburg
bough
pans
facebook
##mann
sunrise
honored
##ommon
deserts
shrugged
egyptians
liquids
underscoring
rapport
##watch
disciples
##pert
hash
lieu
##agrams
crispy
hypothetical
marshal
asci
##ouncing
servers
parental
ideally
misuse
agend
alleged
fertility
##oscopy
resentment
chautauqua
adhd
award
affl
validity
dramatically
synthesis
eccentric
pals
##arium
##ematic
##ansas
varies
trev
breakdown
anxieties
propaganda
lobster
ri
rans
sv
ont
amiable
rochester
humidity
systematically
steaming
##amma
malicious
nanny
fueling
rags
bonaparte
canst
##ellow
spies
leans
clapping
parish
swore
ordering
embro
excellency
insightful
pierre
resemble
fidelity
sullen
ascii
fights
spiders
##oded
prescribed
##uthor
discovers
barber
captivated
rattling
shillings
hog
oat
pacing
vamp
vowed
heg
fors
shines
quart
growled
##geries
halt
buds
rebecca
pediatric
arnold
roc
flush
prover
suppressed
halted
##ophys
##ulas
consented
variance
graduate
crystals
appointments
endangered
xi
hailed
##ags
deities
##roots
swir
typing
armour
damn
automatic
gratefully
underpinning
prophecy
microwave
pharaoh
hr
retained
benevol
revival
statues
confronting
fyodor
dol
eg
gerald
spared
aborig
marx
##ahn
##jected
facet
complexion
hunted
weakened
##alm
alban
scoring
regain
signify
dioxide
governess
antiques
voluntary
ventures
executing
descriptive
mantle
symmetry
bakery
staple
paws
##arious
##ustra
##iley
delect
specialize
corporation
superiority
attained
imbalances
cudd
feats
peaks
swelling
sorrows
jesuits
wireless
gild
jug
spine
educating
grandeur
crisps
overlapping
cadets
bourgeois
scoot
parade
surm
dataframe
falsehood
tremble
prudent
founder
sydney
##ifting
sauces
##athustra
marching
pars
designer
##icients
empires
freshly
##ambre
royalties
tenderly
guarantees
http
zarathustra
bail
nether
##real
hend
emanc
fasting
deadlines
durable
ritual
weeds
communicated
sensor
loath
penit
negotiate
ingenious
lurking
intoler
##haw
goodly
reverend
apollo
brightness
facilitated
pearls
dolphin
chilly
spells
peach
delays
stressors
appliances
henri
henceforth
precedents
nar
thrilled
smoked
garner
investigator
westward
indoor
paradigms
bil
wines
##aka
##udence
uncommon
russell
2001
telemachus
wreat
##lem
##ceived
creeping
inflicted
##zzle
incorporates
privately
doubted
##balls
brazil
merrily
redistribution
cradle
cathedral
cn
dice
doodle
oars
slot
incorrect
visualizing
snowy
controller
adversaries
journals
reperto
kl
notary
politeness
originating
exceptions
mirac
grasping
marrying
coloured
toothbrush
cohesive
unhealthy
iot
vagu
##dled
##lad
##erick
##icular
rejection
perc
glove
engagements
collapse
empowered
gigantic
hedgeh
noses
##intend
curls
encoding
##version
undo
crawling
earthquake
invalid
cv
##anal
usher
geese
dearly
bury
freedoms
consultation
synchron
jere
playin
corp
recognised
taxi
lunchtime
oversight
metabol
sublime
36
80
hinges
accl
uhuh
annually
assumes
1993
gifted
coefficients
hilar
toby
bea
##aceutical
chrom
natures
suffice
captive
cultivation
bracelet
irresistible
fisc
jugg
floss
obes
chariot
rounds
inspires
harb
campus
chatting
indulge
articulate
ny
zoe
##try
nostal
slack
charms
explorer
accountable
arrives
inherently
sighs
dependence
scrolling
isabella
welsh
mcc
mash
##erved
resume
snatched
trio
oriental
tested
savages
resistant
negotiating
unfolded
sternly
digestion
lub
plaint
##resses
metall
satan
historian
selves
nonver
coffin
exhibitions
sufferings
outlines
pedest
necessitate
zealand
intuitive
thes
acres
overth
drones
##tax
crowned
ib
fren
allen
##proc
handmade
phile
traitor
installations
seniors
resembling
patrons
josh
##oofs
password
slew
enjoys
bankrupt
cornflakes
licensed
escaping
monarchy
intimidating
jasper
##esco
oft
newton
specialists
2013
creamy
lemons
corresponds
waistcoat
immunity
backpack
lala
marri
signing
fairies
figuring
logistics
dealt
sophie
rejoice
squirrels
reinforcement
prudence
dreary
##dale
##cot
plural
rober
lastname
windy
##llis
computation
comforting
rhymes
muddy
winged
1960s
condemn
tempest
subdued
conspiracy
hass
compressed
blur
##ometers
cleans
postp
ethn
mirth
ridge
earnings
impaired
gauge
discrepancies
##enna
stately
descending
stillness
visuals
grassroots
assignment
reconcile
aj
ku
verm
##ela
knelt
afgh
illusion
petty
dominance
enroll
buzzing
hydrogen
dusk
insignificant
fiscal
pension
tenth
alm
parch
deepest
deviation
hotels
dialects
melissa
frankly
trafficking
yogh
70
eigh
jill
wah
##bus
inuit
beams
blades
engross
cheered
fairer
biography
sweater
employer
holoc
danny
dissatisf
jurisdictions
shocking
dos
ada
handles
sermon
slim
painters
convictions
towels
tumultuous
eugen
##ige
plug
charging
cornerstone
savory
triangles
mish
##itzer
##oli
##oline
marm
corpse
repay
urge
speedily
ignore
resolutions
##igraphy
webpage
reinforced
rook
shudder
chores
canc
afar
##robe
confines
scrape
banner
profoundly
prevailed
municip
negligence
dermat
33
ja
shri
##aments
trunks
friar
regim
sharks
exclamation
exceeding
glittering
unauthor
thigh
reins
##agen
herc
plough
curate
turb
possessing
separating
architectures
##burgh
neighbours
censorship
piles
##etric
sover
composure
remainder
denom
unexpl
resourcefulness
switching
metaphors
mosqu
faculties
restorative
screwdriver
fen
##inence
##etyp
spoiled
galleries
doctrines
spears
khan
cay
##ouns
discount
burgl
##ammed
analyzed
mentor
cocoon
wiping
consolation
harvesting
rifle
prairie
bount
cri
tents
##don
##city
##itan
liking
diy
regards
##missions
surgeons
tyrant
pineapple
orchestra
soveraign
mack
yah
##non
##inqu
slipping
unauthorized
gel
rains
##esse
inacc
stabil
surpass
drawers
guessing
mansion
contamination
shovel
comed
##epr
grac
carb
lightweight
proficient
richmond
ape
damaging
##ycl
rebu
hamlet
triumphant
hurrying
csv
rascal
mischievous
trojans
poul
##math
frowned
nostr
pathway
lowering
uniforms
discreet
relentless
##otechnology
unemployment
aboriginal
wreath
holocaust
pater
##tail
##onential
alley
conting
successive
##ynth
sorting
middleton
settlements
tubes
tyranny
rehears
loses
##lean
stakes
almond
sums
elbows
exponential
premature
slippery
analogy
blooming
implicit
alligator
discriminatory
delectable
##oz
##eda
##iless
engender
unpar
scouts
natalie
archetyp
bathing
granting
dragging
crowns
dismant
pregnant
laundry
##town
unworthy
solo
ideological
cannab
dreaded
suppliers
therewith
crumbs
kingdoms
defeated
pies
sip
intact
donors
blocking
deaths
apartments
mathematicians
occupational
pillows
embarrassment
susceptibility
lugg
moth
zo
soy
workings
##ologically
prescription
edible
yeast
ensued
tempered
##bbles
tribun
resemblance
resurrection
bipolar
eighth
hong
mint
paces
##ader
##ucc
blaze
pastime
superficial
penelope
millenn
cellular
concentrated
multipl
kenned
obesity
bing
tus
anten
exempt
##isted
solomon
corr
steer
admission
globalized
victorious
adolescence
##utive
breathless
denying
amyas
turbulent
##ko
reef
seizing
hermit
sperm
accidental
worldview
sworn
treason
ernie
fermentation
dystop
propagation
unraveling
pertinent
mesmerizing
seagrave
eb
##°f
##anim
##stood
stab
##isham
workforce
mae
accessing
philadel
yelled
ecology
muscular
senate
stormy
distracted
blossoms
pleasantly
catalog
philadelph
youtub
##ecked
filtering
probabilities
hyster
pingu
##eed
##imal
beaver
repairs
floors
exercised
stockings
immersing
##erbread
utensils
nonverbal
unparall
##oen
##hi
chanc
pluck
justly
pleaded
syntax
gingerbread
volcanic
carpenter
rick
##eterm
prehe
membr
physiology
armand
quebec
sacr
lifts
duncan
scratching
nomi
jonathan
ankle
fentolin
##stones
seating
curved
submitted
depended
wonderfully
##eval
2008
178
chaotic
katy
abyss
unparalleled
##mountable
##12
##irs
reind
sugars
gris
partition
swam
defiance
halfway
melan
professionally
randomly
validate
pts
proofs
##elli
##iva
peg
cooker
maturity
pumpkins
teenager
pavilion
oscill
arbitr
chivalry
predominantly
##hill
thereupon
crashed
helper
##ometric
evenings
artillery
laden
etched
liquor
expeditions
insurmountable
symphony
pont
##ouring
superc
telly
quantitative
gleaming
arbitration
fug
jingle
acup
obstr
skins
banquet
scenery
##boarding
davis
restraint
lum
##pret
alg
##oso
##ogy
hereafter
partially
cheering
claiming
lifes
podcasts
scaffold
gd
ub
whim
alci
segregation
spice
modesty
nighttime
ordin
##guards
macum
barbar
peanuts
districts
indignant
multiply
piled
ves
vile
atomic
##ellor
mustard
climates
collaboratively
cardboard
kidney
brandy
veterans
segmentation
scrambled
euc
tying
##adic
embell
eighteenth
inquis
rejoiced
groaned
havisham
kennedy
##cards
chased
##ignon
examinations
transcending
mete
calam
pickles
sentimental
determines
divinity
sprung
northwest
accomplishment
padre
deceit
hierarchical
announcement
youtube
34
mi
pes
pons
##aria
##inkles
crest
##ilians
closest
botan
trusting
sweeties
magnitude
homage
obligation
astronaut
accommodation
neutr
surreal
darted
oc
##rose
##li
##edd
grumpy
commence
discord
pyt
macro
angelo
approxim
barbie
disturbance
tartar
dain
kong
rivals
sands
disab
raymond
macumaz
300
##vent
##itous
unite
aramis
evangel
presume
##arma
terminal
translating
attendant
reckless
disguised
linton
sled
##ario
stamm
shrou
preproc
hardship
entren
foes
devote
frighten
untr
nicholas
diligence
##biades
cushions
cz
wage
colambre
retrie
profitable
immens
##ophy
antip
observer
clothed
scrumpt
vacant
mitigation
weighed
pharmaceutical
sergey
roasted
terminology
alcibiades
##gings
##xid
stating
##vert
imply
interl
scant
judging
primitive
resiliency
hostess
conditioning
counteract
venturing
convergence
17th
ribbons
revolver
israeli
amendment
scrumptious
kipper
##rings
erm
celebrity
affordability
assertion
exhilarating
vass
ungr
cliffs
demons
spirited
homeland
discouraged
feminism
infringement
cupcake
##function
##apot
herb
crashing
##oundrel
wouldst
teens
##amped
macdonal
cartoons
barrels
portugal
pang
##nuts
atom
scoundrel
gluc
prototyp
singh
rainfor
nurture
##oku
attentive
merchand
yu
yach
##arre
exult
trod
##gging
audrey
hym
excessively
secrecy
deedee
gan
##yle
whoo
residing
playwright
importing
sounding
villagers
familiarizing
vegetarian
reviewing
venerable
begging
simplify
telegram
stooped
deprived
remnants
basically
monop
requis
barking
steak
eventual
vitality
fluids
comparatively
dickon
whistling
ivanovitch
adolescent
decomposition
##omorph
spencer
sprinkle
symbolizing
anthropology
bouncy
persuasive
shuddered
tribute
bolstering
recons
idiot
gloss
transit
##ergart
debbie
frenchman
transported
dismal
weighing
sourcing
sesame
antioxid
philadelphia
jaws
##warm
##leigh
sep
flaw
workspace
squad
favorites
transforms
magician
diagnose
tranquil
orphan
icing
pc
pent
##pg
##map
reside
##achment
examines
bases
maisy
landmark
autism
dock
moan
concerts
wondrous
sabin
affirmations
disdain
repertoire
immensely
votes
abst
##occup
intrinsic
collector
##ouched
denial
taxation
intersections
hanged
undermine
clergyman
voltage
reappear
dire
glyn
##°c
ladys
sidew
behaviour
resonance
cruise
conserving
lining
sire
##held
repor
herds
dadda
objections
delicacy
chocol
pinoc
mythological
powell
splendor
leaping
mammals
austria
pavl
##ports
chili
plag
humpty
kindergart
snuff
bunn
democrat
airplanes
clerks
bluepr
capacities
vet
##po
doh
proact
joking
ladders
pulse
julie
skeptical
ascended
afghan
nad
sap
##uration
reed
claire
willow
avid
couns
bowling
freshness
scarcity
ratios
pollut
revered
rescued
transitioning
stitches
substitute
coherent
mord
##ecd
orb
frances
butcher
broo
incomp
lloyd
idi
speculation
inclination
judgments
lacked
##load
##hammad
celt
jup
##hma
saute
communion
calming
balcon
mastered
freeze
marketplace
tournament
fateful
resisted
giraffes
earthquakes
java
parchment
merm
rwww
sill
haired
byz
establishments
ambitions
consulted
clicking
coughing
terrace
eliminating
reservoir
pinocchio
highness
affections
coachman
memorial
gleaned
victorian
reconsider
ketch
##eroy
##akable
evils
carp
modalities
##apper
aviation
priority
hooks
dye
##semble
eternity
registration
##dia
##aters
##olation
aloft
wells
comforted
officially
complained
neurological
179
oxford
journalism
cordial
stimuli
prohibited
panting
ecclesi
luggage
ced
hound
shir
quote
surgeries
barren
dispose
mutually
##ika
##blest
scratched
seesaw
philippe
sketches
monetary
##zel
sinister
classics
apology
sustenance
microc
elevator
composers
confidentiality
remotely
whites
##ogene
clinging
performs
garment
elementary
nag
##rick
alumin
mare
insulin
belle
swell
##azes
richly
sustaining
tasting
dimly
rainfall
unnot
witches
inconsistencies
digitally
percentage
ambassador
urgency
preconceived
dainty
##orestation
stenc
heading
morals
mistrust
psychotherapy
attendees
reserves
casc
cale
mashed
weed
##ositions
##quin
incess
infected
quests
##amese
fitz
warmed
2010
distinguishing
transplant
tol
chast
sah
unkind
eminent
monuments
burger
penins
reformation
approve
livest
underpinnings
hinduism
ptsd
bog
pence
##tales
ineff
twww
subord
terrific
paperwork
computations
spectral
mythical
pronunciation
rogue
fetched
bc
##wart
##onia
##isen
query
gee
environmentally
disappr
disagreement
dougl
cbd
##irming
coke
competencies
melod
convincing
echoing
juno
thrillers
antonio
brainstorming
lave
ripped
##xx
moderation
momentary
devised
bounded
palms
seminal
permits
vigorously
macumazahn
hitch
rites
inhib
explains
sleek
sideways
nonline
violations
carelessly
yoghurt
##rat
##bas
##bath
professions
virtually
luckily
revenues
tidings
embroider
tok
shorts
anonymous
orbit
##alling
compose
cran
##ptic
cobb
##proof
affili
declaring
rumors
rooster
tanks
recycled
manuscripts
afflicted
99
aaron
hints
kansas
##hist
befall
dean
uphe
intoxic
betting
teapot
highchair
mattered
wrongs
reverber
pennies
ej
##see
fris
##ensing
skirts
refract
sociology
bedside
viable
stressed
fashionable
attacking
unchecked
leonard
oatmeal
mute
moust
pp
##nect
##cups
##ilia
##amine
chants
unaw
excite
mais
horr
cleanliness
portable
calmness
fellowship
outlining
wardrobe
conspic
confeder
bureaucr
proactively
aluminum
unnoticed
mors
witty
##mill
##irst
##usted
themed
append
startling
robinson
africans
decentral
cavalry
contrived
feasible
extingu
eustace
mentions
xii
##umen
flights
##efined
newslet
enhancement
raced
##isa
##urbed
forwards
sheen
##reated
scattering
mug
ethan
treehouse
##cliff
workshop
cryptoc
merging
curtis
deciphering
dazzling
incomplete
font
##chin
gogg
popp
illustrates
cyl
resonated
unnatural
stamped
dictate
revisit
neuroscience
moll
##cas
##hot
conscient
stretches
shrink
beaches
vendors
sincerity
masculinity
giddy
jog
##long
hagg
##chi
oracle
pha
simulate
defarge
diagrams
cutter
temperament
ridic
assembl
academically
fisherman
forecast
satellites
hides
xiv
##oque
##ni
##cence
##opathy
thenard
removes
##inted
evaluations
grinned
roulet
artisans
skiing
mocking
##elect
workout
preschool
hopping
initiate
decoration
spinach
hawk
perilous
configuration
pledge
tumbled
asyl
##usable
recurr
edith
uniquely
wrestling
vaguely
caleb
75
ni
tat
##hem
##ando
newer
refusing
popul
planners
choos
##ippers
attendants
overlap
commemor
##otr
coloss
blazing
pools
badge
robbers
guesses
microscopic
moody
##arnation
cinnam
rusty
vaccines
consensus
reindeer
cors
nought
psmith
##oras
onward
##agge
graves
kindred
eatin
navigated
##flows
cracks
dissemination
teletubbies
chile
fragr
manually
pea
fireworks
hairs
textiles
##she
banker
jersey
floods
37
##urate
prag
##iven
unle
orderly
courtland
cords
greetings
comprising
spaniard
acoustic
##pence
evap
headaches
curled
laure
keywords
viola
transferred
##gressions
1970s
attorneys
chatter
chunks
##issy
assented
maids
cheaper
superman
renewal
infinitely
cinnamon
##bag
topp
##etts
iteration
##utation
plun
##akov
waver
barley
devils
superp
winner
winona
promoted
screening
mobil
quirky
eligible
roberts
jupiter
dmit
mow
##rock
##amble
##cible
poppy
discrete
skates
honorable
feroc
twisting
disturbing
instinctively
strolled
disadvantages
dulc
bickley
engrossed
vouch
##yan
##worm
##istine
strands
strains
humili
watermel
menus
faithfully
recordings
unclear
ignored
assistants
shrill
grapples
awaits
filmmakers
raisins
jay
sine
va
##national
##iantly
nother
peac
blake
wragge
despise
captures
lengthy
diego
pedro
ardent
covenant
acupuncture
gour
clapped
earrings
modifying
kinder
despised
##maid
argent
surviving
extracted
imitate
cbt
resident
founding
pillars
desperately
grieved
proclaimed
sams
theological
anderson
tric
brack
caric
perished
smash
##uba
wholehearted
statesman
traveler
oxen
reinforces
advertisements
waffle
perchance
kittens
##dies
##mies
wemm
invari
paran
transmitted
formative
stev
problematic
cherries
documentaries
synthes
cryptocurr
hmm
lud
pau
withal
enz
worldly
mediation
extensively
excluded
adjusted
##aurus
appealed
fulfil
persuasion
wavel
pagan
##yer
adams
invitations
##rais
competent
instructional
enlightened
rhythmic
patriarchal
beak
trol
herald
intest
noel
manly
##aways
provoke
hostility
seaside
columbia
bouncing
enigmatic
horrors
##han
aran
##ounding
##armed
hugh
photographer
villains
bandage
dissent
contemplate
misunderstood
penetrate
sherlock
unreason
reluctantly
leopard
unpredictable
##oct
##rod
##ications
twitch
plead
bestow
captains
vibrations
commander
imperative
2006
lodgings
resembled
rosie
deposit
catastrophe
hercules
wemmick
gp
##esa
##ista
intensive
unav
redeem
swap
classified
milks
thrice
rainy
thrift
astonishing
alarming
bacterial
legitim
epidem
wholeheartedly
estr
##orns
shred
haunting
grill
##beat
factions
nora
batman
cabbage
flavorful
tidying
irritation
mlle
ensemble
lending
upgr
desolate
wrench
muhammad
cured
dollhouse
massachus
tedious
ellis
flourishing
estimating
accumulation
dancer
64
##foot
##ioned
anecd
pebbles
impactful
merge
customization
cooled
predic
scraps
undes
athe
compliments
survived
counselors
frederick
interfaith
shawl
celtic
massachusetts
licking
##anse
whining
whipped
clover
similarity
sunfl
petals
robbie
denys
concentrations
contemplating
ivanovna
derivatives
imperfect
nl
##rich
##nity
##icter
isle
ana
aftermath
protarchus
rests
forthwith
##rifying
oxid
fragment
hateful
borrowing
keenly
cigarettes
fyne
skillet
sweden
spontaneous
mammy
laptop
chocolates
tinky
framing
outlets
clocks
phoen
silic
tasked
garret
husbands
finishes
scotch
cind
##elie
##olved
##rigg
plump
##mental
timeline
timelines
##pered
els
thomson
clinics
dignified
annoying
digestive
helmets
genders
nile
rim
##gate
##nia
##kit
fray
spade
ads
smashed
humbly
avoc
cracking
bolsters
pitiful
cuba
inconsistent
imprisonment
jennifer
dement
##pted
cheat
quizzes
nonlinear
upheav
cf
fals
kwww
nast
##arcer
drills
##eches
yeh
confided
informal
barric
stylish
damos
selective
villa
asserted
cosmos
ramifications
##folk
scanning
smartphone
ferg
rall
tending
##bro
heaps
notch
defer
##actor
everl
incarcer
##ophobia
tuning
trailbl
misfortunes
vapor
recruitment
400
##aline
##isance
knob
outright
indones
verte
seasonings
journalists
messengers
administered
dmitri
riot
##vania
##inty
grands
emble
obe
glare
formations
continual
estella
gripping
proceeds
interrupting
escort
sanctuary
##etermined
auction
ore
piety
intending
##ittin
incoming
teamm
occurrence
lookee
skew
rivalry
jessica
reconstruct
palestine
strickland
zeus
metropolis
twitter
specify
slid
darkened
lydia
vicar
extrac
ketchup
caves
nell
ting
shattered
noir
##roads
involuntary
devout
minimizes
parisian
decorate
terrorism
buddha
disrupting
screws
dumpty
browser
bastin
herbal
unacc
grub
grilled
quer
oppressed
barr
##uffs
admitting
utilizes
heroism
shadowy
montreal
roger
submerg
eloquence
ceramics
verdict
disproportionately
reefs
marriages
eucl
wot
##bank
assent
identifies
defy
protects
rigor
porridge
berry
prefect
dipsy
nostalgia
pollutants
bh
bowing
##war
##jour
##itus
##illas
brake
mule
expanse
handsom
adventurer
flee
instructed
##ylvania
drifted
registered
bernard
skeleton
bilingual
##dog
##iary
##oni
anesth
##child
sparking
roasting
transnational
balances
qualitative
colder
novelty
malice
deliberation
sediment
nostrils
asylum
garr
##asse
compart
agl
charities
distorted
honors
tenant
owning
georgia
indirectly
intolerable
fancies
semic
##front
##etto
adrian
queries
hungarian
folktales
unfolding
emancipation
inverse
seo
spac
outbreak
underest
undergoing
longest
musket
defenses
necessities
convol
palaces
journalist
aquarium
##uko
accumulated
resorting
pixels
conserve
telescope
thesis
invariably
gwww
lumber
##etr
starr
enam
abuses
knick
##ogens
signatures
refusal
generously
sadd
fortress
##banks
tourist
impairments
embodying
compatible
##hor
##atical
##etta
upro
##uccio
engages
opio
transcription
babylon
soups
larry
layering
pastor
predecess
listener
violin
michelle
paddle
academia
certified
nourishment
prominence
vexed
hazardous
gly
nappy
disin
herein
commend
flipping
invaders
delir
slopes
learner
propriety
pasture
misinformation
spreads
derwood
remarkably
hypocr
destroying
cooperative
algebraic
deployment
hudd
sous
##onna
ingr
##entin
atop
plaus
remonstr
presum
snug
burial
budgeting
flooding
alexandrovna
aroma
sheriff
dissolved
hypnosis
hops
tame
wright
##pot
fraction
spout
encro
bobbie
traverse
documenting
gravel
clayton
repaired
orchard
phaed
pom
##nets
##haus
##ulu
engr
##ermost
estates
iris
##ritis
prepares
relaxing
marshall
vaccine
df
vat
##atal
##anism
alp
##quar
##ileen
carav
##urnal
deforestation
thrived
outputs
dramas
inevitably
miraculous
disabled
ou
vase
##utter
cans
plut
relics
modules
practised
famine
watchful
dripping
blends
automotive
unsus
grabbed
amplifying
goddesses
transmitting
aur
gis
piet
yan
abdom
recap
backing
offense
instagram
genesis
encycl
protector
summons
breathes
moose
resigned
stylistic
jr
kle
scept
tul
tiles
yer
##inger
ons
##opia
##unned
spun
spacious
sparse
co2
blunder
meters
ahab
specifics
judy
analysts
penns
coul
wheeled
bibli
muffin
elucidating
placid
proposals
hedgehog
glucose
dome
porn
toll
##reen
##asies
ornaments
##izet
oversh
decisive
speck
appropriation
complac
translations
maidens
reckoned
arabia
launching
merciful
squeak
bere
km
##ativity
shields
frail
spart
blot
subur
stripped
termed
ventilation
inequities
piercing
fleeting
drainage
discontin
automobile
staggered
livestock
thenardier
##ws
prizes
wasting
plight
clum
betr
##igneur
glac
practise
marker
emergent
subjected
radar
logistic
latt
initiated
tangled
sylvia
ego
mates
xiii
choke
exasper
blunt
confid
biographical
innovators
lordship
whisk
ninth
pilots
augmented
cerizet
swaying
specimen
deputy
fergus
fade
zzz
##21
frau
##quer
manh
listed
trivia
syme
interposed
adjustment
punk
dreadfully
labeling
robbery
intermediate
clumsy
##roll
beware
spicy
legged
unin
##itte
pervas
minnie
repurp
wrongdo
assumption
barbec
extremity
aerial
certification
portrayal
rustic
unearth
cem
gale
sans
##afe
stump
fractions
adored
blushed
scow
poker
personage
snaps
squared
ultras
fatty
converse
coordinating
implant
restricted
subtly
metabolism
cc
lup
pse
##gement
##ulator
plums
##ardy
smelling
mustache
elite
objected
##evna
puppies
fruitful
macaron
proofread
portrayed
forecasting
harris
reshape
##hydrates
cripp
cannabis
##alus
##chel
saucer
##ocy
backbone
buggy
guer
innum
indefin
duo
indicative
prosecutor
quadratic
uneasiness
impass
coined
receiver
constituted
perceiving
ribs
rods
baroness
archaeological
rectangle
masculine
pakistan
carbohydrates
pseud
tended
winky
thorn
starch
##abouts
beta
perched
blamed
ideology
##aza
candies
moons
2011
judicious
repetitive
olympic
andrea
pennsylvania
##adac
alchem
##chon
gruff
##uality
quitted
indies
flann
reddy
recommendation
screams
undertaking
reassured
volcano
perplexed
chiefs
entrenched
trolley
hwww
tik
##uates
##alted
##staff
adore
arsen
##ishly
dreda
prehist
genoc
universally
buns
grabs
bertha
reigned
inflammatory
exacerbating
toothpaste
baw
og
##building
shamp
dei
oriented
harbour
adaptable
owls
latent
randy
elucidate
custody
git
laz
wrigg
##ymm
deity
dres
##urned
syner
parking
illusions
footing
2000
auditory
absurdity
commodities
wavelength
nug
ww
uninter
##kshire
backup
communist
slugg
entail
plank
servadac
rhe
ranger
parlour
teeny
tossing
meteor
hymns
icy
lymph
##uities
##esia
seb
adjo
disruption
anytime
##ometry
deconstr
additions
sybert
reflex
edm
missou
##oubles
perfume
projected
weston
rebel
flatten
sabbath
annoyance
amphib
aggression
haughty
whimsical
watermelon
##elin
##ithe
carc
##ucke
drake
flint
flakes
infirm
switzer
buses
informative
warnings
initialize
battlefield
sparkled
indulgence
dictionaries
dawned
canonical
paranormal
##fires
##oto
asymm
##aki
compression
syria
mornings
choked
mixer
resolute
theorem
pierced
exemplified
boosting
impulses
lighth
underwent
innumerable
ud
##zh
##wali
##step
preaching
simmer
##phones
valuing
shoel
misle
mouthful
augment
shivering
cromer
switzerland
##vings
hered
howard
glist
lawful
holiness
converts
ribbit
imitates
mercury
heathen
pedagogical
dresden
joust
roubles
ugh
vind
##sk
##felt
##utton
xxv
supplements
crete
monument
saturn
dinners
2012
burnout
thicker
gateway
biddy
modeste
constituents
trevor
ht
ist
naming
raging
spilt
##ocl
brah
persp
suppression
clement
favored
complaints
splashing
champagne
tyrann
baff
eater
sipping
##iere
##ombe
reardon
poignant
editors
critters
replies
activist
##boys
mentioning
forbear
revelations
commissioner
abbey
diagonal
eugenie
jama
lark
parm
##bug
##onics
##isse
##urst
chel
adren
betw
finely
secl
infants
##zzie
spraw
1990
trifling
peeped
summarize
bould
hud
yelling
##rag
##cott
stumble
abortion
interruption
downing
blanch
revived
sentin
predetermined
mechanically
honoured
177
jenkins
unpack
sacrificed
merchandise
damosel
oste
rally
congreg
clips
capit
metric
lasts
greg
##troll
desirous
entangled
abolition
yacht
kindergarten
byzantine
peninsula
bwww
cib
##aan
##eting
noct
acrob
smother
maori
expedi
damon
undist
piglet
dependency
neglecting
enclosed
coexistence
hortense
hilarious
mous
##will
##atur
framed
knocks
flaming
offenders
valet
heartfelt
##ographers
saduko
hoarse
planetary
hangs
astrology
sungl
sorrowful
revolves
coefficient
lunar
schmucke
##quarters
bors
nests
wry
##gies
##mus
##chard
intang
modification
finer
prodig
restrain
norah
hurled
professors
raoul
celebrities
favourable
anticipating
premises
bristles
gur
##je
##adata
reusable
##abs
agatha
##ryn
guise
swine
accounted
declining
speedy
dominate
fluidity
comparable
hamel
moods
arabian
subscribe
betwixt
##iked
##ati
bends
shrim
alan
whatcha
minerv
formulas
furiously
duly
darn
instructor
luncheon
tipto
carton
2007
rewarded
hooked
exhaustion
##keepers
newcomers
bunnies
62
##eons
##osse
substr
robotic
puerto
latino
dominion
billions
ivy
caul
casino
granet
fossils
aromatic
downloading
pilgrims
vietn
catalyst
proprietary
nightmare
shrubs
ukraine
shabby
ejac
conspicuous
cables
hens
mazar
nwww
##hr
##kah
##geon
twain
considers
signor
breeds
curl
triple
commanding
punitive
##bourg
reshap
ecstasy
vietnamese
##wes
stats
##illo
morale
directing
qualifications
coolly
pigeon
advocated
recalling
gait
##offs
terrest
pioneer
brooklyn
precaution
ceramic
cucumber
minerva
lance
##esian
stener
plunder
##ptuous
handing
artworks
leftover
freight
fauna
cambridge
##iscover
theatrical
patriotism
cyn
jot
ply
##ighty
spur
##ocial
turf
vainly
undertaken
slipper
dispersed
stammered
arou
dillon
oun
sik
tib
wart
##rum
##casting
##friend
##ados
doe
frock
teasing
calligraphy
asserting
infancy
satin
succumb
characterization
saloon
sweetly
temperance
assisting
authentication
disappearing
semin
sporting
compromised
hydro
methinks
sultan
forks
seiz
traps
impost
phoe
builders
moroc
##obic
credential
bulbs
cherishing
danish
tao
unusually
harmonies
gorilla
disclosure
poisonous
tags
perplexity
eloquent
cromwell
plunge
cones
chum
##rians
monumental
damsel
savvy
gallop
##unctions
fabrication
latinx
rapture
briskly
ursula
cavern
jules
ral
##jay
chester
allusion
finnish
singap
pastries
disrupted
benches
steeped
pondering
leisurely
resurgence
enthusiastically
craven
courteous
municipal
macaroni
shampoo
nook
##chy
adri
outst
esg
necks
sorted
tickling
gravit
browse
residual
douglas
maisie
terrestrial
gaily
lolly
pah
##anks
onc
##ereal
workmen
corps
mississ
singers
calib
##ippi
hymn
unlucky
dissect
microorgan
unravel
impartial
jaggers
hegem
sidewalk
embroidered
json
sd
##adors
##ropy
maxence
breadth
##heart
preparedness
harnessed
cuisines
revolutions
prophetic
rejoicing
squeezed
pantry
beseech
dementia
fences
hopped
junk
mitch
ti
tavern
brink
##feit
organism
constable
civilians
solidifying
ratings
scriptures
powd
revolt
##uvre
erected
monastery
tokens
mazarin
##hake
##olo
prun
chal
notor
howling
contested
twir
remi
preoccup
marqu
buoy
stealth
forgiven
achievable
malad
pillar
16th
seventeenth
homelessness
gull
adorable
agile
blocked
gliding
parc
swan
woodman
celery
visualizations
darcy
weaker
corrected
aglaya
singapore
hips
pestic
wad
##itution
ornament
soaring
insulation
vein
##encers
babbles
choir
authorship
centralized
impairment
rectangular
gastronomy
multidisciplinary
hiccups
ransom
proverb
pads
##uer
##still
##terns
doomed
spinal
stricter
coerc
insom
##amming
medicinal
vehem
enriched
crystall
photosynth
xviii
missouri
cm
nymph
oe
##atology
congregation
manchester
daytime
replying
walt
defended
contempor
audible
noddy
nickel
bertie
##itarianism
brewing
empathize
catastrophic
dolphins
bankruptcy
everlasting
submerged
##about
drows
afore
snip
cheating
irene
vastly
dwind
shelters
depressed
landlady
hormonal
heathcliff
precipitation
transfers
jeremy
almighty
upheaval
shag
chis
contag
redund
##ricular
pleases
aveng
grandet
crosses
demonstration
jeans
pocketbook
mentoring
caterpillars
suprem
1980s
traversed
pitt
##bear
seash
excav
vienna
denver
civilized
profitability
patronage
prehistoric
cir
lame
pines
##itures
##arya
blogs
genial
homeward
showers
baroque
dipped
layouts
superintend
salv
bursts
150
inventors
prophets
crawled
combatting
drifting
endeavored
archaeologists
benedict
hurricane
sunglasses
dined
dummy
gb
nect
pouch
booth
skim
benefiting
ledge
undue
bathed
investigators
suitors
tuned
2005
venues
simplest
voyages
exertion
flutter
quivering
pilgrimage
certificate
mississippi
tipped
##oi
##nels
frantic
##elles
spins
unres
indisc
flaws
scars
excused
passwords
breasts
headquarters
safeguards
owen
rhin
linux
desserts
resignation
ambiguous
bamboo
balcony
teammates
nazi
anew
spook
sparrow
drone
commons
coals
flattered
scy
avoidance
translates
rushes
witchcraft
adequately
stiffness
##castle
treachery
boulev
apar
mau
vines
##sexual
tropes
sped
clan
timer
emerald
impending
intercept
flocks
popping
workflows
menstr
involuntarily
electro
madele
covert
illic
permanently
firefighter
pyramid
sneeze
integer
locomotive
kenn
lind
pawn
vas
wakes
##groom
##hen
composing
##ovsky
impet
tween
peeping
lawrence
methodology
matron
##elessly
penned
voluntarily
demonstrations
decorating
bridegroom
azure
awakening
battling
moustache
hoop
tumble
##idious
britt
visc
spiritually
computed
lineage
strait
campbell
springing
culpr
praises
concentrating
reproduce
boasted
irritated
imprisoned
extravagant
madeleine
##len
##yards
##ellations
##estone
unions
##ormon
flap
humiliation
confounded
sweetest
##shi
riddle
ancestry
sneakers
poisoned
criticisms
unmist
csr
baptism
obliv
metabolic
kinship
illicit
pills
yuck
##aro
plent
bridle
microscope
elevation
repairing
contradictions
gna
tad
stang
##abille
scents
discarded
insin
invalu
snugg
authorized
damned
garn
dedicate
initiating
honours
viral
simultaneous
linguistics
reassess
veterinary
waffles
enforcing
ephem
gend
jars
maze
sean
willie
quotes
coy
blushing
gland
redef
telec
veteran
##theid
metaphorical
apartheid
invaluable
pumps
scru
curs
traded
factual
beauties
snar
literatures
youths
exhibiting
obstinate
tuna
1995
photographic
untouched
##ogenesis
expansive
diameter
cuban
stimulating
frosty
##hydr
hormone
sobbed
phileas
ct
pudd
yule
##ju
##itic
##elets
##oda
arter
coax
serial
paragu
metam
continental
painfully
shoots
juices
trait
smoky
frontiers
vividly
deterior
ubiqu
requisite
conscientious
dagger
##itives
lease
perv
glen
highland
confinement
anime
physic
searches
ironing
grappled
chimed
victoria
hydrated
obedient
chancellor
ladyship
##dings
plas
##ocular
tee
##roit
slips
norway
natur
weariness
bullets
reinc
clinic
uncontroll
deposited
expenditures
bumps
xl
overfl
readable
chaps
confuci
revision
correction
neuro
disciplinary
coalition
##bullying
reluctant
clifford
galaxies
botanical
intangible
dab
fills
wicket
##fax
##rets
##estion
outstanding
wills
projection
newest
monse
intrud
combust
verification
cheerle
anthologies
wynd
macdonald
pavlovitch
rouletabille
colossal
plausible
microorganisms
inver
whoop
##otion
##otine
overpower
##bery
phosph
contrasts
erg
obsession
laborers
beatrice
jamal
gravy
marveling
festive
pussyc
brazilian
blooms
rhetor
38
wif
##part
##enne
##icine
stains
##ifiers
compilation
reductions
dares
alternating
radius
regulators
grieve
categorize
immortality
treasury
apocaly
catholics
denominations
encyclop
monseigneur
dup
javer
ouch
pard
pint
##atism
seism
##ellar
##oder
histogram
developer
steed
supermark
baths
##breaks
pilchard
unintended
epistem
amenities
paraguay
hin
nd
rails
##wear
##inable
pristine
##ifiable
##udi
pretext
bookst
swollen
wallet
humane
motors
##iciencies
thyroid
fingert
consequential
uttering
definitive
diagnosing
manufacture
outlook
revolve
glee
holland
preceded
mended
eligibility
hispanic
frenzy
sacrament
enzymes
lanes
forl
strap
backl
actress
skys
sprout
starving
bonne
mailbox
whistled
feudal
huddled
javert
mig
##rin
##some
##first
soaking
soaked
noblest
grover
carvings
moder
barred
barney
predefined
versa
starfish
immersed
##borne
groceries
aristocracy
palestinian
genocide
##western
stangerson
42
pca
zipper
##bes
prisc
withered
strode
fling
flair
edgar
detrim
oppose
harvey
thirds
embry
dreamt
archives
revolutionize
composite
abstraction
cubes
prioritizing
cyberbullying
muffins
hydration
dublin
giggles
nitr
mosaic
cept
deacon
consul
paral
hugging
fairest
statutes
choking
fortified
freshwater
mathematically
pausing
clutched
revitalization
sebast
nocturnal
cunt
ko
sojour
elicit
slap
literal
arches
solidify
##ochem
montagu
composer
vicious
submarine
scalability
emptied
hullo
boughs
nlp
mame
##wah
##pen
##aga
leak
##osexual
trek
wobb
agrees
plantation
obstin
resembles
mindedness
dilemma
interdepend
foresee
enforced
overseas
conjecture
apprentices
serenity
forlorn
priscilla
##pat
amish
slaughter
headlong
winters
annals
hester
discourage
ghast
dissip
licensing
lodged
squeezing
##uvres
ripple
volatile
ridicule
bins
gus
hark
kal
xvi
##noy
inference
chilling
neo
##umbers
clark
##pering
incidental
perry
flute
infid
psychologist
starry
odor
mortals
lucille
simplified
hawkes
hypotheses
comprises
gypsy
monoton
detrimental
fon
fizz
lain
oats
pg
##loo
##bread
chlor
soils
sobbing
twigs
scored
focal
baggage
churchill
garth
vanish
rebels
documentary
recipient
blindly
outlaw
##ulsively
exploiting
vicinity
softer
indulged
acceleration
magistrates
whirlwind
reptiles
fanc
mell
wiki
##reach
stip
megan
teas
modular
defines
positioned
feeds
colleague
occupations
exemplify
raspberries
repentance
credentials
cis
xen
##buck
##10
##opt
whichever
boasting
relish
relational
wrinkles
deepened
maud
woes
birch
salute
broadly
pathetic
hasten
vibration
apparatus
assuredly
swedish
retrospect
eyelids
fiend
##birds
poultry
dau
lanc
ng
##olith
##ationally
plucked
grilling
exams
glided
skipping
socialism
calories
##parable
stressful
torrent
switches
pronounce
femininity
multiplied
arbitrary
ralph
lull
zara
sobs
carve
happiest
slav
metadata
countrymen
rapidity
disappearance
legislature
subset
eigenval
kant
sow
##mble
##inc
toot
ascending
exalted
##agoras
kevin
monastic
ensured
##appers
##ophones
replic
senseless
riddles
sundry
porcel
flashlight
nickname
withdrawal
philanthropy
kah
pite
tumbling
##erning
gond
##cester
accuse
regulated
longstanding
sliced
concoct
pastoral
walker
undone
camus
gendered
sneaky
##ennial
flashes
tumors
concerted
restrained
infantry
cayley
lavender
pervasive
adjoining
cibot
skyscr
hae
congest
sushi
##andra
manhood
groom
differentiation
monmouth
sleigh
devoured
gentleness
logar
disappoint
michigan
banged
mandatory
horizontally
ripples
frowning
fay
pail
siber
##zs
##ye
##sea
doings
##ivable
spends
detached
expands
entropy
animations
socialist
hopefully
anglo
dennis
joyfully
visionary
cashier
disgusted
refreshed
fragrance
elsie
##kh
##onian
##chal
##emann
outr
quil
ohio
serp
##param
devi
blacksmith
originality
creditors
academics
cowardly
burgess
intolerance
garnered
gnaw
eerie
kicks
nets
##tec
##atr
##olent
ado
##astrous
disastrous
groo
valour
retro
milit
investor
catchy
authentically
triumphantly
crawford
tumor
fluttering
fixt
##hn
##wold
##alies
lex
scour
teasp
conceptions
tenants
matty
caste
attachments
##aeus
pollination
adversary
fragmentation
polymer
casually
transferring
tutor
stemming
prolif
defenders
vertically
discontent
multiculturalism
extinction
concurrently
metallic
65
fath
sigma
taps
vand
##stant
reev
lizzie
disob
##auer
##ignac
peripher
##uble
warlike
steeds
countryside
freezer
deserving
168
resisting
icons
israelites
patrol
yorkshire
overshad
sard
##fa
stung
shaky
quino
boing
boar
firemen
volley
##unders
venet
utterance
hammers
stimulation
grimly
mesopotam
rugs
accumulate
baptist
glitter
fingertips
reevalu
sittin
##omie
atroc
deem
perils
glau
generals
##ussion
planks
salads
operated
vanqu
administering
graciously
quinoa
aux
ostr
##eley
shak
compress
crushing
whereon
preacher
##xton
regained
endowed
maur
deme
successor
gradients
2009
acknowledges
distressing
recollections
gabriella
petrol
wyndham
tess
rearr
##plo
##ostics
helpers
discerning
decade
elic
curling
grease
hybr
foreigners
unhapp
multiplying
gilded
joshua
ungrate
aileen
##dam
comet
knowest
indes
downwards
offend
joan
hugs
conversational
pigeons
grizz
oughta
applaud
coatings
succeeding
venue
hesitating
hollywood
mournful
cedar
##hole
dop
mei
canoes
##unc
straining
appell
awaken
charism
redress
swelled
classifier
merle
archbish
smartie
transporting
bulld
asthma
pinpoint
2004
peculiarly
padding
trumpets
unfairly
parliamentary
revisiting
afghanistan
reincarnation
ghastly
porcelain
darya
kon
##ender
alighted
lib
troll
pew
prel
marcus
imaginations
elapsed
horribly
politician
shortc
parker
spotting
showcased
railways
shameful
intersectional
tactile
kneel
comfy
sodium
cact
gamma
hates
##kie
weave
cling
brakes
crank
blas
offline
marath
geological
badger
latitude
dealer
pandem
minorities
carriers
traversing
expenditure
rajah
agendas
cindy
rained
##pole
##icable
iterate
alab
clause
desnoy
patents
ordained
##erousse
russians
aspire
shrank
seller
assemble
leafy
caderousse
rosa
teenage
retreated
crunchy
improvisation
##ommunications
superconduct
biz
qur
##ointing
##wrec
relapse
meta
formally
##ussels
silenced
reasonably
filing
economically
observers
gardeners
calculus
occupies
occupants
documented
ferr
manifested
untreated
streamlining
dissatisfaction
metamorph
apocalyptic
desnoyers
dc
zoning
##mpt
##eneration
##anter
sha
choles
alluded
clash
grotes
slang
effected
listing
hairy
actionable
logo
sync
inserted
novice
intensely
passepart
anomalies
passepartout
bm
##bod
wast
##ogly
bruce
contests
flask
glam
edited
##tee
props
risky
broadcast
sucking
##truck
differs
nourishing
autobiographical
populace
undisturbed
ez
rowing
##hs
thai
##rika
deple
outreach
##udg
crude
quoted
elton
basement
contributors
superfl
##cedes
optimism
magnifying
owes
thirdly
capitalize
nuisance
mysticism
wickedness
felic
terrains
##comings
pokemon
maneuver
barbecue
ome
##lan
##meric
ith
##urricular
##anta
##uming
spouse
unic
graces
interch
interns
geneal
deepens
foil
tenure
sonia
##lett
pathogens
preserves
citrus
stares
chemist
festivities
linger
lisbeth
contemplated
regretted
chuckles
committees
drafting
yawning
ultrasound
null
rental
zik
fraught
perp
veiled
buildup
erase
fairfax
viewer
denmark
noticeable
shutting
impert
uncertainties
microag
commented
enchantment
misunderstanding
gadget
grievances
dystopian
nastasia
queried
indescrib
ave
mignon
vroom
##hoot
##oria
stature
brace
strove
headfirst
curb
retribut
repos
cheval
petit
fearless
straightway
shady
shipwrec
charmed
sellers
manifests
wagons
accusations
shrieked
##odynamic
turbines
congestion
eury
yuh
##eers
doz
##ova
cox
retiring
modernity
commonwe
shortcomings
fortitude
muttering
cloudy
tapped
dysfunction
extracurricular
betroth
thump
abhor
##owners
colomb
frivol
finland
interacted
##ippy
mutations
reinter
canadians
pollen
1994
15th
pitied
##umberland
betrayal
crabs
hinted
aristocratic
skilful
disliked
00
gail
viz
##upp
##hurst
stig
suite
unve
quin
##athed
humph
watercol
calvin
##ursed
implants
displaced
bothering
anchored
pistols
exerted
html
demeanor
cic
lone
mittens
pia
grumbled
charco
misses
americas
mercedes
armchair
originate
dinadan
unlocked
shaded
paired
karate
coughs
iterative
bronte
entreated
escalating
stews
consecutive
abnormal
phantom
griswold
hudson
koku
lore
sells
vices
##zac
##eny
##ilated
shimm
lig
aggreg
legumes
concluding
wildest
##heimer
pinched
wheelb
nicer
foxes
takin
rarity
tug
yoke
soak
sparing
adieu
craving
##idean
flown
sayin
yearning
tripped
##atorial
vera
tournaments
princesses
romeo
subsist
troublesome
prefers
undermining
sql
parcels
monotonous
zikali
##mun
pliers
escapes
openings
medal
mused
##obs
ridden
grasses
splitting
ferry
paddling
cruelly
pierce
beastly
alaska
21st
prestige
tribunal
antioxidants
underestimate
photosynthesis
pussycat
ald
smelly
wrung
solids
storylines
devising
fuller
burgu
innovate
constance
wildney
variability
wisest
epit
bicycles
sombre
beverages
chronicles
franchise
shriek
mermaid
lattice
disobedi
perpend
bam
daff
litt
rouse
##hall
toto
aback
outbreaks
compel
wrinkled
attun
fines
transcribe
curses
infinity
procured
growling
runner
whiskey
dispatch
hellen
folder
ranged
legislator
ramadan
##ienne
irrational
fraudulent
dominican
##odynamics
vampire
embellish
brooke
rake
##acer
genev
breaches
export
associates
fifteenth
shrinking
sixteenth
exploits
counterpart
bothered
archaeology
excursion
bard
cly
##inburgh
android
inks
##idal
chak
orn
allah
##ffin
amiss
aggr
induction
minna
listens
admon
sensibilities
summon
englishmen
logging
consultations
angelic
ghostly
indignantly
meditating
tacit
abnorm
argentina
phoebe
charcoal
rating
wak
chilled
flax
schiz
exposes
runaway
superb
salem
shortest
praising
gleamed
lambs
stephan
acquisitions
sketching
autobiography
tensorflow
caf
tuh
onely
peering
backst
needless
condes
drip
beginner
angular
garcia
widest
bulb
floral
##oscopes
fishermen
isabelle
grinding
dormitory
ontario
das
##anic
abi
stride
feasts
##ilio
specialist
crucif
chopping
packets
pairing
bumpy
scooter
playwrights
perpendicular
hive
nause
ramb
##lit
##cases
##mons
whoso
chand
soot
abomin
graft
undergone
##upulous
posing
psyche
predictable
speechless
occupying
faltered
fragmented
transcended
voters
shivered
tantal
carnival
explosive
##criptions
grandson
##orch
##iry
##ifted
aber
##iche
attentions
hardened
directory
falcon
otomie
rye
apologized
dishonour
antenna
euclidean
bitten
gin
venom
yang
##car
##bol
##ionage
orator
##uma
playtime
belg
communism
babbling
##ograms
violates
hastings
##inald
mortar
sneez
privileged
mcdonald
tutorials
proclamation
conformity
subgenres
chords
rainforest
extinguished
microaggressions
39
cmon
lank
##inav
dole
heron
airs
farmhouse
assigning
##burger
illumination
eliza
frustrating
insulted
offset
syrac
foresight
inwardly
timidly
spontane
integers
inconvenience
bailiff
archetypes
##animous
decentralized
bids
gert
ig
nash
##bet
##isingly
saudi
phill
satirical
madman
raff
suggestive
telemed
fingerpr
nobleman
rogoj
migrations
scandinav
erotica
netherlands
predicament
ungrateful
kale
mats
##utt
asher
alad
spacing
arisen
##assy
presby
politically
applicants
espionage
sharon
banished
puzzling
intellectually
##people
squeaky
harrison
endeavoured
pledged
imperfections
apostles
##warming
nectar
kitt
##lain
##hou
##oner
##ican
forge
##ocative
marches
slots
retri
##ussions
morcer
laet
caliph
arrog
irs
massac
moz
symbolize
decreases
obscurity
elimination
brutality
shepherds
surveyed
illeg
affliction
preheat
commonwealth
rogojin
gary
hoops
kem
##oux
##ulators
##anti
##osk
outlet
daybreak
favoring
viewpoint
woody
textile
horsemen
broadway
diversion
thrives
tunnels
disclose
harvard
antibiotics
displeased
futuristic
bombs
wikihow
lids
##law
##enz
washer
notation
wherewith
friars
invaded
simpson
assail
realised
metis
edinburgh
##phem
inflict
layered
collage
expectancy
annot
currencies
delicately
palette
malignant
seasoning
contacts
unsett
peck
contracted
manifestation
otter
jefferson
nova
coherence
forefront
shrimp
archbishop
##cro
reeds
foret
prisons
hailing
##agus
##opy
morally
##astern
doorstep
competency
indications
inquiring
mortgage
approv
discharged
misconduct
sunflower
mitchell
fighters
##pable
smer
passport
footage
chooses
favoral
ethically
annivers
ancestor
berth
pierrette
allocating
affirmative
submitting
pancake
stooping
palli
plentiful
gendarm
gaud
##uana
##mie
##ayer
stunned
liar
tracy
leapt
##udent
disheart
quilt
cole
probe
reginald
median
puritan
waft
##entionally
complaining
hindering
flux
vigour
coordinated
permitting
syllable
volatility
hereditary
morcerf
fenn
hushed
uv
##atry
##istically
disinter
contour
##iper
acry
airports
errant
##onto
qualify
salient
sensational
wallace
participatory
functionalities
inventing
karl
undertook
labours
convex
advertisement
prairies
metaphysical
paternal
newsletter
laetitia
aided
bates
brib
rast
witt
##oil
##iy
stumbling
foreman
##opause
downstream
flattering
decree
delta
tregars
furrow
mait
gameplay
constrained
termination
preventive
ranking
bangs
jerk
organizers
contradiction
hoofs
reluctance
telemedicine
cet
drib
nelson
wu
##hop
##fig
##aton
##onation
pric
susy
##uster
lebed
graff
overboard
blouse
accursed
curv
suffrage
announcing
wearable
birdwatch
civilian
matched
savor
assistive
torches
gratified
depressive
affirmed
withdrawn
lava
dexterity
composting
ariz
peppa
simmering
43
bp
gol
##wi
##itories
##animity
anto
hadst
excuses
heartwarming
hardworking
exporting
##asha
johann
loom
argues
quieter
jeop
repeats
starved
constructively
intellectuals
blindness
casinos
tempting
brazen
redistribute
unintentionally
disregard
benevolent
lubric
samson
48
jem
jub
lact
pt
tile
##rad
onwards
##athe
##adequ
divergent
unden
moors
kidding
rotating
tangy
ravi
strolling
reclaim
dante
algae
dix
niet
##yon
heark
reuse
##plots
brum
stren
twelf
drilling
offsh
insane
crevel
finn
highways
printer
terrifying
classify
closure
verbs
logos
dae
stationed
counselor
jeanne
bishops
feverish
nigger
disconnected
enacted
holog
nn
##edly
inadequ
##ooge
congen
crum
emit
##ernation
presses
rabour
kitchens
fanny
mandy
philippines
corridors
allegations
ambassadors
pytorch
twelfth
bb
kab
mih
wager
##atem
##athing
##etery
trud
##ocultural
adobe
grush
peaches
snoop
diwali
richest
saluted
filed
medicare
sustainably
hydrop
saviour
ambient
calmer
knightley
sighing
bolts
pooling
chuckle
grievous
superstition
hermene
drowning
calamity
pesky
wartime
sebastian
grotesque
wheelbarrow
smerdy
fading
hounds
kills
pug
pwww
##fields
##maker
##itud
oro
##antically
clon
coated
encirc
##swain
merlin
soften
antar
smoothing
hungary
graduation
malays
firmness
skillfully
observational
approximate
astray
restrictive
jargon
veterin
fluttered
imbued
soothe
roland
gdp
superpowers
cemetery
##oskelet
hike
##57
##elaus
stagn
dejected
adair
mann
##aven
eman
partis
workouts
collision
duel
scrooge
sandals
starters
weighted
gasoline
sundays
affectionately
algorithmic
reckoning
earnestness
desperation
swayed
selfishness
implicated
parasites
drooping
trailblaz
arizona
rabourdin
smerdyakov
fm
tint
##stead
##ipse
quill
relinqu
confound
deficiencies
diapers
recognise
raf
predisp
arthritis
bulls
rogers
somers
deposits
exaggeration
tsar
extrater
cupcakes
worshipped
narc
aus
##lar
##fus
##mont
##leton
beow
contours
recourse
smugg
sociopolitical
issuing
hurrah
computes
variants
##rehensible
unsolic
motivate
galah
puppetry
neighbouring
interpreter
apologize
syllables
excursions
powdered
contemporaries
nitrogen
unsolicited
tides
##oting
stocking
##amem
haunt
conci
ches
unen
##ava
wanton
turner
cori
promotions
pigments
##annie
separates
sharpen
2003
tremor
cavity
austrian
stacking
tragedies
escalate
catalysts
gymnastics
galaxy
fowl
barricade
seismic
palliative
beowulf
vance
##oken
##irth
abc
plastics
unified
claps
##angle
##phone
corentin
humanitarian
greenery
electoral
superpower
projections
lovel
participated
verge
perpetr
cube
##belts
hydra
psalm
unheard
intervene
certificates
nadia
rheum
lebedeff
cue
huss
tc
tier
waked
##ben
##mar
##20
alz
gram
##ovable
overh
peered
blink
partout
studios
startup
hardest
boyish
##grown
botbot
cleanup
notebooks
coastline
volunteered
##kinson
##cribing
suspects
gastro
jennings
hulot
pyramids
adhesive
burglar
luminous
haggard
milkshake
reshaping
spooky
boulevard
camusot
dian
##bil
overf
glowed
considerate
conversing
coolness
annih
recipients
renov
entrusted
criticized
diffusion
bargaining
conjug
bustle
nonprofits
paradigm
displeasure
taiwan
juggling
ecclesiastical
unaware
goggles
##intyre
44
cerv
eul
##omen
##requ
beaming
levi
##elyn
friendliness
creed
carey
classmate
##event
sunken
selections
plantations
evolves
pulp
hospitable
granite
louisiana
hazel
fiddle
jurispr
confederate
brimming
crucifix
alzheimer
gania
kelly
##uper
##eus
##ifl
depr
intre
##akota
disres
discards
phell
charley
##ception
promotional
jacks
heroine
kidneys
dissim
##ridges
persevered
stupef
subsid
atlas
gilbert
nightmares
overcame
publisher
swirling
outstret
gm
homet
##tch
enm
##esting
spurred
agamem
downtime
buys
warr
firearms
grandchild
squat
localized
suffers
audacity
churchyard
tarant
browning
northe
formatting
fourier
disadvantage
microbes
solicitation
proliferation
stephanie
syracuse
hometown
bung
fists
icel
wert
##itas
##otent
##opian
frater
cancel
howl
crows
glands
motto
siren
pretence
specialty
devour
debating
sighted
bennet
jesuit
elevating
saturated
crawls
tortured
hippopotam
prosth
remembers
lasers
theodore
comforts
livelihoods
agamemnon
cuck
dia
kol
##hel
##inational
stables
liabilities
sup
depl
unqu
##astically
amber
evans
peasy
barth
collin
lottery
seekers
georges
##ulsions
fondly
invasions
protocol
grieving
penetrated
artisanal
coroner
procurement
lifespan
transplantation
beng
fainted
latch
##oq
##rative
##escent
##omical
wher
ung
unman
amass
betsy
visibly
influencers
besie
medicaid
commandment
standardization
programme
stakeholder
analytic
triangular
grooming
snails
unchanged
discernment
##ijuana
outfits
hawkesbury
naw
##owder
##istas
upt
gren
straps
##new
waterproof
detained
snoring
##ophren
misinter
trusts
preventative
shading
malt
bunk
georgie
doggies
ceas
thinner
nestor
viceroy
juniors
grinning
redistributing
bruised
reciprocity
unspe
sepul
unreasonable
phaedrus
fighter
omitted
sikes
vom
zeros
##amations
unim
##ogue
quiz
consciously
decoding
waits
imminent
erasure
burrow
courtly
packs
brightened
wester
furnace
linley
blinds
flooded
indulging
scraping
rolan
psychiatric
mongol
plasma
bolog
lars
vows
##wid
##nde
##ppe
amends
belts
assists
skipped
headlines
individualized
printers
researcher
halves
pettic
piggie
wearied
whirled
trimmed
punctuation
proprietor
befell
uplift
subcons
inaccurate
rallied
marquise
chevalier
nietzs
daught
jol
lumps
##olome
##oreal
##ods
bohem
colby
surpl
imports
##ixed
maine
momentarily
footman
seatbelts
conceit
councill
1000
rationale
residue
prophecies
sicily
aisle
tattoo
jing
hairc
tres
grids
underp
bland
mayest
openc
redoub
messer
hara
embraces
denote
agreeing
droplets
oblige
manifold
defendant
congratulate
disgusting
wrecked
allergic
garrison
bizarre
clonbr
ei
lashes
##pes
##inia
implements
roam
coch
marijuana
presidential
expelled
milan
ethi
##imentary
bann
smoothed
excelled
tickles
froggie
attaching
cornwall
176
mcintyre
coveted
admirably
##umbered
gowns
ozma
##urgical
entrepreneurial
pamph
omega
grushenka
##ophrenia
46
cache
hoof
##dress
quitting
coating
reliant
parody
snows
optics
limestone
midday
harms
utilities
synonymous
sophia
clowns
thermometer
uncharted
proclaim
xvii
47
ooo
##hl
thumbs
##sex
manages
carmel
imped
drap
puttin
supplic
transient
##gins
##raising
airy
competit
surfing
nationality
moore
dissoci
reconnect
inspections
swallowing
precipit
automobiles
incarceration
uproar
bonneville
jurisprudence
pettico
daughtry
clonbrony
oval
supers
##emaker
##ocentric
empress
##ictive
poaching
phen
sermons
intrusion
squirt
crossjay
altitude
untold
aprons
##borough
certifications
orientations
crocodiles
anthropomorph
vernacular
hubs
enclosure
coincidence
penitent
pandemics
licked
vil
##hu
##kan
##enas
healed
##semb
spans
##ffe
##ibus
blurring
personages
spiral
boxing
turmeric
worthless
##shot
constitutions
duckie
unsc
licenses
correlations
lilies
uneasily
bis
biff
jpg
##kyn
##pox
nept
donna
takeaways
guatem
milton
commonalities
tele
joyce
jeep
##asmuch
carlton
hesitantly
rotate
hedges
roose
whirling
migrants
kimber
polynomials
mattress
preprocessing
alpine
adrenaline
kenneth
berg
pag
##dem
##post
spurs
grit
ammun
scans
conson
##velt
inscription
envious
poorer
inspir
shortages
foreground
epigen
cleverly
carts
budgets
gorg
refreshment
rattled
legitimacy
undesir
ammunition
kan
##paper
##atra
##alc
usa
disbel
brag
partake
accred
glued
detain
prodigious
storyline
demol
pretzel
sonic
summers
duplic
martine
rebuild
counsels
bondage
partnering
precedent
marshes
muffled
comprise
lecoq
racket
punishments
1950s
discontinue
wwii
phellion
mn
ronal
tann
##iably
##anium
##omi
stag
shah
enum
gobble
upbr
diseng
thinker
typew
runners
##tok
salty
harper
bounding
checkups
chemotherapy
supplier
galile
stitching
tranquility
cumulative
membrane
maladapt
mameena
ithaca
outstretched
apert
karma
pm
##mia
##alia
knave
unused
ador
shouldst
decks
earns
monty
infall
##manuel
barons
squish
harmonic
customizable
badges
portal
marketplaces
verifying
lifec
ceo
ashley
adherents
desktop
juliet
receptors
exemplary
alienation
outset
##enerative
lizard
retailers
insolent
semiconduct
nietzsche
caff
rus
##utable
haiti
esau
subter
detract
midw
misty
dais
coup
storytellers
dickens
##ochond
alteration
ominous
lanterns
puffed
aztec
tempo
chirop
##opathic
subordinate
cryptocurrencies
combustion
graffiti
pike
##kash
##inois
stad
stinky
##aines
##opsych
knead
##ortional
crick
overcoat
peru
commended
recount
thanking
wraps
glide
famously
exposures
modernization
hotter
ethereal
subjective
adjustable
rattles
elliot
hamster
sequencing
innocently
gratification
splendour
barker
gamers
inexplic
diesel
allegiance
pdf
uplifting
rampant
misleading
rhinoc
schizophrenia
sepulch
maladaptive
##cote
##tons
inject
##urgy
adject
incont
preached
scam
guild
cork
humanism
norwe
fourteenth
collisions
applicability
expects
behaving
excepting
sandbox
shutters
rudolph
treasurer
##ommunication
claes
teaspoon
ds
kiki
mills
ssh
zod
##uance
anem
##ocrit
perks
callicles
waterways
medall
farth
diab
trigon
revive
sixpence
vibr
homest
michel
flashcards
infernal
hyperparam
vertices
##olitan
polarization
stalls
edmund
morocco
extraterrest
fables
goof
giles
raz
taw
upp
vod
##tel
##otto
##ilant
spills
disobe
crut
##ittest
incub
moms
influx
platonic
habitual
pours
odious
scholarships
apparel
naples
napkins
diagnoses
favoured
thresholds
lavish
nobler
beverage
righteousness
determinants
streamlined
henderson
reporter
roosevelt
undesirable
euth
kits
lus
##bob
##ounder
##ariance
stoch
reared
presty
chad
outbur
knowed
reloc
insens
develops
affinity
knowledgeable
turkeys
woodland
denoted
miranda
olives
responds
fabulous
caj
avenge
insisting
reassuring
prosecution
nigeria
autobiographies
reservations
monasteries
templates
mosquit
czech
scanty
pesticides
retribution
akin
dashing
serend
##inished
##alion
##omics
sug
clenched
desiring
valerie
creole
nighting
illinois
hallway
resolutely
unsucc
skillful
dwellers
mortimer
binocular
saucepan
hypertext
lipstick
patriotic
outsiders
laptops
##ogeneous
morsel
indonesia
sprawling
wrykyn
superfluous
acrylic
neptune
chiropract
aversion
fft
laced
tox
##ayo
##irus
fron
plumb
caram
betook
vale
endorse
subplots
##isman
proportional
sociocultural
bearer
unfit
hurtful
savag
widened
lacks
neurod
1999
murmuring
assertiveness
sinks
tweet
biomechan
pruning
serendip
unsuccess
##itute
whar
neil
adept
manor
compulsive
##pecting
iden
swoon
deposition
windmill
despond
distributor
bleed
northward
murals
rainwater
benign
shutter
apparition
lucrative
bucky
distraction
tablesp
subsided
stamping
lynn
miserably
millennia
opioid
galahad
stochastic
dung
zion
##nin
##year
thaw
subr
##ortment
afr
marg
proposing
detachment
biotechnology
limp
purpos
suspension
loosen
tribune
controllers
##regon
montana
whiteness
##oglyph
dated
##tree
##max
##eton
weas
arid
peeled
confl
darkest
counters
casts
mathematic
departing
guarding
unsatisf
splashed
eastward
dungeon
iconography
ritter
recreate
austin
degraded
clutching
enlarged
kilometers
sneezing
prettiest
fyodorovitch
thighs
monopol
logarithm
warrants
1st
fuck
lash
pane
##pal
##itism
tofu
##asher
##entation
sealing
##igo
cola
precept
smil
edmond
plea
furs
populated
revised
fearfully
jackets
bleak
starvation
michu
throats
##worthiness
tolerably
celeste
frosting
merrick
groaning
kear
surn
##aa
havin
alight
##aby
saun
outta
amino
quint
poking
prescott
transist
waterfall
##eney
processor
##ooner
responsiveness
midway
convicted
surprisingly
##ilitating
##rification
penetration
heirs
##abilia
tacos
regimen
rehearsal
retrieve
venetian
ponies
tch
tisha
uly
yon
##ui
##saf
aloof
chattering
impen
commissions
frig
glaring
confuse
propelling
hugged
fairbanks
lateral
internationally
##spe
exclaim
reviewed
validating
surveying
imitating
unbro
stanley
intensified
contaminated
dozens
aggrav
mop
puddle
greasy
schoolhouse
morr
navigates
api
filip
progressed
rosem
malign
spectacular
angeles
councils
harshly
terrors
scanned
whistlebl
disgraceful
bewilder
skateboard
epochs
stifled
summarizing
##funding
hauled
ace
pess
telson
vign
##41
toils
stalk
##imeter
##abe
##ellings
##uns
imparted
##angs
desks
marne
marital
curated
##ixi
##struct
godmother
multilingual
biking
merid
footed
sorcer
deliverance
feline
unfolds
mandate
pounding
ruddy
migrate
casser
hoover
bundles
merriment
prickly
unstable
aster
boud
oregon
raph
rams
wally
##atories
##essions
shew
emission
opium
silhou
leftovers
snowing
futile
shareholders
despatch
duplo
wronged
logistical
macbeth
##asmine
bewitch
oaths
presbyter
hermeneut
battered
ft
oar
##rude
##wash
##vo
##arin
##asium
stale
trapping
intimately
crumb
emil
flocked
glared
delusion
patric
souven
projecting
integrative
hopkins
dispos
radiance
francisc
islander
gallows
hindered
brandon
memorabilia
reconciled
cinematic
rebellious
dashwood
milestone
subscription
eyebrow
dwellings
hatchet
abandonment
hurricanes
sarcasm
flossy
fugitive
silicon
asymmet
hegemonic
oeuvre
alabama
indescribable
##iating
##adian
reiter
##antes
cra
crave
apprais
indist
persia
farn
barks
journeyed
colloqu
questionable
salis
captivity
climax
scramble
mysteriously
fillings
spectator
sheltered
procedural
semantic
120
beeh
requesting
commissioned
trifles
##thearted
cyberspace
meditations
quirks
editorial
neutrality
unbroken
sided
##icus
hex
reel
fringe
heral
##acker
grazing
workman
idleness
skunk
polo
kindled
expresses
steamed
##irtier
dynamically
##missive
bridal
pulpit
uniformity
hawai
fidget
wipes
dictated
kiwi
tweenies
snoopy
ronald
inexplicable
fencing
ky
olig
##cons
##aii
shocks
shilling
spike
spikes
noirtier
blaming
scoff
keisha
##lectic
passers
##ouda
burgers
numbered
##chiefs
filtered
audits
sweeter
especial
southwest
tapes
dealers
triggered
cryptography
ceremonial
tranquill
astronomical
lounge
engraved
tibet
tilly
##tails
##bound
##wig
slate
informs
modernism
bios
burp
climbs
probing
librarian
disordered
nuance
mystic
stationary
bonnie
solemnity
singularly
gymnasium
nikol
maneuvers
regimens
confederacy
smothered
gravitational
tantalizing
intrepid
hhh
##jah
##adder
shave
alber
mending
soar
regeneration
genomic
menelaus
walnut
specifies
temperate
deduct
arrayed
1990s
blinded
sophistication
stacked
clutter
analogous
championship
backlash
abominable
salisbury
kip
rak
##hift
##alls
resided
##ilda
##lington
concludes
catar
apes
scenic
unsung
ferdin
headsets
overwhelm
groans
rudimentary
alleviating
fracture
insolence
suppressing
##electric
chelkash
norwegian
asexual
dazed
etext
pell
tina
##isi
ingrat
##olan
suf
##iev
quills
buh
languid
laud
reasoned
thereto
epith
declares
constructions
webster
crowdfunding
accommodating
diminish
unreal
kentucky
hulk
excerpts
chanting
bounty
ferocious
ferguson
yall
inland
##asms
heather
resides
clump
commotion
miners
corro
affirming
respite
squashed
thirteenth
truthful
dusting
springtime
democracies
piracy
dyes
scalar
suspenseful
cowardice
conqueror
treasured
scheduled
beetle
worldviews
vanquished
hippopotamus
hust
jasmine
kaz
tect
voted
wench
##rh
##wal
stacks
rex
grating
overly
simulated
dipping
policemen
faiths
stuffing
injure
wheelchair
tanya
fainting
scorching
beckoned
crouched
insomnia
betrothed
daffod
iceland
aunts
cited
citation
dh
vene
##list
##cour
##punk
##aten
tod
foresh
prized
chan
leaps
claw
agon
quo
glou
slowing
waterloo
corals
meno
trader
holders
teresa
trainers
governors
postbox
##axis
gareth
melon
francois
billi
enraged
spoonful
pandora
gears
bloomfield
rustle
contemptuously
fagin
lighthearted
vagab
brooding
hassan
unexplored
stencil
telecommunications
belgium
cess
joc
kra
nud
pis
vlad
##oids
##piece
##inas
##oran
##rell
##acs
##opriet
resorts
agn
carlo
blurred
scented
headphones
inflect
menopause
typography
bitco
falled
geology
cookery
messing
filthy
implementations
colonizers
chicks
sickly
trickster
rebuilding
unwell
dissolution
amendments
staggering
commencement
attuned
ulyth
huts
pele
##uan
##rd
##lier
##30
##erated
##oule
##sty
bein
trink
knuck
interst
wrists
chari
powerless
firetruck
plantat
injection
thicket
allegory
posterity
accusation
stranded
mosquito
barbarous
flannel
skyscrapers
lifecycle
caramel
66
bim
hod
##pots
##vere
##omf
##irms
pross
alms
abb
drained
coh
handcraft
writh
seraph
esch
paraly
edged
##arsely
sleuth
piecing
##apses
runoff
steamp
grounding
birthdays
tailoring
starve
homely
impossibility
unsafe
margins
fermented
covariance
pumping
overlooking
brigitte
survivor
friedrich
ankles
firefighters
parsley
chromos
shrouded
##otrans
unsuspecting
shoelace
coercion
interchange
gilt
juncture
oj
##dler
ascent
usern
eminence
##ailand
detest
multinational
statesmen
besp
precurs
graphical
francine
altru
emperors
rooft
brewster
forecasts
##tesse
disclaimers
hackers
perempt
fernand
catholicism
consolidation
rosemary
steampunk
laces
nord
rector
rona
tf
##nik
##dm
##avers
##orak
abbot
unta
unsh
clare
justin
incidence
marse
##feeding
insat
invin
provoked
settee
minchin
eden
locking
paprika
collapsed
affective
wildfires
referent
threatens
porcup
beggars
contemplative
dingo
##ijah
recurrent
convolutional
expedient
reinterpret
corrobor
bixi
dall
gat
nasc
##oble
##uent
trinity
quater
proff
discard
idols
swind
##grad
diaries
1900s
antim
##umbent
emphatically
conductors
blender
foreigner
maximilian
frightening
virg
bait
practitioner
giov
comprised
mirroring
psal
quivered
stifling
erupted
cholester
anniversary
unenforce
extraterrestrial
subredd
untapped
bixiou
dell
fand
favors
hale
lones
##uers
##sbury
thailand
##atos
pringle
##anders
spaced
abused
grated
timothy
invade
breeches
generator
nightfall
##grass
floats
woodhouse
antit
interacts
dreamy
specifying
pulses
bailey
escorted
troubleshoot
wiggle
imbalance
intervened
accelerated
huntsman
sarcastic
beaum
contingency
predecessors
##speople
hunch
jell
tilt
xix
hemp
begu
##opal
seym
trance
intonation
sapp
manette
reset
contention
drastically
bluff
##awa
crev
curry
clears
retains
tablecloth
##ouche
doubly
gladys
skinny
toolbox
accompaniment
adversities
##gli
thriller
advisors
hanuk
antibodies
ephes
contradictory
phyllis
astronauts
gertrude
retrieval
hologr
biffen
mathematician
ect
hick
junction
mav
wail
yol
##rals
inasmuch
stam
hag
chops
chums
##api
platter
grudge
coales
flinging
rech
oph
realise
yearly
effectually
divert
makeshift
divination
broadcasting
acquies
capitalist
tangle
danglar
blondet
cleansing
incomprehensible
supremacy
abnormalities
vagabond
dint
pab
tou
##las
shack
prith
##champ
##othe
refuses
patted
exports
revise
sorely
authoritarian
fixes
banter
labs
panor
muscul
##heads
temptations
amplitude
vineyards
overtook
fertilizers
reappeared
phoenix
shaggy
wobbly
misinterpret
ferdinand
cholesterol
seymour
55
dime
hots
##gne
##arried
##imited
neon
spank
sparr
awright
polus
prophes
blackness
perfor
lovingly
exclude
straightened
##iffy
silvery
credits
intersects
rebirth
corporal
implored
perpetually
mixtures
glimmer
tolerant
brutus
embarrassing
bernice
trenchard
munching
avocado
delirium
pornography
seminars
fixtures
embellishments
hank
jade
sledge
##ran
##rand
##rade
##nn
lied
chil
thereafter
twig
discomf
joel
reds
horrified
motherhood
diagram
uncles
skillset
combating
arena
activated
sufficed
##caping
tormented
faulty
##modern
magnificence
hawaii
devotional
buzzy
quarrels
decolonizing
crusades
dismantling
baffled
darnay
shimmering
prithee
aph
dood
nem
##liest
##fo
haik
canine
##apa
##inea
timon
##yson
##integr
rung
keyword
primrose
bathe
declines
thorns
##flowers
cheeseburger
heroines
substantially
decreasing
pauses
australians
supervis
clauses
assimil
notorious
burgundy
aub
eey
oll
tins
ugl
vascular
##kk
shoo
##amic
##cht
##aug
##pract
marais
protract
sinner
roundabout
pictured
erad
##erco
irons
rollerco
violation
comprehended
wearily
colonna
logically
malpract
monitors
impercept
ghana
seamen
illuminates
relativity
##drops
marshm
carelessness
penetrating
eagles
beauchamp
clamber
negroes
sigmo
rehearsals
befallen
##worms
frivolous
kool
lah
pon
sech
vying
##opp
##fellow
##atin
stony
##chook
emitted
provis
##oyed
visage
swoop
connot
respiration
modernist
empir
sweating
professed
whisky
cowboys
fluency
diagnostics
feebly
throbbing
observance
sparkle
murmurs
extremes
executioner
gabe
modestly
irrelev
undergoes
testimonial
vexation
alcacer
invalidity
approximation
moaning
carpets
gorgias
impenetr
gasc
hig
pumble
tumb
zach
zoof
##gated
##vie
shove
withstand
chaff
neen
upc
boers
downtown
marcel
registers
varenka
technically
differentiate
encamp
richards
regularization
garb
spoilt
boolean
lorrain
gloomily
triggering
retreating
alcoh
jessie
krisp
superstitious
acclaimed
blueprint
997
haircut
rhinoceros
marshmall
pumblechook
lena
zig
##eas
tots
##iro
##ogne
clicks
braces
scots
ponds
newby
supposition
slog
extensions
conditional
wok
stein
tennes
besought
debated
princely
##anni
##annon
habitation
lifeless
masked
sanitation
robustness
hammering
enlightening
jellyfish
envelopes
accelerate
cardiac
kathryn
hopelessly
sniffing
assassin
nimble
assemblage
anesthesia
pluto
strenuous
disrespect
competitiveness
600
jig
##itian
alison
##illary
##estically
trough
blak
recycle
refere
keepers
generators
##whe
avar
turks
unease
cleverness
tickled
conquering
categorical
nonpropriet
meditate
motorcycles
dissolve
violets
corpus
anecdotes
perspiration
ejaculated
gbnew
eigenvalues
disinterested
unenforceability
nonproprietary
gbnewby
citing
##mith
whizz
##urf
shin
##aman
alk
energ
fra
##ellation
disill
resented
evelyn
eli
elm
endear
terry
##appropri
heaved
ledger
unlimited
rockets
commandant
clarification
##uela
opposites
scriptural
gaiety
pronouns
augustine
dotted
wilbur
apprehensions
cavalier
molten
raggedy
microbial
flickering
peacock
sentinel
ubiquitous
bookstore
geneva
dag
sr
##iences
##card
gobl
scav
##roche
eddy
processors
waitstill
filt
penance
optimistic
banners
fantasies
ambush
italians
bandages
wedded
toronto
programmers
interruptions
tilted
conferred
fountains
gavroche
warehouse
choreography
incessantly
blasphem
disheartened
hydraul
beehive
tennessee
qi
sri
yawn
##jack
whack
shoved
chry
myr
unatt
brady
evac
headmaster
pleading
##iciary
militar
softness
unfavor
labors
derrick
intelligible
memorizing
measurable
tracts
inequalities
obscured
enveloped
hansel
supervised
insults
nuns
eigenv
tinker
knickers
unresolved
mosquitoes
sacks
ug
zor
##nas
pruss
orland
canals
whereat
othello
flips
goodwill
guill
concord
medici
detention
fullest
raid
nonvi
beset
disputed
spreadshe
straighten
dealings
##flix
concealing
1991
dependencies
switched
fluctuating
prostrate
##operative
olympics
morphology
blueprints
##onnaise
rastignac
fates
jagu
muck
oaks
rio
wagg
atters
trout
deft
reservation
strog
feasting
indec
roamed
blinking
##pressible
cheeses
consternation
exclaiming
alternately
optimized
lawsuit
mutton
episc
randal
chimneys
preface
spectroscopy
clasping
unspeakable
bewilderment
sigmoid
ef
rins
ux
##rons
##iar
##bard
##utri
##stro
##idy
##chu
##ivan
incense
##feed
persists
muslin
broker
clearness
engineered
sprinkled
debilitating
bowler
violated
hoor
correcting
compares
2002
constantin
attributing
cordially
assertions
abandoning
handkerchiefs
waxed
intermitt
molds
einstein
evapor
sansk
impetuous
supermarket
nikolay
atterson
hord
mules
pim
##okes
##cock
##aunt
##onne
beeth
isoud
trina
leaks
##akh
eva
impulsive
quench
commiss
##airn
##anca
##intest
minnes
hardness
colorado
occult
earthy
salami
captions
jackie
dollies
malady
synagog
acknowledgment
mclean
peculiarities
trailing
anthology
revolving
cigars
crews
anthropogenic
squeals
gaston
custod
flattery
hovering
spacecraft
tiptoe
beethoven
bau
fumes
ls
lair
mmm
zulu
##creen
##bidity
##enos
##arthy
##iona
leigh
lexic
acumen
aflo
discol
##ahu
presid
slicing
transact
womb
busily
contraction
norse
expressly
performer
womanhood
conversions
##ruit
requirement
campfire
fundraising
cornel
lucas
traumas
cooperate
pedal
sculptor
mildly
wooers
cylinder
caffe
tranquillity
malpractice
filtration
afloat
wailing
##dome
##icut
##ulence
spid
acorns
rediscover
brett
silken
legion
obsessed
brotherhood
perfecting
sandcastle
celebrates
##shed
quarry
##health
galloped
doris
normalization
semblance
hieroglyph
mingle
rugby
arduous
prostate
overe
tiresome
blonde
nasa
figurines
lighthouse
appellate
gastrointest
disillusion
95
balth
dud
puck
##uke
##inies
##ecks
##ellular
##andy
needful
syrian
belar
##avement
parap
slur
freesty
tenacity
streak
safari
doubting
mythologies
buckets
nanotechnology
160
josephine
chestnut
diminishing
odyssey
ariel
cucumbers
##minster
mowgli
marathon
sanskrit
gastrointestinal
cog
coop
fod
lilly
paves
rf
rogr
##inently
ante
butch
##unity
##pton
wellington
##forms
smelt
obama
minced
capric
critiqu
risked
apologies
netflix
unfinished
sweetwater
titus
snowball
luella
thickly
nicola
torah
watery
vocational
troubling
storied
alexandria
reigns
##oplastic
ovens
oysters
##ophysiology
bingley
suburban
culprit
trailblazers
subconscious
bitcoin
hanukkah
##oiled
##hauer
##amy
justification
##anga
marig
afterlife
equine
furt
expulsion
memes
growl
markings
replicate
goldfish
bloodstream
rupert
illustrative
gladness
seasonality
craye
cartridges
renown
throb
louisa
molecule
lamorak
mosque
bearded
1989
pestil
pedagogy
ascertained
marxist
frisbee
ingrained
rhetorical
surplus
caca
jee
jorg
loth
sash
zinc
progn
clashes
timed
##cibly
##iberal
helena
flan
marrow
poked
idly
##ethical
collects
blueberry
salaries
coldness
fastest
archer
crafty
galloping
cosplay
bubbling
leslie
courtship
clutch
wiggly
perturb
ferns
futurism
scrutinize
rebuke
tartarin
abdominal
arsenal
caulifl
mesopotamia
disobedience
orlando
cau
dj
fated
gong
##tar
##tion
##path
##lein
##acements
ansel
deference
adoration
compil
evas
flog
presidents
objectivity
digits
questionna
##hea
1998
attainment
cyberpunk
warden
incessant
watercolor
pessim
handcrafted
gila
hil
tes
##oor
##mor
haf
wasp
sukie
##iffe
knack
mango
marco
differed
guit
##brand
retellings
standpoint
sinful
scikit
envied
##grave
##ographs
madison
juxt
normative
unlo
delightfully
streamed
advantageous
rangers
millionaire
glean
despairing
spatula
sanction
custard
bracelets
soothed
subtraction
newcomer
eclipse
ajax
alchemy
overflowing
homestead
tund
##vre
##erp
##atization
whipping
conor
enigma
##osaurus
##ivale
##assis
##awatha
tease
##bras
propel
##oba
copley
grouped
incorporation
rollitt
industrious
librarians
cowork
mirabel
hiawatha
afternoons
ducklings
straws
mitochond
ravens
snapping
grammatical
tuple
mirrored
feathered
heaped
reclaiming
staples
dazzled
dodge
meekly
priceless
inadequate
aperture
afresh
sind
tud
##dish
##orthy
##alone
##iculture
stink
##imo
cometh
amster
whereabouts
permissions
blazed
grandm
##ophon
operas
embassy
judith
viking
authoritative
competitor
palmer
swims
revolutionizing
renal
galvan
tactical
striped
bounces
unintellig
mockery
reperc
anarchy
autoimm
fauchel
metaphysics
nausea
##oskeletal
opencv
goofy
unsuccessful
invincible
katherine
##nection
theolog
##imensional
##icals
acre
carwell
improb
xxi
sayings
swish
expiration
farthing
erh
biomed
tombs
behaves
sonnets
cultivates
banglad
narrowly
fervor
mornin
scolded
ushered
pragmat
caravan
bangladesh
800
raged
##inators
##atl
##sticks
knitted
unimag
flapping
goodies
skipper
meter
drizzle
replen
burke
benefited
milky
interpolation
governmental
solidified
fingerna
grassho
affords
breastfeeding
inventive
warranted
gaunt
diagonally
wrongdoings
##width
fauchelevent
kam
lt
foraging
comor
##agna
##emper
thereon
allergy
willed
bran
carbs
overd
rovers
recurs
gotcha
offender
awarded
skirm
connecticut
##ycling
southward
forgets
rhino
commandments
motioned
converge
interviewing
renamed
underscored
tapestries
combatants
felting
dismissing
contemptuous
blossomed
stroking
precipice
vendor
conjunction
irritable
insurrection
4557
bessie
loosely
mosaics
agenda
pitts
99712
juxtap
41
fas
hib
sals
##rip
abel
abject
appal
wrapper
fungal
talbot
watered
generic
##ieri
uncl
domination
##zza
constraint
versed
candlest
citations
occasioned
extracts
contracting
bonus
correspondent
brilliantly
polymers
deceiving
hillside
thunderbol
hawkins
alphab
mingling
substitutes
nourish
overtake
olympus
commodity
philanthropic
verbally
moths
handsomely
birdwatching
ausp
typewr
binoculars
constantinople
curing
flet
zest
##bted
##orah
##omer
forcibly
qui
provenance
slant
profiling
soundly
militia
cheated
pastimes
collateral
welch
indebted
economists
camou
sucked
parametric
bedrooms
reconciling
albums
substitution
kinetic
confederation
fervent
forefinger
josie
marmal
##olithic
scaveng
spiderman
jov
lys
asunder
arb
clicked
blub
simulating
prescribe
schooner
parr
mainland
essentials
uncond
pathos
courtes
establishes
doubtfully
gripped
spoils
indication
flowering
piping
nano
bolted
sparkly
14th
bayesian
cabinets
thrusting
monarchs
insulting
escalated
1812
wyatt
diasporic
epidemic
ukrainian
enmity
foreshad
gloucester
ces
nuh
##dry
spitting
cloves
quand
smitten
insists
supplying
cheery
squeal
messed
protectors
constellations
bearings
judah
civill
diversification
malcol
malaria
ducky
racquet
killer
televisions
sleepless
bourne
vinci
exertions
murders
marvelled
cavalc
contrive
unearthing
cv2
oxidative
unmistakable
farthest
marneffe
boudoir
impenetrable
strogoff
cauliflower
repercussions
ceph
##outer
##anity
##imir
whats
spind
clot
compile
coil
scuba
handic
keith
insensible
regrets
signified
joins
defied
tryon
specializes
##ronutri
reviving
petro
petitions
yells
civility
buyer
banish
boatswain
rhine
credible
shrine
errands
pipeline
sophist
simplistic
warranting
picn
revolved
scratches
transcendental
judiciously
crabtree
plunging
seaweed
counsell
coulson
charismatic
jeopard
inspirational
nightingale
porcupine
hooray
malcolm
mound
##stock
##eching
clatter
artful
potass
menace
dads
defic
despatched
##ontology
structuring
##ynes
urine
precarious
hosted
amounted
froggy
sequel
livid
restricting
poisoning
rivalries
ipad
volcanoes
decolonial
vendale
vowel
wistfully
benevolence
unexplained
trodden
sahwah
brittany
giovanni
guitars
camoufl
56
78
fared
wary
##gic
##waves
##erk
inert
##omans
##reci
##ilateral
##eced
##olence
pren
haunts
alman
ammon
donor
##cian
intertext
##enshaw
scur
newborn
##issing
speculations
paraph
surged
patting
blacks
risking
##ugn
viability
chairman
matrim
forgery
tallest
neurotrans
cheerfulness
manufactured
enrichment
lapse
forbade
naive
liverpool
dwarfs
canalis
creepy
apprentice
overthrow
hysterical
potassium
aul
aching
svia
tesco
zulus
isolate
##ifice
legg
unarmed
manoe
arcs
underc
impulsively
bets
parked
avat
skillsets
diggory
blueberries
doubles
efficiencies
tariffs
graduates
panther
limitless
automate
tribulations
athletics
eleventh
julius
mandates
bravest
enlist
deprive
intervening
keras
palestinians
hypocrisy
jamaica
vehemently
antoine
marmalade
deficits
sviazh
61
gag
viny
##zt
##pi
##ayed
##impl
trill
nobly
##quets
##inev
blest
scudder
##neum
meddle
farce
planner
hearers
reveng
urinary
courtiers
disposs
lionel
dividends
sneaking
velv
guaranteed
rifles
gymnastic
dandy
percivale
catalogue
compartment
deviations
narciss
grandchildren
oooo
pablo
freestyle
gums
kites
nou
##lass
##vic
##strel
sta
##abo
##aba
trow
spa
##uda
scab
accol
regenerative
minstrel
distortion
diners
fishy
graduated
paintbrush
pinned
cheerios
##respons
reverie
galley
gasping
bethought
sanctity
sanctions
orthoped
brigade
tuft
scornfully
radicals
kangaroos
baaee
toddler
fowls
corrosion
shirley
toppings
subsistence
morrison
cessation
krispies
54
nucing
sown
##bells
##imed
evade
impurities
workplaces
glaze
subver
approb
blackboard
biased
sonnet
forged
ultra
##ospace
frankness
175
cosine
sneer
dunster
milder
census
##advent
explosions
condemnation
deconstruct
crumpled
recharge
dived
##rition
reju
alerts
seag
##ostruct
underworld
delivers
procrast
painst
postmodern
harlem
sufficiency
vik
palpable
optimally
universes
grabbing
paddy
toughness
##nesse
disclosed
cocktail
interrogate
nibbled
noiselessly
tusks
quran
cuckoo
cipher
duct
gand
hou
noodle
ole
hissing
##aller
##allan
allusions
spilling
##ocq
evergre
desolation
consort
smelled
insurg
funnel
slug
modulation
purification
designate
barked
prevails
communicative
volu
palate
grading
sacram
initiation
luis
contentment
nursed
pinn
clouded
1992
pitches
coco
whistles
lucius
heiress
conveys
dishonest
portfolios
bourgeoisie
ocd
interdependence
weasel
antitrust
minnesota
painstaking
sacraments
fable
##jan
##enstein
##amber
alger
searing
downfall
flounder
humored
edifice
##bey
swans
deficiency
benefactor
dresser
##kyo
##missible
colleville
seriousness
rumm
amusements
kenya
spongebob
bumblebee
charteris
leonardo
onset
repurposing
menstrual
kemp
insatiable
jorgenson
nouns
tights
theta
beaker
pricked
unesco
brussels
contamin
undergrad
##ultures
drenched
incumbent
scaled
rightful
##velin
tellin
endocr
follies
morbid
archival
tarry
hoarding
epanch
disappointing
miriam
boldness
loren
##class
oddly
stiffly
fibr
dimensionality
intertwine
cravings
subtracting
propositions
chieft
dandel
chauvelin
svm
evaporation
bologna
irrelevant
approbation
85
bakers
dana
nos
##iola
##yd
tho
reyn
prissy
##ction
enne
fres
clair
compiled
dona
boon
##angled
mightily
glo
tellie
belgian
muster
confide
schoolmaster
##ewayo
researched
baller
sympy
squid
caters
tenn
etienne
camels
sexes
##shaw
liege
shopkeeper
kidna
motorb
niches
tidal
covet
lobb
sidd
trademarks
##zanne
uplifted
feasibility
figurative
cetewayo
disobey
raphael
alcoholic
nucingen
rape
##uz
toaster
##arth
##icrob
##lee
##igi
hern
cress
recomp
mayst
simoun
parach
distill
meanness
swapping
girdle
avant
enjo
earthen
messiah
antid
thyme
darwin
bowel
westminster
cypr
weddings
admirers
lamented
instrumentation
hypert
grocer
podcast
fauc
astronomers
lounging
masonry
darting
discounts
pragmatic
glistening
approvingly
purposely
hydraulic
balthazar
58
68
72
cac
egal
ping
vistas
##mal
##icide
beale
alps
chats
exor
deuce
unaff
cland
braw
##oster
perri
insurers
invading
creaking
formulated
stepmother
morbidity
wonderland
steals
ethos
sarac
veritable
vanishing
homogen
bandaid
nationwide
aspir
crackling
railroads
vocation
uniformly
nucleus
swearing
lobby
posterior
mergers
trenches
gulp
loosened
##analysis
obeying
oncology
arteries
perpetrators
hermeneutics
antimicrob
lonesome
musculoskeletal
sviazhsky
dams
ras
alarms
doses
saff
peggy
blam
flapp
##ictional
accost
assy
##phy
##ixes
corinth
sinners
##dening
researches
selfe
ballad
devouring
combin
anglic
speeding
wetlands
contractors
hindus
homesick
executives
wretches
instinctive
doughnut
##written
merchantibility
stifle
surrendered
filmmaking
assassination
claude
dauph
cms
pep
sane
##aic
##hal
thur
##atial
inse
beamed
priam
chor
washes
workflow
##ailable
trefus
mao
darkly
violate
minimally
snowflakes
happenings
crowding
grassy
flea
martell
veneration
complicate
galleys
dismounted
harvests
diplomat
structuralism
rico
reassurance
vaccination
aromas
helplessly
imaginable
persecuted
sulph
scrutinizing
reporters
cylind
virgil
trefusis
darts
f3
gissing
koly
masts
naut
pensive
zur
anci
chug
overm
discred
medlock
ensuing
inspirations
shoemaker
ladybug
armen
climatic
statistic
convolution
destinies
malware
cabins
nicotine
sumptuous
disappears
cruises
migraines
wagner
discontented
corrupted
constituent
gavril
shrieks
winked
interfering
cafes
curvature
medallion
autoimmune
appalach
rejuven
cyprus
cuff
dm
gathers
lashed
lola
##eron
##atri
stunts
##seau
foreseen
pri
seest
fritz
lends
feigned
obso
schoolroom
warwick
##asco
welding
miseries
activate
poetical
fashions
masking
hindr
nanop
jimmie
reputations
bayon
cavities
recollected
shielding
iteratively
rejecting
devastated
astronomer
reimagining
dulcinea
wavelengths
peripheral
protracted
##feedback
fletcher
clandest
49
mri
pneum
##ioc
##analy
youse
##ayana
mania
grays
amary
impelled
cove
downhill
excels
housekeeping
proposes
ordeal
##erville
loomed
arched
brightest
coastlines
railing
bagh
sunscreen
malevol
minimalist
orthog
suicidal
crunching
boredom
glossy
uninterrupt
puddles
glaucon
ostrich
upbringing
obsolete
bony
cages
jor
maz
##lay
##ajo
sherman
trotted
##herd
##ffeur
##ormand
roars
exposition
##ertime
chees
boxer
postcards
sensual
netta
espied
funded
bordered
seaman
normalize
##ulsed
simplifying
hippos
indulgent
steeple
suspecting
scraped
marionette
stainless
concurrent
doubleday
bambi
chauffeur
membranes
reverberate
saddened
capitol
##hydrate
shortcuts
ceaseless
username
unfavorable
52
ebb
ions
jab
sord
sier
tet
xml
##mic
isles
##then
upr
##ooked
crock
strung
implying
edwin
organically
inflamed
ballads
negativity
darzac
dutocq
printmaking
rowland
lucie
cait
jerked
thunderstorm
janie
aerospace
rankings
heathcote
categorization
deploying
renders
omnip
obstruct
guerr
drowsy
hawaiian
rollercoaster
episcopal
eps
fiona
mec
muc
mormon
##frey
##pipe
##icia
##ombo
##utur
##chan
troph
abig
whenas
##activity
gruel
croch
lookout
impover
ida
realist
repress
incremental
publicity
orig
messrs
hotly
cleanse
situational
espard
undec
stuffy
symbolizes
blankly
lucid
shrug
manipulated
1700s
crimin
locker
principally
chronicle
nominal
symmetrical
oversimpl
advisable
template
repositories
condescend
agh
tah
##fruit
##itin
inmates
whal
pranks
neol
plod
groves
quay
recite
wroth
turnover
##strong
biop
dearer
destitute
symbiotic
unlaw
forgetfulness
moaned
laborious
counterfeit
crayford
pairings
fluent
unwel
dissipation
luxur
stupidity
cocky
betraying
rectify
shyness
restriction
cassandra
unmoved
lustre
lizabeth
lentils
##birth
multidimensional
bureaucratic
##itudinal
bartholome
seagull
eaves
ginev
kung
kaff
mt
mocked
mellow
##gir
mee
canyon
##pler
bris
evin
coaster
mayonnaise
decis
technicians
slapped
repar
repast
easiest
personalization
loveliness
fortifications
sacri
fleeing
initials
hesitant
tackled
##holm
buzzed
unbelie
cruising
rudely
sponges
concealment
intercultural
octopuses
dusky
extravagance
unleash
sojourn
phillips
hearken
stadium
mavis
cumin
dit
kuh
vall
##gom
##bull
##inities
##inged
tokyo
comtesse
ors
bystand
knaps
drom
drastic
xxii
relocation
##aterina
teat
hump
numa
solvers
menacing
faction
hugo
repressed
deficit
introductions
strewn
summaries
volta
dangle
etching
colonists
fleece
translator
liturgical
murderers
chewed
diplomats
gramma
gaping
bastard
fractures
stalks
sniffed
crouching
superintendent
siberia
depletion
offshore
savagely
caffeine
bartholomew
63
aes
bae
cudg
daint
ich
ripping
sf
tm
tain
wain
thron
##reus
##elier
shipped
comical
sphin
crescent
didsbury
emmanuel
overhear
intersp
smashing
realizes
minors
##bral
cleop
cleft
swah
wonderment
##ascript
circulating
bobble
balm
tenor
roadside
denomin
brownie
rigging
macallan
senators
errone
allocated
cosmetic
lambda
merciless
embodiment
levice
1830
sylvie
kinsman
fundamentally
sicilian
interfered
antiphol
ludic
stigmat
fingerprints
zodiac
subreddit
ginevra
2x
53
bucking
mace
##eaux
##erre
whad
enoch
##apo
donation
##weigh
valor
formulating
homeowners
numb
infusing
connor
youngsters
humanities
defiant
bests
footwork
sentenced
##esha
anteced
milkman
mixes
evaluated
attracts
savoring
quantify
ceil
indiana
grownups
persevere
premier
sofia
reddish
mercen
magnetism
trimming
rectangles
kernels
gilber
rendez
sponsored
outrageous
dismantle
hughes
exasperated
unearthed
outburst
chrys
nanopart
amaryllis
neoliberal
antipholus
57
cus
cocked
lasc
##eased
##uttering
canopy
##oco
cramped
diddle
anyways
##roe
glut
minus
counties
##eworthy
calves
avian
##ophe
revisions
turqu
lowly
101
consultants
thinly
pizzas
sneered
theatres
arabs
shuddering
unstead
delegation
glaciers
cactus
trespass
presidency
amsterdam
neurotransmit
lorenzo
cleopatra
swahili
hs
kel
mire
##inters
##ghai
noteworthy
hereto
grumble
##anger
assuring
elias
subopt
watchman
benefic
opting
admissions
captives
sprouts
cupid
murky
bottoms
##coe
resourceful
vacations
channeling
mounts
suspiciously
jerome
bonded
fireside
apprehend
wielded
shuffle
mishaps
cobblest
##ocytes
suboptimal
##hun
##imore
##ulity
frantically
canv
nev
sauvres
clog
crm
cranes
pebble
inca
goody
founders
confine
infat
encamped
waldo
centering
repression
fours
hairdress
divined
collaborated
sweeten
exhort
neuron
##bleness
disparity
observant
freddy
lyric
aerobic
vineyard
affirmation
outsider
nailed
javascript
strayed
reversed
cpu
elasticity
claudio
ordinarily
stupefied
eeyore
vinyl
abigail
rendezvous
sauvresy
fec
fum
ld
mists
vor
##ozer
##mind
##xus
##enerate
beque
chol
##ppo
##ableness
canter
nepal
lea
adjud
overr
flushing
playfully
##onda
clem
formulate
nightly
condensed
squar
winners
nonna
goldil
undress
garland
sexism
daet
clarifying
microphones
disciplined
fluently
torr
ferment
boliv
renounce
simplifies
sovereigns
jigsaws
cloister
drafts
boiler
disproportionate
cecilia
martyrs
mariners
jogging
caricatures
oblivion
dissimilar
wharf
critiquing
uprising
ludicrous
boul
cumberland
kos
mural
panted
poodle
##times
##enre
ansc
exod
##illus
unpl
##auce
emmy
##ibble
tek
signifying
delinqu
joanna
##phere
infuse
standalone
landf
uncanny
circling
freel
madly
gentrification
cogniz
perceptible
annex
exploited
plasticity
liszt
hawks
hippoly
discerned
trampled
labyrinthine
redefine
fanciful
indistinct
camouflage
mou
rumbling
xav
##hard
##enza
##leth
##leum
extern
upfront
unethical
##acking
ambr
relic
instill
readability
repugn
grande
valuation
hott
perfected
antiv
costa
cloths
photons
##heim
mortification
unwind
fanatic
##nelly
harvested
giggle
interpreters
brooks
insertion
inexper
weekends
meditated
dispersion
engendered
disinf
adorning
razor
bespoke
troubleshooting
connotations
heretofore
anscombe
ek
katerina
nc
tattered
##lah
##boo
##atable
##arg
inaug
##aculture
##uled
##arty
adel
artery
[...]
